<unk>	0
<s>	0
</s>	0
▁के	-3.44516
.	-3.50672
▁में	-3.73562
▁है	-3.76258
,	-3.89235
।	-3.95128
▁की	-3.98484
▁से	-4.25467
▁को	-4.2605
▁और	-4.34208
▁का	-4.47115
▁हैं	-4.68519
▁पर	-4.75821
▁ने	-4.78958
▁कि	-4.98986
▁.	-4.99419
▁भी	-5.03761
▁एक	-5.09302
▁लिए	-5.1845
-	-5.29715
▁नहीं	-5.35281
▁	-5.35678
▁कर	-5.4005
▁इस	-5.42157
▁ही	-5.49776
▁हो	-5.59907
▁तो	-5.61237
▁किया	-5.64919
▁था	-5.69199
▁यह	-5.71338
▁करने	-5.76905
▁साथ	-5.83581
▁गया	-5.84461
▁अपने	-6.03988
▁कहा	-6.08953
▁बाद	-6.11657
▁जो	-6.15542
▁रहे	-6.24909
▁तक	-6.25299
▁दिया	-6.26956
▁आप	-6.2792
▁या	-6.28408
▁थी	-6.33516
▁रहा	-6.34192
▁हुए	-6.37371
▁कुछ	-6.39885
▁थे	-6.41401
▁जा	-6.42745
▁लेकिन	-6.43023
▁वह	-6.48892
▁रही	-6.50185
▁न	-6.53097
:	-6.53283
▁पहले	-6.54322
▁करते	-6.57379
▁गई	-6.58129
▁ये	-6.60203
▁अपनी	-6.61843
▁कोई	-6.61984
▁किसी	-6.66847
ी	-6.67546
▁भारत	-6.67804
▁अब	-6.68167
▁होने	-6.68726
▁सरकार	-6.68952
▁उन्होंने	-6.6962
ों	-6.6964
▁वाले	-6.70665
▁जाता	-6.71067
▁लोगों	-6.72232
▁बात	-6.73272
▁व	-6.74178
▁होता	-6.75519
▁गए	-6.76026
▁रूप	-6.76063
▁तरह	-6.76327
▁इसके	-6.7666
▁सकते	-6.77538
▁समय	-6.78594
▁बहुत	-6.81255
▁-	-6.82163
▁जब	-6.83457
▁:	-6.8454
▁करें	-6.84752
▁हम	-6.85642
▁हुआ	-6.86129
▁कई	-6.87379
▁(	-6.8904
▁करना	-6.89511
▁साल	-6.89526
▁दी	-6.89868
▁।	-6.90073
▁आपको	-6.90219
▁द्वारा	-6.9049
▁सकता	-6.90917
▁काम	-6.9096
▁आज	-6.91976
▁उनके	-6.92159
)	-6.93054
▁दिन	-6.94789
▁देश	-6.95772
▁सभी	-6.96292
▁बार	-6.96885
▁फिर	-6.9759
▁क्या	-6.98001
▁वे	-6.99964
▁मैं	-7.00396
▁सबसे	-7.0141
▁दो	-7.01484
▁‘	-7.01886
▁आ	-7.02781
▁हुई	-7.03924
▁लोग	-7.04256
▁उन्हें	-7.04545
▁इन	-7.05256
▁लेकर	-7.05649
▁होगा	-7.06823
▁सिंह	-7.07866
▁नाम	-7.08178
▁पुलिस	-7.08647
ा	-7.11611
▁वो	-7.11777
?	-7.1319
▁क	-7.14662
▁कम	-7.14704
’	-7.15837
▁जाने	-7.19343
▁होती	-7.19917
▁'	-7.19957
▁उस	-7.2104
▁र	-7.2128
▁करता	-7.22102
▁चाहिए	-7.2315
▁घर	-7.24622
▁अधिक	-7.25379
▁उसके	-7.26889
▁बताया	-7.27393
▁ा	-7.27772
▁पास	-7.27834
▁प्रदेश	-7.27836
▁हर	-7.27846
▁उसे	-7.29462
▁दिल्ली	-7.29981
▁बारे	-7.30111
▁कारण	-7.30756
▁बीच	-7.31411
▁फिल्म	-7.31709
▁एवं	-7.3193
▁लिया	-7.32368
▁उनकी	-7.32517
े	-7.32749
▁अगर	-7.33212
▁दौरान	-7.33479
▁शुरू	-7.34309
▁वाली	-7.35384
'	-7.38251
▁,	-7.38342
▁राज्य	-7.38499
▁दोनों	-7.38509
▁भारतीय	-7.39469
▁ऐसे	-7.39488
न	-7.39756
▁जैसे	-7.44016
▁आपके	-7.44211
▁होते	-7.44571
▁अपना	-7.44634
र	-7.4536
▁"	-7.45433
▁टीम	-7.46207
▁स	-7.46442
▁ज्यादा	-7.46808
▁जी	-7.47215
▁यहां	-7.47612
▁ऐसा	-7.4785
▁अन्य	-7.4858
▁इसे	-7.49155
▁...	-7.49337
▁कांग्रेस	-7.49749
▁–	-7.50788
▁पार्टी	-7.51169
▁तथा	-7.51512
▁आहे	-7.51626
▁ले	-7.51928
▁दे	-7.52665
▁क्षेत्र	-7.53044
्स	-7.54988
▁मुझे	-7.55406
▁शामिल	-7.55759
▁े	-7.56261
▁देने	-7.56461
▁मामले	-7.56963
▁जानकारी	-7.57946
▁चुनाव	-7.58932
▁जाती	-7.59253
▁तीन	-7.59586
▁....	-7.59592
▁मोदी	-7.60672
▁वर्ष	-7.60998
ता	-7.61596
ं	-7.62839
▁क्योंकि	-7.63333
▁काफी	-7.64066
▁रुपये	-7.6583
▁पूर्व	-7.66223
▁लगा	-7.66452
▁किए	-7.6751
▁सकती	-7.67549
क	-7.68667
▁इससे	-7.69647
▁जारी	-7.70125
▁पूरी	-7.70556
▁ओर	-7.711
▁सामने	-7.71646
▁डॉ	-7.71692
ो	-7.71829
स	-7.72152
▁इसलिए	-7.72659
▁अनुसार	-7.72706
▁वहीं	-7.72917
▁म	-7.73327
▁जीवन	-7.73573
▁लाख	-7.73901
▁जाएगा	-7.74034
▁इसी	-7.74568
▁मंत्री	-7.74603
▁करोड़	-7.74703
▁कभी	-7.74845
▁होगी	-7.7527
▁अभी	-7.76459
▁खिलाफ	-7.76662
▁कैसे	-7.77155
▁हमारे	-7.77176
▁10	-7.78336
▁बना	-7.78825
ने	-7.78919
▁्	-7.79336
▁अलग	-7.79566
▁जाते	-7.80698
ल	-7.80924
▁कुमार	-7.81007
▁बड़ी	-7.81801
▁इसका	-7.81806
▁आने	-7.82211
▁जिसमें	-7.82857
▁मेरे	-7.82901
▁सब	-7.83011
त	-7.83081
▁बनाने	-7.83293
▁तब	-7.83379
▁“	-7.83382
▁प	-7.83582
▁इसमें	-7.8436
▁दें	-7.84407
▁पिछले	-7.84466
▁मीडिया	-7.84547
▁दुनिया	-7.85025
▁नई	-7.85213
▁आगे	-7.85372
▁पता	-7.85463
▁उनका	-7.85814
▁प्रकार	-7.86043
▁मे	-7.86294
▁महिला	-7.86821
▁कंपनी	-7.87374
▁उन	-7.87694
▁ि	-7.87949
▁ल	-7.88194
▁मिल	-7.88446
▁ह	-7.88534
▁2	-7.88738
▁5	-7.88859
▁उसकी	-7.88975
▁उपयोग	-7.8925
▁विकास	-7.89344
▁ी	-7.89442
▁करती	-7.89806
▁मुख्यमंत्री	-7.90279
ना	-7.90558
▁हूं	-7.90572
▁अलावा	-7.90668
▁प्राप्त	-7.90938
▁पानी	-7.91231
▁वाला	-7.91736
▁जबकि	-7.92546
▁उत्तर	-7.92651
▁1	-7.9294
▁परिवार	-7.93262
▁वीडियो	-7.93487
म	-7.93768
▁यदि	-7.93817
▁जहां	-7.93999
▁बाहर	-7.9486
▁करके	-7.95028
▁मदद	-7.95129
▁योजना	-7.95205
▁बन	-7.95348
▁रंग	-7.95361
▁त	-7.95671
▁बड़े	-7.95858
▁आई	-7.95904
▁दूसरे	-7.95919
▁व्यक्ति	-7.97584
▁3	-7.98046
▁केवल	-7.9898
▁प्रति	-7.99367
▁भाजपा	-7.99457
▁ए	-7.99646
▁ना	-8.00086
▁मैंने	-8.00442
▁हालांकि	-8.00809
▁वजह	-8.01025
▁द	-8.01687
!	-8.02127
/	-8.02344
▁दिनों	-8.02372
▁पूरा	-8.02916
▁कार्य	-8.02938
▁अध्यक्ष	-8.03092
▁दिए	-8.03167
▁प्रधानमंत्री	-8.03483
▁बड़ा	-8.03657
▁नए	-8.03882
▁खुद	-8.04385
▁मुख्य	-8.04558
▁ं	-8.04757
▁बंद	-8.05498
ला	-8.06237
▁जाए	-8.07114
▁पहली	-8.07149
▁देते	-8.07324
▁चार	-8.07423
▁विभाग	-8.07683
▁अच्छा	-8.08159
▁बता	-8.08453
▁जाना	-8.08515
▁जांच	-8.08539
▁जगह	-8.09169
▁हमें	-8.0934
▁जिस	-8.09391
कर	-8.09572
▁नेता	-8.09621
▁4	-8.10414
▁सिर्फ	-8.10503
▁चल	-8.10843
▁उसने	-8.10929
▁श्री	-8.11064
ए	-8.11168
▁अ	-8.11198
▁आया	-8.11312
▁चाहते	-8.11646
▁ध्यान	-8.12158
▁करीब	-8.12214
▁जिसके	-8.13085
▁ब	-8.13124
▁ऐसी	-8.13273
▁बैंक	-8.1344
▁होना	-8.13479
▁इसकी	-8.13606
▁शहर	-8.14037
▁रहने	-8.14538
▁तैयार	-8.14637
▁लगभग	-8.14644
▁मेरी	-8.15836
▁खान	-8.1589
▁करेंगे	-8.1635
▁कोर्ट	-8.16541
▁स्थिति	-8.16719
▁दूर	-8.17024
"	-8.17045
▁केंद्र	-8.17126
▁कहते	-8.17303
▁पाकिस्तान	-8.17364
▁लेने	-8.17414
▁गांव	-8.17415
ते	-8.17477
▁जिले	-8.17662
▁ज	-8.17726
▁राष्ट्रीय	-8.17732
▁आपकी	-8.17866
▁दर्ज	-8.17973
▁संख्या	-8.18343
इस	-8.18912
▁रात	-8.18993
▁वहां	-8.19067
▁इस्तेमाल	-8.19342
▁प्रतिशत	-8.19409
▁सी	-8.2017
▁बच्चों	-8.20523
▁बिना	-8.20675
▁गांधी	-8.21288
▁अधिकारी	-8.21387
▁कुल	-8.21429
▁य	-8.21593
▁आधार	-8.216
▁बस	-8.21632
▁मन	-8.2178
▁मौत	-8.21806
▁भर	-8.21937
▁हजार	-8.22022
▁समाज	-8.22025
▁मैच	-8.22056
▁आए	-8.22069
▁स्थान	-8.22187
▁विशेष	-8.22209
▁मुताबिक	-8.22514
▁आदि	-8.22694
▁6	-8.22717
▁कार्यक्रम	-8.22945
▁तहत	-8.231
▁12	-8.23131
▁स्थित	-8.23946
▁प्रमुख	-8.24138
▁देखा	-8.24169
▁जिससे	-8.24223
▁महीने	-8.24578
▁पूरे	-8.24703
▁उसका	-8.25098
▁तरफ	-8.25119
▁सही	-8.25305
▁हाथ	-8.25307
▁आरोप	-8.25386
▁कोशिश	-8.25837
▁15	-8.25908
च	-8.26079
▁बीजेपी	-8.26344
▁निर्माण	-8.26349
जी	-8.26521
▁जिसे	-8.26759
▁जनता	-8.27
▁लगता	-8.27093
▁गयी	-8.27342
▁कहना	-8.27425
▁नजर	-8.27439
▁रिपोर्ट	-8.27738
▁तौर	-8.27886
▁इंडिया	-8.28279
▁ली	-8.28342
िंग	-8.28461
▁लिये	-8.28659
▁देख	-8.28783
▁?	-8.28826
▁मिला	-8.28882
▁शादी	-8.29005
▁क्यों	-8.29124
▁यही	-8.29861
▁देखने	-8.3003
▁मंदिर	-8.3032
▁घटना	-8.30594
ई	-8.30642
▁ग	-8.30863
▁स्तर	-8.31453
▁अच्छी	-8.31633
▁बजे	-8.3179
▁हूँ	-8.31801
▁खेल	-8.32328
▁आम	-8.3246
▁लगे	-8.32467
▁स्वास्थ्य	-8.32576
▁20	-8.3321
▁सुरक्षा	-8.33805
▁शिक्षा	-8.33815
s	-8.33853
▁यादव	-8.33994
▁सवाल	-8.34504
▁सुबह	-8.34551
▁दूसरी	-8.34648
▁कोरोना	-8.34692
▁ो	-8.34876
▁शेयर	-8.34982
▁थीं	-8.35453
▁ठीक	-8.35509
▁जिला	-8.35981
▁पांच	-8.36121
▁होंगे	-8.36302
▁रखा	-8.36314
▁मिली	-8.36373
▁बल्कि	-8.36491
▁विश्व	-8.3717
▁बनाया	-8.37237
▁माध्यम	-8.37531
▁मांग	-8.37538
▁चुके	-8.37818
▁सेवा	-8.37892
▁मुंबई	-8.37987
▁रन	-8.38045
▁राम	-8.38081
▁लाभ	-8.3818
▁देता	-8.38213
▁बिहार	-8.38459
▁परीक्षा	-8.38592
▁शरीर	-8.39107
▁बच्चे	-8.39219
▁रह	-8.3943
▁8	-8.39764
ज	-8.3998
▁हाल	-8.4004
एक	-8.40097
▁शर्मा	-8.4017
▁ई	-8.40253
सी	-8.40704
▁फोन	-8.40757
▁लिखा	-8.41415
▁महत्वपूर्ण	-8.41964
▁जीत	-8.42293
ती	-8.42311
▁यात्रा	-8.42397
▁लगातार	-8.42581
▁रखने	-8.43038
▁7	-8.43874
▁हिंदी	-8.44425
▁रुपए	-8.44442
▁ऊपर	-8.44731
यह	-8.44888
▁नीचे	-8.44991
▁विधानसभा	-8.45319
▁जाएगी	-8.45429
▁विभिन्न	-8.45432
”	-8.45698
▁फीसदी	-8.45711
▁डा	-8.45749
▁हमारी	-8.45814
▁स्कूल	-8.45925
▁पसंद	-8.46031
▁बैठक	-8.46255
ियों	-8.46305
▁माना	-8.4649
▁धर्म	-8.46889
▁यहाँ	-8.47147
;	-8.47184
▁नही	-8.47218
▁खबर	-8.473
▁प्रदान	-8.47506
▁लगी	-8.47717
▁11	-8.47734
▁राशि	-8.48327
▁महिलाओं	-8.48391
▁आपका	-8.48592
...	-8.48654
▁प्रदर्शन	-8.48662
▁पद	-8.48736
▁सोशल	-8.48848
▁समस्या	-8.49503
▁नगर	-8.49821
▁उपलब्ध	-8.49974
▁विचार	-8.49976
▁पीछे	-8.50415
▁बेहतर	-8.50553
▁हमेशा	-8.5083
▁बाजार	-8.51101
▁जवाब	-8.51402
▁आता	-8.51467
▁पिता	-8.51691
▁ऑफ	-8.51965
▁भाग	-8.52069
▁चर्चा	-8.52176
▁कहीं	-8.52451
▁सरकारी	-8.52834
▁रहते	-8.5288
▁मेरा	-8.53083
▁बढ़	-8.53086
▁पोस्ट	-8.53217
▁चला	-8.53757
▁नंबर	-8.53942
▁पत्र	-8.54214
▁चुकी	-8.54671
▁शुरुआत	-8.55445
▁किसानों	-8.55607
नी	-8.55627
के	-8.55906
▁1.	-8.56093
▁भाई	-8.56156
री	-8.56403
▁अस्पताल	-8.56412
▁लाल	-8.56456
▁क्रिकेट	-8.56601
▁9	-8.56811
▁लगाया	-8.56916
▁लग	-8.56923
▁पैसे	-8.56949
▁30	-8.57219
▁वेबसाइट	-8.57419
▁नया	-8.5766
▁इतना	-8.58137
▁विरोध	-8.58228
ब	-8.58486
▁18	-8.58545
▁सके	-8.58556
▁&	-8.58666
▁मौजूद	-8.59083
▁देना	-8.59311
▁राहुल	-8.59322
प	-8.59819
ली	-8.5997
▁पहुंच	-8.60193
ही	-8.60372
▁मिलने	-8.60394
▁चीन	-8.60439
▁कहानी	-8.60622
▁उसी	-8.60837
▁वापस	-8.60906
▁पत्नी	-8.6106
▁मां	-8.6117
▁बने	-8.61205
▁#	-8.61254
▁कीमत	-8.61882
▁दर	-8.61988
▁जरूरत	-8.62237
▁अमेरिका	-8.62332
▁लें	-8.62937
▁मामला	-8.63411
▁किसान	-8.63416
▁कमी	-8.63468
▁टेस्ट	-8.63888
▁आदेश	-8.63934
▁चलते	-8.64143
▁याद	-8.64252
▁पी	-8.64354
▁ट	-8.64478
▁ऑनलाइन	-8.64544
▁गये	-8.64611
▁सूचना	-8.64953
▁जन्म	-8.65068
ें	-8.6516
▁टी	-8.65256
▁ताकि	-8.65409
▁आर्थिक	-8.65431
▁बयान	-8.65548
▁फैसला	-8.65637
▁यानी	-8.65664
▁आवेदन	-8.66013
▁कानून	-8.66037
▁देशों	-8.66118
▁बनाए	-8.66268
▁वालों	-8.6649
▁कौन	-8.6657
▁भाषा	-8.66699
▁करे	-8.66728
द	-8.66848
▁हत्या	-8.6709
▁प्यार	-8.67113
▁हे	-8.67195
▁नवंबर	-8.67371
▁देखते	-8.67373
▁संबंध	-8.67439
▁जान	-8.67611
▁प्रक्रिया	-8.6764
▁सेना	-8.67655
▁हासिल	-8.68045
▁कह	-8.68232
▁2021	-8.68318
▁होकर	-8.6858
पुर	-8.6879
▁चुका	-8.68871
▁अंदर	-8.69299
▁हिस्सा	-8.69361
▁जानते	-8.69368
▁घंटे	-8.69404
▁प्रयास	-8.69552
▁सा	-8.69662
▁कार्ड	-8.69808
▁किस	-8.69937
▁मोबाइल	-8.69991
▁व्यवस्था	-8.70082
▁तरीके	-8.70208
▁उम्र	-8.70861
च्या	-8.71219
▁फोटो	-8.71304
▁भगवान	-8.71356
▁25	-8.71501
▁रहता	-8.71724
▁आयोजित	-8.71799
▁कार	-8.71819
▁छोटे	-8.7192
▁उच्च	-8.72049
▁पढ़ें	-8.72196
▁एस	-8.72255
▁पहला	-8.72566
▁प्रयोग	-8.72787
▁जल	-8.72886
▁दिल	-8.72955
▁मौके	-8.73075
▁नरेंद्र	-8.73161
▁मार्च	-8.73277
▁आवश्यकता	-8.735
▁मिले	-8.73583
▁विधायक	-8.73693
व	-8.73729
▁दिखाई	-8.73744
ले	-8.73907
0	-8.74008
▁हमने	-8.74181
▁पड़ा	-8.74257
▁अधिकारियों	-8.74319
▁समझ	-8.74444
▁अच्छे	-8.7472
▁शो	-8.74806
▁पति	-8.74931
▁सहित	-8.7494
▁सदस्य	-8.74944
▁आते	-8.74975
▁अवसर	-8.75156
▁घोषणा	-8.75435
▁इतिहास	-8.75791
▁24	-8.75892
▁वक्त	-8.7606
▁बेहद	-8.76064
▁14	-8.76112
▁बोर्ड	-8.76266
▁देर	-8.76386
▁गिरफ्तार	-8.76404
▁तुम	-8.76429
िया	-8.7691
▁जुड़े	-8.7698
▁उससे	-8.7701
▁खास	-8.77013
▁सारे	-8.77286
▁राजनीतिक	-8.77391
चे	-8.7785
रा	-8.77854
का	-8.78015
▁राजनीति	-8.78135
▁पूजा	-8.78295
डी	-8.78426
▁राज	-8.78648
▁16	-8.78761
▁लड़की	-8.78953
▁2.	-8.78972
▁समर्थन	-8.79006
ओ	-8.79123
या	-8.79132
▁भूमिका	-8.79137
▁विषय	-8.79196
▁साफ	-8.79232
▁मध्य	-8.79276
▁संबंधित	-8.79381
▁/	-8.79609
▁शाम	-8.79837
़	-8.80069
ट	-8.80453
▁शायद	-8.80615
▁तय	-8.80676
▁छोड़	-8.80729
▁आहेत	-8.80816
▁दिवस	-8.81281
▁50	-8.81332
ि	-8.81585
▁रहती	-8.81652
▁मिनट	-8.81687
▁जैसी	-8.81726
▁कार्रवाई	-8.82272
▁आदमी	-8.82328
▁जून	-8.82515
▁बी	-8.82566
▁बॉलीवुड	-8.82586
▁जरूरी	-8.82624
▁सीमा	-8.82675
▁केंद्रीय	-8.82915
ड	-8.83038
▁बदल	-8.83358
▁राष्ट्रपति	-8.8348
▁पा	-8.83521
▁अगले	-8.83542
▁लेते	-8.83682
▁अंतिम	-8.83928
▁लोकसभा	-8.83931
▁देखें	-8.83935
▁.►	-8.84042
▁दल	-8.84187
▁बनी	-8.84306
▁उम्मीद	-8.84383
▁विकेट	-8.8445
▁पेश	-8.84487
▁पहचान	-8.84625
▁सामाजिक	-8.84652
▁सामान्य	-8.84812
▁पक्ष	-8.84825
▁तेल	-8.8494
▁अक्टूबर	-8.84997
▁तेज	-8.85003
▁जिसका	-8.85008
▁संघ	-8.85111
▁13	-8.85117
ये	-8.85131
▁करेगा	-8.85152
▁अगस्त	-8.85441
▁आयोग	-8.85535
▁पाया	-8.85559
▁जल्द	-8.85612
▁सोमवार	-8.85815
▁गंभीर	-8.86126
▁भारी	-8.86158
▁यांनी	-8.86209
▁लागू	-8.86249
▁लगाने	-8.86288
▁नुकसान	-8.86322
▁पीएम	-8.86364
▁वर्ग	-8.86585
वी	-8.86635
▁दक्षिण	-8.86729
▁कदम	-8.86882
▁जनवरी	-8.86937
▁शब्द	-8.87248
चा	-8.87372
▁पंजाब	-8.87546
▁अभियान	-8.87579
▁2018	-8.87842
▁कल	-8.88123
▁रहेगा	-8.88368
▁दिसंबर	-8.88424
▁निर्णय	-8.88548
▁कृषि	-8.88758
▁भर्ती	-8.88778
्	-8.88935
▁जैसा	-8.89274
▁राजस्थान	-8.89372
▁किये	-8.89402
▁आवश्यक	-8.89424
▁वही	-8.89459
▁आंदोलन	-8.89612
▁अनुभव	-8.89664
वा	-8.89894
▁श	-8.90021
▁डी	-8.9006
▁आती	-8.90086
▁शुक्रवार	-8.90368
▁मतलब	-8.90386
▁प्रभाव	-8.90462
▁बनने	-8.90567
▁नेताओं	-8.90583
▁मई	-8.90704
▁प्रभावित	-8.90736
▁ड	-8.9094
▁संगठन	-8.90948
▁2019	-8.91005
▁खत्म	-8.91007
▁17	-8.91362
▁च	-8.91769
▁आसान	-8.91826
▁अप्रैल	-8.91838
▁जुलाई	-8.92131
▁क्लिक	-8.92206
ओं	-8.9229
ित	-8.92364
▁मात्र	-8.9242
▁खाने	-8.92492
....	-8.92606
▁प्रशासन	-8.928
ग	-8.92811
▁धन	-8.92879
▁पैदा	-8.92997
▁बाल	-8.93058
▁बिजली	-8.93137
▁प्रेम	-8.93206
▁तेजी	-8.93257
▁जाकर	-8.93289
▁!	-8.93591
▁आयोजन	-8.93767
▁मंत्रालय	-8.93903
▁माता	-8.93974
▁आपने	-8.9399
▁अधिकार	-8.9411
▁सड़क	-8.94146
▁सात	-8.94453
▁जेल	-8.94461
▁नदी	-8.94533
▁जाएंगे	-8.94564
▁पहुंचे	-8.94582
▁ग्राम	-8.94612
▁पड़	-8.94885
और	-8.95026
▁आरोपी	-8.95064
▁राज्यों	-8.95164
▁चाहता	-8.95584
▁सुप्रीम	-8.9587
▁उनसे	-8.95876
▁समाचार	-8.95982
▁बुधवार	-8.9617
▁इ	-8.96203
▁आणि	-8.96209
▁बावजूद	-8.96545
▁रख	-8.96656
ात	-8.96682
▁हों	-8.96704
▁बेटी	-8.96857
▁जमा	-8.97021
ची	-8.97383
▁नौकरी	-8.97414
:.	-8.97514
▁स्थानीय	-8.97616
▁वैसे	-8.97652
▁मजबूत	-8.9768
▁युवा	-8.97695
▁मिलता	-8.97843
पी	-8.97917
▁मंगलवार	-8.97944
▁कप	-8.98004
वर	-8.98097
▁;	-8.98118
▁पूर्ण	-8.98126
▁देती	-8.98129
▁वरिष्ठ	-8.98359
▁टीवी	-8.98446
▁मिलेगा	-8.98448
▁वर्तमान	-8.98521
▁’	-8.9855
▁दावा	-8.98567
▁खर्च	-8.98627
▁महसूस	-8.98744
▁21	-8.98898
▁इलाज	-8.99034
य	-8.99097
▁प्रवेश	-8.99298
▁राय	-8.99377
टी	-8.99437
▁अंक	-8.99465
वीं	-8.99531
▁प्रत्येक	-8.99623
▁पड़ता	-8.99733
▁सम्मान	-8.9985
▁शिकायत	-8.99895
▁संयुक्त	-8.99906
▁अनेक	-8.99956
▁उ	-8.99959
▁सीट	-8.99961
▁तुलना	-9.00015
▁100	-9.00078
▁आर	-9.00084
▁डाउनलोड	-9.00131
▁रेलवे	-9.0025
▁वृद्धि	-9.00367
सा	-9.00491
▁सोच	-9.00723
▁सचिव	-9.01152
▁प्रकाश	-9.01212
▁कश्मीर	-9.01235
▁डिग्री	-9.01252
िक	-9.01498
▁रविवार	-9.015
▁खिलाड़ी	-9.01649
▁सांसद	-9.0167
▁एम	-9.01985
▁छात्र	-9.02009
▁स्पष्ट	-9.02229
▁सितंबर	-9.0244
अलग	-9.02548
▁गलत	-9.02559
▁महाराष्ट्र	-9.02608
▁थाना	-9.02662
साथ	-9.02761
मा	-9.02768
▁समिति	-9.0281
▁वित्त	-9.02912
▁कॉलेज	-9.02927
▁मार	-9.02991
▁बदलाव	-9.03188
▁जमीन	-9.03429
▁दर्द	-9.03441
▁मगर	-9.03841
▁दोस्तों	-9.04025
▁यूपी	-9.04032
▁बातचीत	-9.0413
▁अर्थ	-9.04164
▁राजा	-9.04295
वे	-9.04462
▁बातें	-9.04508
▁शाह	-9.04538
▁दूसरा	-9.04625
अ	-9.04632
▁सामना	-9.04703
▁मूल	-9.04767
▁अंत	-9.04822
ू	-9.04954
▁शक्ति	-9.05007
▁‘‘	-9.05166
▁भाव	-9.0552
▁अक्सर	-9.05546
▁छह	-9.05577
▁मात्रा	-9.05596
▁दरअसल	-9.05624
▁शनिवार	-9.05856
▁वर्षों	-9.05872
▁>	-9.0626
ह	-9.06387
▁साबित	-9.06467
▁आग	-9.06503
▁हमारा	-9.06566
▁बारिश	-9.06585
▁कपूर	-9.06936
▁परिणाम	-9.07083
▁डॉलर	-9.07162
▁जरूर	-9.0719
▁समान	-9.07201
▁छात्रों	-9.07226
▁विश्वविद्यालय	-9.07307
▁ै	-9.07439
▁भ	-9.07458
▁मुश्किल	-9.0752
मैं	-9.07552
▁प्रो	-9.07637
▁निर्देश	-9.07655
▁दिशा	-9.07744
▁डॉक्टर	-9.07843
▁सुधार	-9.07987
▁क्षेत्रों	-9.08015
▁19	-9.08067
▁मामलों	-9.08101
▁लेना	-9.08135
▁स्थापित	-9.08289
▁”	-9.08305
▁सफलता	-9.08372
▁जिन	-9.08481
▁सफल	-9.08532
▁कराया	-9.08594
▁रखते	-9.0861
▁बेटे	-9.0864
▁लेख	-9.08666
▁मौसम	-9.08921
▁क्षमता	-9.08931
▁गुजरात	-9.09034
▁ज्ञान	-9.092
▁लोक	-9.09312
▁समूह	-9.09312
▁उत्पादन	-9.0934
▁सूची	-9.09404
▁आसानी	-9.09545
▁विश्वास	-9.09571
▁लखनऊ	-9.09733
▁अतिरिक्त	-9.09777
श	-9.09793
▁पत्रकार	-9.09952
▁नेतृत्व	-9.0999
▁जिसकी	-9.10089
▁समेत	-9.10364
▁हार	-9.10531
▁देवी	-9.10711
▁3.	-9.10987
▁तभी	-9.11261
▁इतनी	-9.1132
बी	-9.11357
▁एंड	-9.11724
▁रखें	-9.11782
▁रिकॉर्ड	-9.1185
▁ु	-9.11908
▁निजी	-9.1197
▁ट्वीट	-9.12022
▁शानदार	-9.12034
▁खराब	-9.12207
▁हिन्दी	-9.12216
▁बताते	-9.12387
▁सत्ता	-9.12488
▁युद्ध	-9.12512
▁हरियाणा	-9.12545
▁विकल्प	-9.12611
▁ओ	-9.12834
से	-9.12848
▁देकर	-9.12851
▁22	-9.129
▁सप्ताह	-9.13134
▁ख	-9.13148
▁लक्ष्य	-9.13228
की	-9.13272
▁आनंद	-9.13298
▁जरिए	-9.13323
▁उम्मीदवार	-9.13362
▁इनमें	-9.13386
▁स्वयं	-9.13655
▁छोटी	-9.13737
▁कराने	-9.13857
भारत	-9.13883
▁सहायता	-9.14079
▁पार	-9.14188
▁उसमें	-9.14462
▁भविष्य	-9.14714
▁मान	-9.14875
▁पैसा	-9.14897
▁भीतर	-9.15057
▁उप	-9.15118
▁सुरक्षित	-9.15387
▁करण्यात	-9.15403
▁ऐप	-9.15608
▁हमला	-9.15614
▁विजय	-9.1564
▁राजधानी	-9.15662
▁सारी	-9.15757
▁माँ	-9.15958
▁मॉडल	-9.15967
क्या	-9.16131
▁इलाके	-9.16142
▁प्रसाद	-9.16267
▁असर	-9.16331
▁अदालत	-9.16545
ण	-9.16605
▁तस्वीर	-9.16612
▁संपर्क	-9.16733
▁युवक	-9.16742
▁पाने	-9.16783
▁योगी	-9.16828
▁2017	-9.16913
फ	-9.17008
▁रोक	-9.17147
▁देखकर	-9.1729
▁काल	-9.17349
▁तैयारी	-9.17391
▁अनुमति	-9.17547
▁सुविधा	-9.1771
▁निवेश	-9.17711
▁खाना	-9.1786
▁गाँव	-9.17971
▁शिव	-9.182
▁हेतु	-9.18222
▁गुरुवार	-9.18655
▁रक्षा	-9.18854
▁कार्यालय	-9.18857
▁योग	-9.18934
▁राष्ट्र	-9.19075
▁इनके	-9.19078
▁40	-9.19241
▁करनी	-9.19264
▁पेट्रोल	-9.19275
▁रिलीज	-9.19596
▁भोजन	-9.19853
▁कंपनियों	-9.19952
▁मौका	-9.20047
▁संभावना	-9.20162
▁भुगतान	-9.20169
▁सहयोग	-9.20304
देश	-9.20312
▁विवाद	-9.20473
▁व्यापार	-9.2052
▁मुकाबले	-9.20588
▁बढ़ाने	-9.20695
▁थोड़ा	-9.20732
▁शासन	-9.21192
▁आठ	-9.21211
▁न्यूज़	-9.21283
▁चले	-9.21604
▁हमले	-9.21628
▁मुस्लिम	-9.21633
▁आधिकारिक	-9.21699
▁अमेरिकी	-9.21727
▁बंगाल	-9.21746
▁$	-9.21769
वें	-9.21906
▁माह	-9.22046
रे	-9.22056
▁समाप्त	-9.22072
▁वोट	-9.22073
2	-9.22518
▁पंचायत	-9.22762
▁2020	-9.22776
▁पुरस्कार	-9.22793
ंग	-9.22981
▁कप्तान	-9.23096
▁दूध	-9.23143
▁सेक्स	-9.23156
▁नीति	-9.23281
▁सीएम	-9.23372
▁स्टेशन	-9.23466
▁मत	-9.23636
▁रखना	-9.23696
हम	-9.23859
▁चैनल	-9.23891
उत्तर	-9.23915
▁मार्ग	-9.23941
▁दौर	-9.23952
▁परेशान	-9.24056
▁जन	-9.24078
▁फिल्मों	-9.24162
▁सीरीज	-9.24177
▁स्वीकार	-9.24196
▁जिन्हें	-9.24302
▁राहत	-9.24337
▁चाहे	-9.24449
ज़	-9.24526
▁जुड़ी	-9.24726
▁मैदान	-9.24853
▁वायरल	-9.24864
▁पूछा	-9.24879
▁जल्दी	-9.24882
▁फ	-9.24899
▁विज्ञान	-9.24947
▁वन	-9.24977
▁सलाह	-9.24995
▁बल	-9.25015
▁सच	-9.25164
▁ग्रामीण	-9.25245
▁चरण	-9.2558
▁साहित्य	-9.25733
▁अवधि	-9.25799
▁ते	-9.25898
▁सामग्री	-9.25918
▁कही	-9.26042
ीय	-9.26158
▁संजय	-9.26164
▁निकल	-9.26178
▁उनको	-9.26199
▁धीरे	-9.26348
▁मूल्य	-9.26362
▁26	-9.26418
▁सिर	-9.26527
गा	-9.2675
▁मानव	-9.26977
▁आधारित	-9.27028
▁लंबे	-9.27031
▁फैसले	-9.27234
▁*	-9.27238
▁केली	-9.27462
▁23	-9.27546
▁पाए	-9.27588
▁वास्तव	-9.27638
▁जहाँ	-9.27643
▁हा	-9.27672
▁जिंदगी	-9.27778
▁बढ़ा	-9.27999
▁उदाहरण	-9.28108
▁फरवरी	-9.282
▁पारी	-9.28306
▁घायल	-9.28324
▁सभा	-9.28335
▁देंगे	-9.28584
▁2014	-9.28705
▁नि	-9.28769
▁कितना	-9.28824
▁रोग	-9.29007
▁अमित	-9.29097
▁निवासी	-9.29212
▁पे	-9.29239
▁अध्ययन	-9.29256
ः	-9.29284
▁बजट	-9.29303
20	-9.29787
▁बाकी	-9.29851
▁छत्तीसगढ़	-9.30007
▁परिवर्तन	-9.30037
▁)	-9.30181
▁जम्मू	-9.30194
▁28	-9.30231
▁मिलती	-9.30309
▁2016	-9.30472
▁सेवन	-9.30507
को	-9.30559
▁ब्लॉग	-9.30643
▁पालन	-9.30693
▁बनाई	-9.30746
▁चाहती	-9.30926
▁विस्तार	-9.31193
▁सलमान	-9.31227
▁प्रस्ताव	-9.31229
▁पुराने	-9.31268
▁जिन्होंने	-9.31292
▁ओवर	-9.31336
▁मुद्दे	-9.3145
▁संभव	-9.3157
▁विदेश	-9.31654
▁बैठे	-9.31655
▁केस	-9.31679
▁ट्रेन	-9.31777
▁अरब	-9.32027
▁तमाम	-9.32033
▁खुश	-9.32042
▁कला	-9.32062
▁सो	-9.32085
▁नाही	-9.32104
▁करेगी	-9.32107
▁विकसित	-9.32128
),	-9.32212
4	-9.32345
▁वायरस	-9.32346
▁चिंता	-9.32355
▁=	-9.32376
▁घोषित	-9.32378
▁कोहली	-9.32379
▁प्रश्न	-9.32539
▁बनाकर	-9.32913
▁चेहरे	-9.3295
▁4.	-9.32959
▁दस	-9.33189
▁चयन	-9.3331
▁रोड	-9.3335
▁31	-9.33371
▁मिलकर	-9.33448
▁सु	-9.33461
▁पुरुष	-9.33485
▁खड़े	-9.33579
▁प्रथम	-9.33787
▁डाल	-9.33868
▁बिल	-9.34127
▁शराब	-9.34213
▁पश्चिम	-9.34338
▁विदेशी	-9.34347
▁सुनिश्चित	-9.34595
▁हिंदू	-9.34617
▁देव	-9.34706
▁तुरंत	-9.34763
एस	-9.35016
▁पुत्र	-9.35049
▁ऊर्जा	-9.35054
▁तर	-9.35108
▁प्रकाशित	-9.35159
▁पेट	-9.35235
▁अचानक	-9.35276
▁नियंत्रण	-9.35336
▁उनमें	-9.35343
▁समारोह	-9.35369
▁बीमारी	-9.35429
▁प्र	-9.35432
▁लॉन्च	-9.35432
▁हाई	-9.35465
▁सालों	-9.35649
▁सिस्टम	-9.35696
अब	-9.35725
▁एन	-9.35782
▁वाहन	-9.35822
▁बाबा	-9.35842
▁प्रसिद्ध	-9.35912
▁लिंक	-9.35958
▁गुरु	-9.36281
आप	-9.36324
▁इंटरनेट	-9.36325
▁पदों	-9.3655
▁उद्देश्य	-9.3673
▁ज़्यादा	-9.36772
जब	-9.36776
▁आय	-9.36801
इन	-9.36805
▁दोस्त	-9.36875
▁डर	-9.37022
▁फायदा	-9.37025
▁उठा	-9.37112
एं	-9.37257
▁परिषद	-9.37299
▁फेसबुक	-9.3757
▁जिनमें	-9.37613
▁कब	-9.37702
▁इतने	-9.37705
▁स्थापना	-9.37831
▁खूब	-9.37867
▁खाते	-9.38015
▁स्क्रीन	-9.38091
▁फल	-9.38105
▁सर	-9.38181
▁गृह	-9.38225
▁नियम	-9.3823
▁अली	-9.38255
▁जाति	-9.38261
▁जे	-9.38302
▁सीधे	-9.38444
▁फिलहाल	-9.38455
▁कर्मचारियों	-9.3854
▁सार्वजनिक	-9.38903
1	-9.38909
पर	-9.38973
▁संसद	-9.39128
▁भूमि	-9.39182
▁इन्हें	-9.39271
▁27	-9.39335
▁दबाव	-9.39398
▁चलता	-9.39487
▁सजा	-9.39775
▁सुनवाई	-9.4021
▁निर्धारित	-9.40335
▁गैर	-9.40493
▁नज़र	-9.40498
▁विराट	-9.40568
▁कोविड	-9.40579
▁न्यूज	-9.40667
▁मेडिकल	-9.40925
▁प्रचार	-9.41006
▁रखी	-9.41024
▁नागरिक	-9.41074
▁अहम	-9.41299
▁चली	-9.41372
▁उद्योग	-9.41415
▁अंतर्गत	-9.41419
▁संस्कृति	-9.41487
▁वहाँ	-9.41559
▁गति	-9.41685
▁सत्र	-9.41691
▁किलोमीटर	-9.41774
▁कर्मचारी	-9.41936
▁आसपास	-9.42003
▁लाने	-9.42013
▁संक्रमण	-9.42148
▁मुलाकात	-9.42154
▁खड़ा	-9.42158
▁संगीत	-9.42206
▁केले	-9.4223
▁शीर्ष	-9.42265
▁निश्चित	-9.42388
▁इंग्लैंड	-9.42411
▁मिलेगी	-9.42509
▁उपस्थित	-9.42583
▁आवाज	-9.42634
▁घरेलू	-9.42655
▁ग्रुप	-9.42708
▁ध	-9.42766
▁कंप्यूटर	-9.42839
▁शुल्क	-9.42884
▁रहें	-9.43026
▁बढ़कर	-9.43072
▁पटेल	-9.43123
जा	-9.43193
▁भेज	-9.43224
▁कारोबार	-9.4325
▁लगाए	-9.43268
▁प्रधान	-9.43275
आज	-9.43279
▁लागत	-9.43398
▁सीटों	-9.43471
▁हिंसा	-9.43537
▁मुक्त	-9.43549
▁अंतरराष्ट्रीय	-9.43591
▁तरीका	-9.43681
▁देखना	-9.43686
▁आकार	-9.43727
▁आले	-9.43764
▁हाथों	-9.43809
▁सौ	-9.43948
▁ला	-9.43969
▁रहेंगे	-9.4407
▁आये	-9.44076
▁खबरें	-9.44171
▁संविधान	-9.4419
▁संघर्ष	-9.44254
▁मतदान	-9.44291
▁भेजा	-9.44302
▁कोड	-9.44313
▁टिकट	-9.44315
▁चीनी	-9.44432
▁शुभ	-9.44642
▁उपचार	-9.44662
▁मीटर	-9.44828
▁न्यायालय	-9.44843
▁निगम	-9.44871
▁समुदाय	-9.44952
मी	-9.4499
▁मंच	-9.45071
▁धार्मिक	-9.45087
ून	-9.45143
▁प्रबंधन	-9.45183
▁जोर	-9.45193
▁बोले	-9.45276
▁स्वागत	-9.45413
3	-9.45518
▁सदस्यों	-9.45642
▁हवा	-9.45871
▁लेखक	-9.45881
▁निकाल	-9.45968
▁खरीद	-9.46109
▁रहना	-9.46142
▁विवाह	-9.4617
▁महत्व	-9.46206
▁लड़ाई	-9.46225
▁बनाना	-9.46499
▁लोकप्रिय	-9.46534
▁लाइन	-9.46643
▁सुंदर	-9.46645
▁तापमान	-9.46666
▁साझा	-9.46731
▁करियर	-9.46801
▁कविता	-9.46919
▁चलने	-9.47104
▁खोज	-9.47122
▁गिरावट	-9.4713
ियां	-9.47372
▁तीसरे	-9.47608
▁तलाश	-9.47613
▁संस्थान	-9.47662
▁बीते	-9.47721
▁नेशनल	-9.48112
▁जायेगा	-9.48148
दा	-9.48274
▁शांति	-9.48308
ख	-9.48439
▁आखिरी	-9.48501
▁वि	-9.48656
▁मृत्यु	-9.48688
▁देगा	-9.48858
▁दर्शन	-9.48886
▁डेटा	-9.48903
▁त्वचा	-9.48912
A	-9.48932
▁भीड़	-9.48975
▁वी	-9.4921
▁दोपहर	-9.49246
ाने	-9.49436
▁उत्पाद	-9.49448
▁स्टार	-9.49458
▁शव	-9.49472
▁रहेगी	-9.49478
▁जिसने	-9.49504
▁सहायक	-9.49684
राम	-9.49798
▁कितने	-9.49828
अगर	-9.49923
▁संकेत	-9.50066
▁|	-9.50148
▁अथवा	-9.50154
▁हालत	-9.50256
▁थोड़ी	-9.50406
▁पटना	-9.50572
▁अंतर	-9.5064
ु	-9.50746
▁60	-9.50754
▁भले	-9.50789
▁योगदान	-9.50798
e	-9.50885
▁चौधरी	-9.50944
▁पढ़ाई	-9.50957
▁व्यवहार	-9.51073
▁टिप्पणी	-9.51234
▁स्थल	-9.51313
▁गैस	-9.51531
▁पड़े	-9.51547
▁महान	-9.51585
▁संकट	-9.51595
ाच्या	-9.51602
गी	-9.51623
a	-9.51637
▁खिलाड़ियों	-9.51751
▁धारा	-9.51842
▁29	-9.5186
▁दिख	-9.51861
▁वजन	-9.51877
▁डे	-9.51882
▁0.	-9.51962
▁शिकार	-9.51987
▁5.	-9.52126
▁शिक्षक	-9.52154
तो	-9.52237
▁लोगो	-9.52316
▁पहुंचा	-9.52369
▁उत्तराखंड	-9.52455
▁याचिका	-9.52596
▁समाधान	-9.52674
▁रोकने	-9.52842
▁करा	-9.52844
▁खुशी	-9.52983
▁कड़ी	-9.53122
▁''	-9.53227
र्स	-9.53267
▁संस्था	-9.5336
▁जाएं	-9.53386
▁रेल	-9.53478
▁गीत	-9.53534
▁बिल्कुल	-9.53583
▁होनी	-9.53693
▁रोजगार	-9.53887
▁A	-9.53965
▁आकर	-9.53996
▁चिकित्सा	-9.54038
▁वर्षीय	-9.54063
▁संदेश	-9.54153
▁•	-9.54278
▁नौ	-9.54308
▁अपील	-9.5453
▁कहने	-9.5463
▁अपडेट	-9.54746
▁प्रणाली	-9.5477
▁कृष्ण	-9.54774
▁अंग्रेजी	-9.54782
▁तीनों	-9.5485
▁S	-9.54913
आ	-9.54985
▁उपाय	-9.55053
▁तनाव	-9.5506
▁सक्षम	-9.55063
▁बोल	-9.55074
▁खा	-9.55116
▁जानें	-9.55343
▁अभिनेता	-9.55375
▁उत्तराखण्ड	-9.55385
▁कितनी	-9.55404
▁गेम	-9.55426
▁बिक्री	-9.55527
▁सर्व	-9.55589
▁कमरे	-9.55602
Read	-9.55655
▁व्यक्त	-9.55662
▁परेशानी	-9.55663
▁गेंद	-9.5568
▁मौजूदा	-9.5579
▁बहन	-9.5583
▁अपराध	-9.56201
▁समीक्षा	-9.56237
▁कार्यों	-9.56279
▁पहुंची	-9.56462
▁प्रियंका	-9.56481
▁निदेशक	-9.56501
अपने	-9.5651
▁सक्रिय	-9.56601
▁स्मार्टफोन	-9.56616
▁पड़ी	-9.56631
▁असून	-9.56679
जो	-9.56752
▁सोने	-9.5679
▁स्व	-9.56833
▁छोटा	-9.56944
▁हिसाब	-9.56977
▁केजरीवाल	-9.56992
▁रास्ते	-9.5701
▁प्रेस	-9.57022
▁ट्विटर	-9.57077
▁मनाया	-9.57188
▁बढ़ने	-9.57193
▁नोट	-9.57194
▁सूर्य	-9.57333
▁बजाय	-9.57339
▁बातों	-9.57373
▁न्याय	-9.5745
▁मानना	-9.57564
▁योग्य	-9.57612
▁दूरी	-9.57633
▁बोला	-9.57733
▁असे	-9.57739
▁इनकी	-9.57802
d	-9.5781
▁गाड़ी	-9.57841
▁आखिर	-9.57997
▁लो	-9.58006
▁गंगा	-9.58011
▁दशक	-9.58185
राज	-9.58236
बार	-9.58488
▁गर्म	-9.58705
▁उचित	-9.58762
▁यू	-9.58879
▁पेज	-9.58925
▁ऑस्ट्रेलिया	-9.58968
▁ऑफिस	-9.59051
नगर	-9.59106
▁नीतीश	-9.59313
▁सामान	-9.5938
▁गोली	-9.59436
▁समस्याओं	-9.5944
्य	-9.59515
▁छूट	-9.59569
▁अमर	-9.5973
▁किताब	-9.59944
▁गाने	-9.60096
▁कर्नाटक	-9.60147
▁पाई	-9.60187
▁2015	-9.60566
दार	-9.60594
▁सकें	-9.606
▁प्राचीन	-9.6064
डा	-9.60665
▁जिनके	-9.60761
▁एजेंसी	-9.60768
▁बालों	-9.6078
▁लंड	-9.60859
▁कपड़े	-9.60879
▁फ़िल्म	-9.6102
▁पकड़	-9.61065
ाची	-9.61097
आई	-9.61106
▁परीक्षण	-9.61119
▁डिजिटल	-9.61124
▁चुनौती	-9.6113
▁सेक्सी	-9.61162
▁गईं	-9.61286
▁विरोधी	-9.61309
प्र	-9.61386
▁ज्यादातर	-9.61403
थ	-9.61531
▁प्रस्तुत	-9.61622
▁साहब	-9.61864
▁बचाने	-9.61939
▁सुख	-9.62025
▁पुरानी	-9.62115
▁साइट	-9.62151
▁मिलते	-9.62162
(	-9.62225
▁हिन्दू	-9.62265
▁अशोक	-9.62422
▁वर्ल्ड	-9.62432
▁गठबंधन	-9.62433
▁दवा	-9.62434
▁संपत्ति	-9.62436
▁भवन	-9.62483
▁झारखंड	-9.62617
▁”.	-9.62618
▁शोध	-9.62699
▁लगती	-9.62766
▁दिखाया	-9.62811
▁इंसान	-9.62879
▁खाली	-9.6288
▁औसत	-9.62929
▁जानने	-9.6303
▁इंडियन	-9.63075
▁चीज	-9.631
▁मैचों	-9.63103
▁C	-9.63186
▁अकाउंट	-9.63242
▁पीड़ित	-9.63254
▁कैंसर	-9.63279
▁जाये	-9.6334
▁अनुमान	-9.63372
▁मेहनत	-9.63468
▁होटल	-9.63652
यदि	-9.63702
▁बेहतरीन	-9.63751
▁+	-9.63783
▁हरा	-9.63801
-19	-9.63922
▁लड़कियों	-9.63934
▁करो	-9.64046
▁गरीब	-9.64066
▁अधिकांश	-9.641
▁प्रभारी	-9.64203
▁एक्ट्रेस	-9.64205
▁खुलासा	-9.64226
▁बढ़ती	-9.6423
▁सारा	-9.64287
▁मुफ्त	-9.64597
▁तस्वीरें	-9.64608
▁मनुष्य	-9.64866
▁रु	-9.64887
▁कल्याण	-9.64898
▁गुप्ता	-9.64924
▁महिलाएं	-9.65012
▁लिस्ट	-9.65133
▁मुंह	-9.65289
c	-9.6534
▁सपना	-9.65379
▁त्यामुळे	-9.65442
▁वित्तीय	-9.65443
▁मानते	-9.65522
▁रखे	-9.65546
▁उम्मीदवारों	-9.65586
▁चुनें	-9.65588
▁कार्यकर्ताओं	-9.6585
▁प्लान	-9.65889
▁नियमित	-9.6591
▁नेटवर्क	-9.65925
▁महा	-9.65981
▁}	-9.65995
▁सूत्रों	-9.66013
▁लगने	-9.66037
▁हफ्ते	-9.66077
▁शब्दों	-9.66077
▁पड़ेगा	-9.66094
▁डीजल	-9.66094
▁भ्रष्टाचार	-9.6612
▁जिम्मेदारी	-9.66169
ाचे	-9.66175
▁चाय	-9.66186
▁6.	-9.66238
▁35	-9.6626
▁मालिक	-9.66361
कार	-9.66464
एँ	-9.6669
वि	-9.66719
▁आबादी	-9.66788
▁प्रतिक्रिया	-9.6685
▁इच्छा	-9.66871
▁रोज	-9.66895
▁व्यवसाय	-9.66898
▁हालात	-9.67048
▁बाइक	-9.67057
▁हिस्से	-9.67139
▁बताने	-9.67265
▁खो	-9.67273
▁तिथि	-9.67273
▁ठाकुर	-9.673
▁मिश्रा	-9.67303
▁पर्याप्त	-9.67351
▁दुकान	-9.6744
▁पढ़ने	-9.67458
▁विमान	-9.67532
▁रोहित	-9.67537
▁श्रेणी	-9.67638
▁लीटर	-9.67669
▁माहौल	-9.67712
▁रास्ता	-9.67781
▁सुरू	-9.67788
▁इंतजार	-9.67826
▁उसको	-9.67934
▁विशाल	-9.68024
▁जमकर	-9.68036
▁कॉल	-9.68099
▁किरदार	-9.68143
▁दलित	-9.68174
▁केला	-9.68226
▁फाइनल	-9.68272
▁नामक	-9.68316
इसके	-9.68316
▁विज्ञापन	-9.68354
▁कमाई	-9.68417
▁कहती	-9.68452
▁विधि	-9.68499
▁कमजोर	-9.68502
▁मूवी	-9.68606
▁.....	-9.68616
ाला	-9.68675
▁हां	-9.68769
5	-9.68781
▁खेती	-9.68797
▁मारे	-9.68809
▁चोरी	-9.68845
▁जैन	-9.68858
▁अनिल	-9.68865
उ	-9.68935
▁मोहम्मद	-9.68994
▁आउट	-9.69054
▁जिलों	-9.69298
▁बोली	-9.69335
▁सह	-9.69403
▁तारीख	-9.69429
▁भूल	-9.69446
आर	-9.69616
▁अवैध	-9.69707
▁संबोधित	-9.69756
▁उत्पन्न	-9.69762
्ड	-9.69771
▁सीबीआई	-9.69813
▁लगाई	-9.69985
▁जय	-9.70049
▁स्वतंत्रता	-9.7007
▁जितना	-9.70103
इ	-9.70126
▁चूत	-9.70228
▁सं	-9.70236
हर	-9.70251
▁तिमाही	-9.70294
▁परियोजना	-9.70374
▁मशीन	-9.70427
▁पोलिस	-9.7051
▁भोपाल	-9.70559
▁मो	-9.70589
िन	-9.70807
▁यूनिवर्सिटी	-9.70815
▁कहां	-9.70818
▁तिवारी	-9.70852
▁ईमेल	-9.70961
▁फूल	-9.71024
▁संबंधी	-9.71044
▁धोनी	-9.71111
▁खूबसूरत	-9.71152
▁सेंटर	-9.7116
▁पेड़	-9.71187
▁मिलाकर	-9.71239
▁मना	-9.71279
▁शहरों	-9.71353
▁स्वामी	-9.71388
▁युवाओं	-9.71405
▁आराम	-9.71615
▁मै	-9.71696
▁ू	-9.71761
▁आना	-9.71818
ाचा	-9.71835
▁पर्यावरण	-9.71865
▁एल	-9.71873
C	-9.7202
▁अभिनेत्री	-9.72021
▁गूगल	-9.72102
▁पुस्तक	-9.72185
▁घरों	-9.7221
हा	-9.72229
▁वापसी	-9.72348
▁दैनिक	-9.72424
▁अफ्रीका	-9.72472
▁मानसिक	-9.72479
▁—	-9.72495
▁थ	-9.7256
▁खतरा	-9.72637
▁B	-9.72806
नि	-9.72825
▁70	-9.72846
▁अखिलेश	-9.72967
▁भरा	-9.73159
▁आली	-9.732
▁कथित	-9.7321
▁चुनावों	-9.73348
▁दलों	-9.734
▁आला	-9.73401
▁साथी	-9.73414
▁à	-9.73453
▁गुणवत्ता	-9.73536
▁प्रशिक्षण	-9.73554
▁निधन	-9.73573
▁आवास	-9.73625
r	-9.73656
▁खेलने	-9.73662
▁व्यक्तिगत	-9.73666
▁विपक्ष	-9.73718
▁अजय	-9.73829
▁गिर	-9.73887
▁पैर	-9.73938
▁स्वस्थ	-9.7394
▁सेट	-9.73971
▁दाम	-9.7405
▁परंतु	-9.74069
▁प्रकृति	-9.74179
▁पहुंचने	-9.74197
S	-9.74296
▁प्राकृतिक	-9.74346
▁टैक्स	-9.74364
लाल	-9.7437
▁आधुनिक	-9.74401
▁विवरण	-9.74437
▁ग्राहकों	-9.74487
मन	-9.74534
▁अर्थव्यवस्था	-9.74624
ड़	-9.7464
▁हल	-9.7475
यों	-9.7476
▁ऐतिहासिक	-9.74764
▁छोड़कर	-9.74786
सन्दर्भ	-9.74798
7	-9.74953
▁दौरे	-9.75043
▁चीजों	-9.75226
▁महामारी	-9.75344
▁खाद्य	-9.7536
▁ताजा	-9.75397
▁वेब	-9.75416
▁चारों	-9.75453
रो	-9.75515
▁फ्री	-9.75573
▁सुना	-9.75608
यू	-9.75608
▁चेक	-9.75631
▁मित्र	-9.7573
▁सपा	-9.75738
▁इलाकों	-9.75784
▁दम	-9.7579
▁प्रदूषण	-9.75791
▁सपने	-9.75922
▁कोलकाता	-9.75984
▁वर्मा	-9.76003
▁पार्क	-9.76022
▁लंबी	-9.76086
▁जनरल	-9.76266
▁वेतन	-9.76344
▁पाते	-9.76375
▁प्रमाण	-9.76396
▁दृष्टि	-9.76464
▁शारीरिक	-9.76539
▁गो	-9.76556
▁थाने	-9.7663
▁7.	-9.76638
▁कार्यकर्ता	-9.76658
डे	-9.76687
▁केन्द्र	-9.76705
▁मान्यता	-9.76851
▁सम्मेलन	-9.76873
▁कक्षा	-9.76888
पिता	-9.76968
ळ	-9.7708
▁इनका	-9.77144
▁हवाई	-9.77347
▁आतंकी	-9.77431
▁हाउस	-9.77467
▁जीतने	-9.77522
▁झाले	-9.77579
दो	-9.77609
▁गौरतलब	-9.7763
▁चित्र	-9.77669
▁स्कोर	-9.77712
▁जानिए	-9.7793
▁मरीजों	-9.77956
▁पुष्टि	-9.78129
▁कैमरा	-9.78149
▁सम्मानित	-9.78285
▁लगते	-9.78331
बा	-9.78358
▁बचाव	-9.78523
▁बॉक्स	-9.78526
▁नये	-9.78555
▁लेता	-9.7866
▁सीजन	-9.78674
▁भावना	-9.78722
▁पोर्टल	-9.78765
▁आयु	-9.78811
▁सुपर	-9.78854
▁News	-9.78955
▁मरीज	-9.79055
एल	-9.79075
▁जगत	-9.79115
मध्ये	-9.79227
▁लाखों	-9.79282
▁80	-9.79326
ियाँ	-9.7941
▁दिखा	-9.79441
▁मशहूर	-9.79456
उन्होंने	-9.79474
▁फायदे	-9.79497
▁जवान	-9.79514
▁परिसर	-9.79555
▁प्रवक्ता	-9.79559
▁उठाया	-9.79839
▁तकनीक	-9.79842
ँ	-9.79926
▁केरल	-9.79926
▁सफाई	-9.79949
▁भरोसा	-9.79981
▁निशाना	-9.80222
▁वैश्विक	-9.80229
▁वैज्ञानिक	-9.80369
▁लुक	-9.80433
▁रद्द	-9.80565
▁मंडल	-9.80636
▁होम	-9.80707
▁ग्रहण	-9.80828
9	-9.80862
▁बदलने	-9.80917
▁मुद्रा	-9.80935
▁माने	-9.80975
▁परिजनों	-9.80995
▁दीपक	-9.81084
▁कवि	-9.81112
▁मिशन	-9.81299
▁काले	-9.81344
▁आरक्षण	-9.81465
सिंह	-9.81576
▁पाटील	-9.81595
▁संस्करण	-9.8161
वाद	-9.81708
जे	-9.81716
▁हटा	-9.81847
▁लगाकर	-9.81909
▁व्यापक	-9.81973
▁योजनाओं	-9.81982
▁कठिन	-9.82078
▁रैली	-9.82147
कभी	-9.82179
▁पृथ्वी	-9.82232
▁पूछताछ	-9.82329
6	-9.82365
एन	-9.82409
ावर	-9.82457
▁मुद्दों	-9.82498
▁उपकरण	-9.82601
▁फसल	-9.82655
एम	-9.82699
▁आस	-9.82727
▁डाला	-9.82802
▁फॉर्म	-9.82819
▁झाली	-9.82887
▁व्रत	-9.82924
–	-9.82955
▁पर्यटन	-9.82981
कश्मीर	-9.82993
▁लौट	-9.83045
▁वनडे	-9.83182
सर	-9.8324
▁बढ़ावा	-9.83326
▁स्वतंत्र	-9.8353
दूसरे	-9.83553
▁अल	-9.83558
▁Hom	-9.83654
▁वास्तविक	-9.83692
▁बच्चा	-9.83789
▁2013	-9.83796
▁यांच्या	-9.83866
▁पीने	-9.83895
▁खून	-9.83979
▁200	-9.83997
▁बिजनेस	-9.84007
▁बचा	-9.84007
▁रहीं	-9.8401
▁पत्रकारों	-9.84013
▁ऐलान	-9.84036
▁बे	-9.84153
▁माल	-9.84225
▁अप	-9.84237
पन	-9.84261
▁बांग्लादेश	-9.84295
▁करून	-9.84347
▁कमेटी	-9.84393
▁लड़के	-9.84418
B	-9.84485
▁रस	-9.84663
.1	-9.84741
▁बाढ़	-9.8482
b	-9.84865
▁राज्यपाल	-9.84993
▁अखबार	-9.8524
▁दिमाग	-9.85257
▁मु	-9.85438
देव	-9.85497
▁यानि	-9.85497
▁जयपुर	-9.8554
▁समझने	-9.85547
▁रूस	-9.85727
▁आईपीएल	-9.8576
▁पल	-9.85764
▁यौन	-9.8584
▁मा	-9.85873
_	-9.85968
▁शूटिंग	-9.86014
जन	-9.86076
▁खरीदने	-9.86079
▁पीठ	-9.86089
i	-9.86098
▁गुण	-9.86116
▁दर्शकों	-9.86132
▁गठन	-9.86153
▁रिश्ते	-9.86214
▁दिये	-9.8638
▁डिजाइन	-9.86394
गो	-9.8644
▁चुनावी	-9.86479
▁चलाने	-9.86521
विज्ञापन	-9.86536
▁रनों	-9.86749
▁आगामी	-9.86818
▁रखता	-9.86922
▁काही	-9.86985
▁लक्षण	-9.87007
▁बल्लेबाज	-9.87012
▁एयर	-9.87244
लेकिन	-9.87325
▁बनाते	-9.87391
▁टॉप	-9.87403
▁संरक्षण	-9.87419
▁श्रृंखला	-9.8745
▁तोड़	-9.87515
▁500	-9.87559
▁हाईकोर्ट	-9.87623
▁सीमित	-9.87674
▁पदक	-9.8773
▁रोल	-9.87756
▁नियमों	-9.8776
▁रे	-9.87809
▁कर्ज	-9.87831
▁वकील	-9.87845
▁चौहान	-9.87857
▁%	-9.87958
▁तैनात	-9.88051
▁45	-9.88101
▁किनारे	-9.88116
▁लोन	-9.8824
▁आरोपियों	-9.88277
▁छ	-9.8829
▁पावर	-9.88358
▁सेवाओं	-9.88382
▁खेले	-9.88454
▁अग्रवाल	-9.88595
▁एक्सप्रेस	-9.88634
▁औ	-9.88858
▁अधिनियम	-9.88927
▁महीनों	-9.88947
▁वैक्सीन	-9.89001
▁शांत	-9.89053
▁स्थानों	-9.89159
▁बरामद	-9.8916
▁गोल	-9.89202
▁आंखों	-9.89266
दिल्ली	-9.89307
▁लालू	-9.89318
▁स्त्री	-9.89438
▁बैठ	-9.89462
8	-9.89502
▁हिमाचल	-9.89519
िका	-9.89526
▁सिटी	-9.89531
▁फुल	-9.8957
▁निर्भर	-9.89669
▁चीजें	-9.89728
▁सत्य	-9.89793
▁रचना	-9.89919
▁विद्यालय	-9.89962
▁लिख	-9.90147
▁›	-9.90166
▁रिसर्च	-9.90174
▁कहता	-9.90259
▁पाठ	-9.90422
▁न्यूनतम	-9.90439
्या	-9.90565
▁फैंस	-9.90625
▁0	-9.90653
k	-9.90809
▁इंजन	-9.90841
▁करवा	-9.90848
▁लिखी	-9.90893
▁तहसील	-9.90917
▁ग्राहक	-9.90942
धीरे	-9.91112
▁हजारों	-9.9112
▁कौशल	-9.91196
▁शख्स	-9.9121
▁बुरी	-9.91265
▁कथा	-9.91313
▁पुल	-9.91316
▁ममता	-9.91422
▁वितरण	-9.91461
पा	-9.91471
▁आमतौर	-9.91654
▁बधाई	-9.91655
▁बहस	-9.91667
▁महाराज	-9.91712
▁बढ़ते	-9.91736
▁मिलियन	-9.91743
▁सागर	-9.91795
▁राजीव	-9.91834
▁सरल	-9.91938
—	-9.91957
▁अधिकतम	-9.91998
▁जीता	-9.9202
▁कराई	-9.92058
▁जंगल	-9.92109
▁आशा	-9.9215
▁निर्माता	-9.92181
इसे	-9.92222
▁अक्षय	-9.92228
G	-9.92382
▁हादसे	-9.92421
▁आजादी	-9.92433
▁सोचा	-9.92557
कुछ	-9.92578
▁अकेले	-9.92599
▁बराबर	-9.92608
▁इसीलिए	-9.92618
▁मिट्टी	-9.92658
▁ढंग	-9.92666
▁श्रीलंका	-9.9268
▁समुद्र	-9.92694
▁समझा	-9.92736
▁लिमिटेड	-9.92786
▁नोटिस	-9.92812
▁सवार	-9.92834
▁रि	-9.929
▁पाकिस्तानी	-9.9304
▁मुझसे	-9.93088
▁अभ्यास	-9.93199
▁ताकत	-9.93212
▁नींद	-9.93234
▁सकेंगे	-9.93283
D	-9.93292
▁90	-9.93298
▁बुरा	-9.93379
▁सकारात्मक	-9.93423
▁मर	-9.93477
▁बचपन	-9.93588
▁आंकड़ों	-9.93591
▁रक्त	-9.93659
▁बिग	-9.93719
▁तीसरी	-9.93752
▁लीग	-9.93794
▁भाषण	-9.9393
▁लाइफ	-9.93956
▁बैंकों	-9.93965
▁मजबूर	-9.93972
▁विशिष्ट	-9.94014
▁रानी	-9.9403
नाथ	-9.94085
▁चेन्नई	-9.94089
▁मार्केट	-9.94124
▁कु	-9.94136
▁पेपर	-9.94139
▁रेखा	-9.9427
▁सन	-9.94279
ंड	-9.94411
▁ऋण	-9.9466
▁इसको	-9.9473
▁खड़ी	-9.94731
▁खबरों	-9.94782
▁देखी	-9.9486
▁सुनील	-9.94884
▁पुरुषों	-9.94897
▁दूसरों	-9.95033
▁किमी	-9.95104
ांनी	-9.95108
▁सर्वश्रेष्ठ	-9.95178
▁आदर्श	-9.95211
▁बॉस	-9.95236
▁More	-9.95238
▁तथ्य	-9.95253
▁ईसा	-9.95254
▁गणेश	-9.95254
▁टाइम	-9.95297
▁विचारों	-9.95381
▁सफेद	-9.9544
ड़ा	-9.95471
ति	-9.95541
▁सका	-9.95566
▁कार्यवाही	-9.95575
▁दास	-9.95663
ांना	-9.95664
▁चोट	-9.95686
▁शहीद	-9.95698
▁मध्यप्रदेश	-9.95712
▁मोड	-9.95761
▁परिवारों	-9.95806
▁यात्रियों	-9.9581
▁उत्पादों	-9.95817
▁क्रम	-9.9587
▁2012	-9.95877
▁सुझाव	-9.95917
▁लेंगे	-9.96251
▁हटाने	-9.96255
▁चालू	-9.96264
▁पढ़	-9.96287
▁रा	-9.96291
▁आदित्यनाथ	-9.96308
▁पूर्वी	-9.96323
▁समाजवादी	-9.96469
▁8.	-9.96476
▁झाला	-9.96498
▁पाएंगे	-9.96517
▁संग्रह	-9.96664
▁मुद्दा	-9.96673
▁छवि	-9.96677
▁परन्तु	-9.96687
▁सचिन	-9.96694
▁बा	-9.96742
▁लाया	-9.96926
▁प्रभावी	-9.96951
घर	-9.96996
▁वायु	-9.97001
०	-9.97007
▁स्कूलों	-9.97015
f	-9.97031
ियो	-9.97048
वार	-9.97051
▁महज	-9.97088
▁लाइव	-9.97172
▁मेल	-9.97231
ठ	-9.97257
▁संचालन	-9.97272
▁अशी	-9.97277
▁टन	-9.97322
▁वातावरण	-9.97335
▁भरी	-9.97339
▁शुरुआती	-9.97347
टा	-9.97399
▁गलती	-9.97405
▁अयोध्या	-9.97408
▁T	-9.97493
▁किलो	-9.97496
▁एशिया	-9.97621
वन	-9.97636
▁असली	-9.97708
▁धन्यवाद	-9.97717
▁टूर्नामेंट	-9.97728
▁मकान	-9.97759
▁हाँ	-9.97794
▁धमकी	-9.9798
बे	-9.98049
▁प्रेरित	-9.98063
▁बीज	-9.9808
फ़	-9.98094
▁स्टोर	-9.98095
▁नारायण	-9.98107
▁येथील	-9.98132
▁मंजूरी	-9.98248
▁सुन	-9.98273
नो	-9.98328
▁नागरिकों	-9.98401
▁आएगा	-9.98478
▁अरविंद	-9.98632
▁कड़ियाँ	-9.98683
▁जस्टिस	-9.9871
▁घटनाओं	-9.98711
▁कलाकार	-9.98778
▁प्रतियोगिता	-9.98792
▁खेला	-9.98797
▁2011	-9.98812
बाहरी	-9.98875
▁इंस्टाग्राम	-9.98907
▁बेटा	-9.98934
▁नीला	-9.98952
▁उठाने	-9.98964
▁चुना	-9.98999
▁दान	-9.99237
▁बदले	-9.99322
▁लोकतंत्र	-9.99377
▁शिवसेना	-9.9957
▁शैली	-9.99678
▁बीमा	-9.99742
▁लिखे	-9.99784
▁कीमतों	-9.99805
▁हैदराबाद	-9.9981
▁अंदाज	-9.99861
▁पश्चिमी	-9.99867
er	-9.9989
▁अधीक्षक	-9.99895
▁आलोचना	-9.9999
मे	-10.0009
▁बच्ची	-10.0011
वां	-10.0018
▁पर्व	-10.0019
▁डि	-10.0022
▁उद्घाटन	-10.0032
खेल	-10.0038
▁32	-10.0046
▁हद	-10.0053
▁कोच	-10.0056
▁ट्रंप	-10.0059
▁आपूर्ति	-10.0062
▁संशोधन	-10.0063
▁शक	-10.0069
मुझे	-10.0075
▁दोबारा	-10.0089
पाल	-10.0089
सु	-10.0089
▁आजकल	-10.0095
▁भरपूर	-10.0097
▁एसपी	-10.0098
शी	-10.0101
▁रूपये	-10.011
▁जुड़ा	-10.0111
▁सीटें	-10.0112
▁सड़कों	-10.0116
▁आंध्र	-10.0116
▁आयुक्त	-10.0118
▁बचने	-10.0124
▁बच्चन	-10.0127
▁क्लास	-10.0127
▁एक्स	-10.0128
▁माहिती	-10.0132
▁होंगी	-10.0133
▁मी	-10.0135
मान	-10.014
▁बटन	-10.0145
▁पत्थर	-10.0146
▁उल्लेख	-10.0151
▁बनाये	-10.0151
▁अंतर्राष्ट्रीय	-10.0156
ांच्या	-10.0159
▁खाता	-10.0162
▁युग	-10.0164
▁तू	-10.0164
▁ब्रिटेन	-10.0167
्र	-10.0167
▁ब्रिटिश	-10.0167
▁क्लब	-10.0168
▁मुख्यालय	-10.0169
▁असम	-10.017
▁कानूनी	-10.0174
▁सेहत	-10.0176
▁@	-10.018
▁जिनकी	-10.0183
▁जाहिर	-10.0184
▁हृदय	-10.0187
मो	-10.0209
▁त्यांनी	-10.0211
▁I	-10.0217
▁देखे	-10.022
▁चंद्र	-10.0223
▁जिम्मेदार	-10.0229
▁न्यूजीलैंड	-10.023
ेश	-10.0231
▁कल्पना	-10.0232
▁पवार	-10.0239
▁संगठनों	-10.0239
▁वर्ण	-10.0244
K	-10.0245
-20	-10.0245
▁जिनका	-10.0251
▁प्रतीक	-10.026
▁रणनीति	-10.027
▁F	-10.0271
▁अनिवार्य	-10.0274
▁शुद्ध	-10.0279
▁जानी	-10.028
▁अहमद	-10.0284
रिया	-10.0285
▁निकाला	-10.029
▁हथियार	-10.0295
भ	-10.0303
ing	-10.0305
▁उतना	-10.0314
▁लि	-10.0322
▁खोल	-10.0335
▁कहाँ	-10.034
▁चेतावनी	-10.0342
▁मुकाबला	-10.0343
▁ऑफ़	-10.0353
▁¤	-10.036
▁ब्याज	-10.0364
▁जिसमे	-10.0374
▁ज़रूरत	-10.0393
▁सेक्टर	-10.0397
▁लिखने	-10.0397
▁बल्लेबाजी	-10.04
▁सिनेमा	-10.0404
शहर	-10.0413
▁प्राथमिक	-10.0415
▁विशेषज्ञ	-10.0415
▁लक्ष्मी	-10.0422
▁ष	-10.0424
▁तत्व	-10.0426
▁उधर	-10.0427
▁दौरा	-10.0429
ेड	-10.0431
▁मण्डल	-10.044
▁प्रोजेक्ट	-10.0444
+	-10.0449
▁पदार्थ	-10.0451
▁जापान	-10.0453
▁डिवाइस	-10.0465
▁विपरीत	-10.0465
▁मंगल	-10.0466
▁लगाते	-10.0475
▁रावत	-10.0475
▁स्टॉक	-10.0476
▁पहल	-10.0489
सन	-10.0494
▁काट	-10.0498
▁गतिविधियों	-10.0501
▁पत्रकारिता	-10.0501
▁ईश्वर	-10.0508
▁मनोज	-10.0512
▁गले	-10.0516
गढ़	-10.0521
▁जोड़ी	-10.0525
▁संचालित	-10.0528
▁डांस	-10.0531
▁राज्यसभा	-10.0542
.2	-10.0556
▁ग्रह	-10.0561
▁हुये	-10.0562
▁राव	-10.0563
%	-10.057
▁ट्रक	-10.0571
▁दोषी	-10.0575
▁जगहों	-10.0576
▁दृश्य	-10.0578
▁तकनीकी	-10.0585
▁डेस्क	-10.0588
▁मुसलमानों	-10.059
▁गर्मी	-10.0594
ांची	-10.0599
▁उतार	-10.06
▁अति	-10.061
▁तसेच	-10.0627
▁जोखिम	-10.0636
E	-10.0638
▁चेहरा	-10.0663
लो	-10.0667
साठी	-10.0667
▁संवत	-10.0668
ीकरण	-10.0671
▁लड़ने	-10.0688
▁जात	-10.0689
▁आत्महत्या	-10.0693
▁2009	-10.0694
▁अध्यक्षता	-10.0697
▁धरती	-10.0704
▁36	-10.0704
▁विविध	-10.0704
▁मध्यम	-10.0707
वादी	-10.0708
▁प्रत्याशी	-10.071
▁दिखाने	-10.0711
▁पुणे	-10.0728
▁होत	-10.073
▁सिन्हा	-10.0731
▁शुरु	-10.0735
▁फिल्में	-10.0737
▁अरुण	-10.0742
▁स्वरूप	-10.0752
▁मोर्चा	-10.0753
मैन	-10.0756
▁दिली	-10.0757
▁संत	-10.0771
▁अंग	-10.0773
▁कैबिनेट	-10.0786
▁देगी	-10.079
▁उपाध्यक्ष	-10.0799
▁विधान	-10.0802
▁अनुमानित	-10.0807
▁P	-10.0809
▁पढ़े	-10.0814
▁सफर	-10.0824
▁ऐ	-10.0829
▁तत्काल	-10.083
▁मोहन	-10.0831
▁संवाद	-10.0834
▁नेहरू	-10.0835
▁अंजाम	-10.0835
▁असल्याचे	-10.0854
▁सुनने	-10.0854
▁राशिफल	-10.0861
▁नियुक्त	-10.0861
▁करार	-10.0881
▁जन्मदिन	-10.0885
▁निकलने	-10.0887
▁खुले	-10.0891
▁चालक	-10.0897
मनोरंजन	-10.0899
नई	-10.0905
▁नयी	-10.0906
▁व्यक्तियों	-10.091
▁दोन	-10.091
▁निकालने	-10.0918
▁स्टेट	-10.0923
गंज	-10.0925
▁आइए	-10.0932
ेस	-10.0944
श्री	-10.0945
▁आत्मा	-10.0946
पूर्ण	-10.0948
▁संदर्भ	-10.095
▁प्रतिबंध	-10.095
▁कपिल	-10.0954
▁नेपाल	-10.0963
▁संक्रमित	-10.0971
▁खेत	-10.0982
▁भरे	-10.0985
▁अगली	-10.0991
▁प्रदर्शित	-10.0992
वह	-10.0995
वाला	-10.0996
▁परिवहन	-10.0996
रू	-10.0997
गे	-10.0997
▁इंच	-10.0998
▁जानना	-10.0999
▁बांध	-10.1002
▁स्मार्ट	-10.1007
▁बनाता	-10.1009
▁2010	-10.1011
▁आपसे	-10.1015
▁नवम्बर	-10.102
▁देखभाल	-10.1036
▁असा	-10.1038
▁त्या	-10.1055
▁सुनकर	-10.1056
▁सेल	-10.1061
ेशन	-10.1066
▁मंत्र	-10.1068
▁महासचिव	-10.1083
▁कानपुर	-10.1089
कल	-10.109
▁विटामिन	-10.1094
▁जानता	-10.1094
▁निर्वाचन	-10.1099
▁किशोर	-10.111
▁इनकार	-10.111
▁पड़ती	-10.1117
▁पाता	-10.1119
▁सबको	-10.1126
▁रेट	-10.1128
▁अमिताभ	-10.1133
▁टूट	-10.1136
▁लेती	-10.1152
▁PM	-10.1152
▁येथे	-10.1153
▁घ	-10.1153
▁एयरपोर्ट	-10.1156
▁मस्जिद	-10.1158
▁वाहनों	-10.116
▁इंटरव्यू	-10.1172
▁तंत्र	-10.1177
दर	-10.1199
▁अवश्य	-10.1199
▁जताई	-10.1204
▁एकदम	-10.1205
▁चम्मच	-10.1212
y	-10.1216
▁सिद्ध	-10.1221
▁तुम्हें	-10.1227
▁बो	-10.1227
▁बनकर	-10.1227
ै	-10.123
वो	-10.1234
▁आवाज़	-10.1234
▁स्पेशल	-10.1245
▁सर्विस	-10.1255
▁दाखिल	-10.1257
▁खेलों	-10.1273
▁बढ़त	-10.1276
▁राजेश	-10.1277
▁बैटरी	-10.128
▁प्रोफेसर	-10.1286
▁कारणों	-10.1287
▁सोना	-10.1288
▁राह	-10.1289
t	-10.1296
▁एच	-10.1297
▁खतरनाक	-10.1298
▁मालूम	-10.1303
▁रिजल्ट	-10.1304
▁सहमति	-10.1305
▁प्रोग्राम	-10.1308
▁मनोरंजन	-10.1308
▁दिवाली	-10.1314
▁मारने	-10.1317
▁लंदन	-10.1325
▁सैन्य	-10.1327
▁तुम्हारे	-10.1328
▁जोशी	-10.1334
T	-10.1334
▁संपादक	-10.1335
▁अन	-10.1336
▁पृष्ठ	-10.1338
▁कैसा	-10.1348
▁सहारा	-10.1353
▁इधर	-10.1354
▁उतर	-10.1358
▁फंड	-10.1365
|	-10.1378
▁आएंगे	-10.1379
▁सीधा	-10.1386
▁सर्वाधिक	-10.1392
▁बुलाया	-10.1394
मेंट	-10.1396
▁इस्तीफा	-10.14
▁शपथ	-10.1403
▁कृपया	-10.1413
▁बढ़ोतरी	-10.1415
▁आदिवासी	-10.1418
▁पवित्र	-10.1419
▁ऑपरेशन	-10.142
▁विधायकों	-10.1424
▁गोवा	-10.1433
▁ब्रांड	-10.1445
▁सांस्कृतिक	-10.1446
▁दिला	-10.1448
▁बुक	-10.1465
▁शंकर	-10.1466
▁गांवों	-10.1469
▁परंपरा	-10.1475
▁विस्तृत	-10.1475
होम	-10.1475
▁इंडस्ट्री	-10.1478
▁कार्यकाल	-10.1478
णी	-10.1479
▁बच	-10.1481
▁स्टेडियम	-10.1482
▁बताई	-10.1482
▁रवि	-10.1486
▁दुख	-10.1491
▁आशंका	-10.1496
▁कट	-10.1508
▁लहर	-10.1515
शा	-10.152
▁न्यू	-10.1535
▁रूम	-10.1536
▁भरने	-10.1542
▁अर्जुन	-10.1543
▁१	-10.1546
▁पत्रिका	-10.1555
ाई	-10.1562
▁D	-10.1569
भारतीय	-10.1575
▁इंदौर	-10.1578
▁75	-10.158
▁दाखल	-10.1584
▁ब्लॉक	-10.1585
▁ओपन	-10.1587
▁प्रताप	-10.1595
▁48	-10.16
▁ब्लैक	-10.1603
▁तर्क	-10.1609
ातील	-10.1609
▁यात्री	-10.1617
▁झा	-10.1622
▁अफगानिस्तान	-10.1623
रि	-10.1625
▁चाल	-10.1626
▁दिनांक	-10.1627
▁जरिये	-10.1628
▁राजस्व	-10.1634
▁एक्टर	-10.1645
राज्य	-10.1646
▁घंटों	-10.165
धर्म	-10.1659
▁गाना	-10.1662
▁कोरिया	-10.1663
▁विपक्षी	-10.1664
िस	-10.1671
▁2021.	-10.1673
▁जिक्र	-10.1674
▁बाहरी	-10.1687
▁नष्ट	-10.1688
▁प्राइवेट	-10.1688
▁स्रोत	-10.169
▁9.	-10.169
▁इस्लाम	-10.1691
▁2008	-10.1696
▁पात्र	-10.1701
बिहार	-10.1704
▁सबके	-10.1706
▁सोनिया	-10.1711
al	-10.1713
▁शेष	-10.1714
▁रो	-10.1716
▁इंटरनेशनल	-10.1727
▁आकर्षित	-10.173
▁छोड़ने	-10.1731
▁लॉकडाउन	-10.1733
▁तत्कालीन	-10.1737
▁हिरासत	-10.1738
▁भाभी	-10.1739
▁रुप	-10.1747
▁हित	-10.1748
ास	-10.175
▁असल	-10.1751
x	-10.1755
▁भारती	-10.176
▁कायम	-10.1764
▁फ़ोन	-10.1765
▁ईरान	-10.1775
▁निगरानी	-10.1778
▁उल्लंघन	-10.1778
▁प्रकट	-10.1783
▁कंट्रोल	-10.1783
▁रेड	-10.1786
▁सांस	-10.1787
▁संस्कार	-10.1799
▁अनुरोध	-10.1804
▁सख्त	-10.1807
▁गिरफ्तारी	-10.1808
▁कवर	-10.181
▁फ्रांस	-10.1812
▁लगेगा	-10.1815
▁सॉफ्टवेयर	-10.1817
▁स्मृति	-10.1821
▁डायरेक्टर	-10.1826
▁बढ़ता	-10.1826
ेश्वर	-10.1834
▁राकेश	-10.1842
▁जितनी	-10.1848
▁शाहरुख	-10.1849
▁वार्ड	-10.1856
ड़ी	-10.186
▁उजाला	-10.1865
▁तलाक	-10.1866
▁टीकाकरण	-10.1875
▁अनुसंधान	-10.1879
▁किन्तु	-10.1882
▁़	-10.1887
▁खारिज	-10.1888
▁नियुक्ति	-10.189
▁नमक	-10.1892
फिर	-10.1893
▁»	-10.1895
▁हैरान	-10.1897
▁जनपद	-10.1898
▁ग्रामीणों	-10.1904
▁सुनाई	-10.1913
▁गाय	-10.1921
▁सन्	-10.1925
▁दौड़	-10.1927
▁निर्मित	-10.1929
म्	-10.1933
▁आधा	-10.1933
▁पिछली	-10.194
▁आंकड़े	-10.1943
▁घाटी	-10.1944
▁न्यायाधीश	-10.1944
▁अद्भुत	-10.1945
▁चीफ	-10.1954
▁वक़्त	-10.1964
▁आर्टिकल	-10.1968
सं	-10.1978
▁पंडित	-10.1986
तील	-10.1994
▁साउथ	-10.1994
▁प्रेरणा	-10.1999
▁सर्वे	-10.2002
▁रायपुर	-10.2004
▁कनेक्शन	-10.2009
▁दायर	-10.2009
▁घाट	-10.201
खा	-10.2016
▁बसपा	-10.2017
कोरोना	-10.2017
▁परिचय	-10.2022
▁तमिलनाडु	-10.2025
▁बोलने	-10.2032
▁बलात्कार	-10.2036
▁चौक	-10.2041
▁हिस्सों	-10.2041
▁तारीफ	-10.2053
▁बदला	-10.2055
▁शिक्षकों	-10.2058
हमारे	-10.2068
▁विष्णु	-10.2069
P	-10.2077
▁संचार	-10.2078
▁विश्लेषण	-10.2087
▁उपस्थिति	-10.2091
▁वीर	-10.2106
ेज	-10.2112
▁आहार	-10.2114
▁टाटा	-10.2114
▁पहुँच	-10.2132
▁शिक्षण	-10.2133
▁सेंसेक्स	-10.2134
▁33	-10.2135
▁चौथे	-10.2136
▁E	-10.2138
▁शतक	-10.2141
▁M	-10.2143
▁पैमाने	-10.2151
▁लड़	-10.2151
▁करवाया	-10.2153
▁लव	-10.2154
▁बि	-10.2155
▁नोएडा	-10.2158
▁बनता	-10.2159
▁संकल्प	-10.2164
मैंने	-10.217
▁औद्योगिक	-10.2173
▁प्रौद्योगिकी	-10.2175
▁फरार	-10.2179
स्ट	-10.2197
▁वादा	-10.22
▁जमानत	-10.2207
काल	-10.2211
▁जीव	-10.2211
दी	-10.2218
▁पुराना	-10.2221
▁चोपड़ा	-10.2227
▁प्रगति	-10.2236
▁सिद्धांत	-10.2237
n	-10.2239
▁क्षेत्रीय	-10.224
▁अंकों	-10.2245
▁जिल्हा	-10.225
▁जवानों	-10.2252
▁चलती	-10.2267
▁उठ	-10.2275
▁रोजाना	-10.2276
▁गुना	-10.2281
▁खतरे	-10.2292
▁अभिनय	-10.2308
▁यूजर्स	-10.231
▁बेचने	-10.2311
▁महात्मा	-10.2321
▁उपयोगी	-10.2322
▁विजेता	-10.2324
▁स्वाद	-10.2327
▁लूट	-10.2336
▁गेंदबाज	-10.2338
▁बम	-10.2343
▁मारा	-10.2343
▁ख़ास	-10.2346
▁काला	-10.2352
▁हज़ार	-10.2352
अप	-10.2369
▁विद्युत	-10.2375
▁दिलचस्प	-10.238
▁सहयोगी	-10.2384
▁विरुद्ध	-10.2397
▁पाठक	-10.24
▁दु	-10.2402
▁ब्यूरो	-10.2402
▁ऑटो	-10.2403
▁कर्म	-10.2406
▁युवती	-10.2412
▁चाहिये	-10.2415
कि	-10.2415
▁जोड़	-10.2417
▁:-	-10.2424
▁वस्तु	-10.2427
▁भू	-10.2435
▁इंदिरा	-10.2436
▁यहीं	-10.2438
▁खुला	-10.2443
▁रेप	-10.2444
▁समर्पित	-10.2445
ंस	-10.2446
▁ज़रूरी	-10.245
▁सुविधाओं	-10.2456
▁रकम	-10.2469
▁साफ़	-10.2472
▁झटका	-10.2475
▁मूर्ति	-10.2479
ील	-10.2479
▁पूछे	-10.2489
▁बनर्जी	-10.2493
▁काली	-10.2496
00	-10.2503
▁गोल्ड	-10.2505
▁नाराज	-10.2505
▁G	-10.2505
▁अटल	-10.2515
▁एकमात्र	-10.2515
▁जीएसटी	-10.2517
▁पाणी	-10.2518
•	-10.2519
▁जोड़ा	-10.252
▁तरंग	-10.2521
▁रखकर	-10.2534
▁लगाना	-10.2535
▁अंतरिक्ष	-10.2536
-2	-10.2539
▁मायावती	-10.2543
▁कोर्स	-10.2543
▁सुरेश	-10.2543
▁वर्णन	-10.2544
▁अधिकतर	-10.2546
▁सिविल	-10.255
▁संबंधों	-10.2555
▁देखिए	-10.256
▁जनसंख्या	-10.2574
▁शहरी	-10.2577
इन्हें	-10.2583
▁गेट	-10.2587
▁सांगितले	-10.2591
हि	-10.2591
▁सदन	-10.2593
▁गौरव	-10.26
▁प्रार्थना	-10.2605
▁रुख	-10.2611
▁२	-10.2612
▁सूत्र	-10.2629
▁मिलेंगे	-10.2637
▁बढ़ी	-10.2643
▁क्रेडिट	-10.2643
▁मुकदमा	-10.2644
▁बैठा	-10.2653
▁कब्जा	-10.2656
▁हु	-10.266
▁शरद	-10.2661
▁मुसलमान	-10.2664
▁उन्‍होंने	-10.2665
▁नरेन्द्र	-10.2669
वाल	-10.267
F	-10.267
▁2022	-10.2672
▁एसोसिएशन	-10.2686
▁अनु	-10.2698
▁शेर	-10.2699
▁कैमरे	-10.27
▁खुल	-10.2701
▁निर्देशक	-10.2701
▁दुर्घटना	-10.2701
▁डालकर	-10.2703
▁नवीन	-10.2704
▁इमरान	-10.2707
▁सहज	-10.2711
▁खोलने	-10.2715
▁लेखन	-10.2718
▁साधारण	-10.272
▁प्रयत्न	-10.272
▁खासकर	-10.272
▁प्रेमी	-10.2723
ेगा	-10.2724
▁परमाणु	-10.273
दुनिया	-10.2732
▁गोरखपुर	-10.2734
▁बिलकुल	-10.2736
▁कलेक्टर	-10.274
▁यांना	-10.2753
▁लिखित	-10.2755
▁नव	-10.2757
▁38	-10.276
ंट	-10.276
▁चावल	-10.2761
10	-10.2763
▁पढ़ा	-10.2773
▁वर्षा	-10.2781
▁प्रारंभ	-10.2782
▁गौतम	-10.2788
▁आतंकवाद	-10.279
▁टू	-10.2796
▁नियंत्रित	-10.2798
▁रुचि	-10.2804
▁यूनिट	-10.281
▁चरित्र	-10.2816
▁पशु	-10.2824
▁अर्थात	-10.2829
▁री	-10.2829
▁चक्र	-10.2834
▁पीढ़ी	-10.2841
▁गायब	-10.2848
▁पड़ने	-10.285
m	-10.2856
▁दिग्गज	-10.2856
▁पहुंचाने	-10.2857
▁एफ	-10.2862
▁उत्तरी	-10.2862
▁जर्मनी	-10.2863
▁अन्तर्गत	-10.2864
▁शताब्दी	-10.2871
▁रिजर्व	-10.2872
▁कीजिए	-10.2873
▁बीमारियों	-10.2874
▁डाटा	-10.2878
राव	-10.2878
▁रवाना	-10.2882
▁300	-10.2885
▁प्रतिनिधि	-10.2885
.3	-10.2889
▁एक्ट	-10.2893
गांव	-10.2895
▁आदत	-10.2898
▁मानी	-10.2901
▁सेवाएं	-10.2904
▁स्वर्ण	-10.2918
▁मेट्रो	-10.2922
▁कामयाब	-10.2927
पास	-10.2928
▁मुक्ति	-10.2937
▁टक्कर	-10.2939
▁गेंदबाजी	-10.2939
▁वार्ता	-10.2939
अन्य	-10.2946
▁प्रावधान	-10.2947
▁यावेळी	-10.2947
▁कटौती	-10.2948
▁राशन	-10.2951
Q	-10.2952
W	-10.2953
अपनी	-10.2955
▁छुट्टी	-10.2957
▁पापा	-10.2958
▁प्रतिदिन	-10.2962
टे	-10.298
▁उत्साह	-10.2984
▁डालने	-10.2986
▁संसार	-10.2991
▁तीसरा	-10.2992
▁अवस्था	-10.2993
▁दृष्टिकोण	-10.2996
मु	-10.2999
ed	-10.2999
▁चक्कर	-10.3001
▁स्टोरी	-10.3003
▁निम्नलिखित	-10.3007
▁प्राप्ति	-10.3008
▁जोड़ने	-10.301
▁हॉट	-10.3012
▁निम्न	-10.302
▁मि	-10.3026
▁पं	-10.3026
▁मांगी	-10.3027
▁इलाहाबाद	-10.3043
▁धान	-10.3045
▁निर्यात	-10.3046
▁दीपिका	-10.3046
▁शिखर	-10.3047
▁जयंती	-10.3058
▁अनुकूल	-10.3068
▁अमरीका	-10.3073
▁सैनिकों	-10.3073
यें	-10.3074
▁सिर्फ़	-10.3081
▁परिस्थितियों	-10.3084
▁सैनिक	-10.3084
▁बीमार	-10.3093
▁दि	-10.3094
▁इकाई	-10.3102
▁एंटी	-10.3105
▁जज	-10.3108
▁मचा	-10.311
▁सर्वोच्च	-10.3111
▁आरोपों	-10.3116
▁आंकड़ा	-10.3125
बर	-10.3131
▁सैकड़ों	-10.3134
▁शेयरों	-10.3138
▁बाज़ार	-10.3146
▁K	-10.3147
▁मुलायम	-10.3148
▁पीड़िता	-10.3149
▁एक्सचेंज	-10.3166
▁ट्रैक	-10.3168
में	-10.3171
सह	-10.3176
▁सूचकांक	-10.3177
▁पार्टियों	-10.3177
▁यूरोप	-10.3182
▁ख़बर	-10.3189
▁निकले	-10.3191
ध	-10.3192
▁चुदाई	-10.3193
▁Google	-10.3195
▁व्यापारी	-10.3195
▁इत्यादि	-10.32
▁जाय	-10.32
▁निपटने	-10.3201
▁भोजपुरी	-10.3202
▁·	-10.3202
▁वाराणसी	-10.3207
▁पेंशन	-10.3209
▁विद्यार्थी	-10.3212
▁स्किन	-10.3216
▁संतोष	-10.3217
चार	-10.3224
▁केंद्रित	-10.3227
जैसे	-10.323
▁मिश्र	-10.3231
▁झूठ	-10.3233
▁वार्षिक	-10.3245
छ	-10.3246
▁समझौता	-10.3246
▁दस्तावेज	-10.3249
▁अतिथि	-10.325
▁संसाधन	-10.3256
▁फायदेमंद	-10.3259
▁फर्जी	-10.326
▁जंग	-10.3263
कु	-10.327
▁कमा	-10.3272
▁मनीष	-10.3273
▁शिवराज	-10.3289
▁जलवायु	-10.329
▁विनोद	-10.3295
क्स	-10.3297
▁आतंकियों	-10.33
▁रमेश	-10.3309
▁संस्कृत	-10.3309
▁चौ	-10.3312
▁बहुमत	-10.3312
▁अतः	-10.3325
▁ख़िलाफ़	-10.333
▁परमेश्वर	-10.3332
▁आएगी	-10.3336
▁ओलंपिक	-10.3347
▁व्यक्तित्व	-10.3349
▁तट	-10.3352
▁हार्दिक	-10.3355
▁मृत	-10.3356
▁निवास	-10.3362
▁टाइम्स	-10.3362
▁एक्शन	-10.3363
▁टीमों	-10.3365
▁समझौते	-10.337
▁ऊंचाई	-10.3372
▁शाखा	-10.3375
ार	-10.3375
▁निफ्टी	-10.3376
▁अस्तित्व	-10.3395
▁योग्यता	-10.3395
राष्ट्रीय	-10.3397
वीडियो	-10.3399
▁प्रतिनिधित्व	-10.3404
▁करण	-10.3408
ेंगे	-10.3408
▁संसदीय	-10.341
▁कलर	-10.3414
▁34	-10.3424
▁सर्च	-10.3424
▁समझते	-10.3425
▁रिश्ता	-10.3425
▁55	-10.3427
▁बनना	-10.343
▁लंबा	-10.3438
▁समस्त	-10.344
▁दिखने	-10.3442
▁अकड़	-10.3445
▁हनुमान	-10.3453
▁नोटबंदी	-10.3454
▁ठाकरे	-10.3455
▁फिट	-10.3456
▁आग्रह	-10.3458
▁डालें	-10.3459
हे	-10.3461
▁कार्तिक	-10.3465
▁पाउडर	-10.3466
▁निरीक्षण	-10.3466
शिक्षा	-10.3466
▁बेस्ट	-10.3469
o	-10.3476
डॉ	-10.3477
▁भूख	-10.3481
▁सवालों	-10.3482
u	-10.3496
▁महंगाई	-10.3501
▁एप	-10.3501
p	-10.3503
▁श्रीवास्तव	-10.3507
▁यूट्यूब	-10.351
▁काफ़ी	-10.3519
▁फॉर	-10.3521
▁विधेयक	-10.3527
▁जाया	-10.3528
▁निशान	-10.3532
▁मारपीट	-10.3538
▁उक्त	-10.3546
▁एकता	-10.3547
▁चीज़	-10.3551
Home	-10.3553
▁संपूर्ण	-10.3554
I	-10.357
▁सदी	-10.3574
▁सीख	-10.3575
▁प्लास्टिक	-10.3579
▁विषयों	-10.358
▁चेयरमैन	-10.3581
]	-10.3587
▁दिसम्बर	-10.3589
▁छत	-10.3589
▁दिनेश	-10.359
▁झ	-10.36
ेल	-10.3603
▁नाटक	-10.3607
H	-10.3614
▁जाओ	-10.3618
▁जीते	-10.3621
▁बोलते	-10.3622
▁आगरा	-10.363
▁जबरदस्त	-10.3631
▁१९	-10.3633
▁आकर्षक	-10.3633
▁जियो	-10.3643
▁बनाएं	-10.3652
▁हुईं	-10.3653
▁मास्टर	-10.3656
▁कहे	-10.3656
▁अभिषेक	-10.3662
▁फीचर	-10.3667
▁चार्ज	-10.367
▁ण	-10.367
▁हिट	-10.3672
▁पाल	-10.3681
▁लाइसेंस	-10.3682
िए	-10.3688
▁R	-10.3689
▁उपयुक्त	-10.3693
▁नवीनतम	-10.3698
▁उन्हीं	-10.37
▁पांडे	-10.3703
▁कार्यक्रमों	-10.3703
ेट	-10.3704
▁दिलाने	-10.3711
▁आजाद	-10.3714
▁भा	-10.372
▁हरी	-10.3726
▁आकाश	-10.3732
▁हेल्थ	-10.3733
▁मजदूर	-10.3738
▁हस्ताक्षर	-10.3738
▁कंपनियां	-10.3742
l	-10.3743
▁कमल	-10.3744
▁अत्यधिक	-10.3745
M	-10.3745
▁वार	-10.3746
▁सम्बन्ध	-10.3747
▁सूरज	-10.3749
▁बतौर	-10.3754
▁अत्यंत	-10.3757
ासाठी	-10.3758
▁उड़ान	-10.3758
▁बुनियादी	-10.3758
▁लिंग	-10.3759
▁निकला	-10.3759
▁दिवसीय	-10.3763
▁रखती	-10.3765
▁खिताब	-10.3772
▁देखता	-10.3772
बहुत	-10.3775
▁विद्यार्थियों	-10.3777
.5	-10.3788
ाना	-10.3796
▁उपन्यास	-10.3797
मेरे	-10.3807
▁प्रकाशन	-10.3811
▁सि	-10.3812
▁मृतक	-10.3816
▁अन्दर	-10.3818
▁रांची	-10.3818
▁क्रांति	-10.3824
▁जितने	-10.3824
▁पवन	-10.3828
किसी	-10.3828
▁ऑप्शन	-10.3829
▁संग	-10.383
▁आमंत्रित	-10.3835
▁.2.	-10.3836
▁राजकीय	-10.3839
पत्र	-10.3843
▁मलिक	-10.3847
▁प्रोटीन	-10.3851
▁बाग	-10.3864
▁सच्चाई	-10.3867
▁मिर्च	-10.387
▁मंडी	-10.3873
▁ऑफर	-10.3882
रों	-10.3883
▁जायेंगे	-10.3886
.4	-10.389
▁कार्यरत	-10.3892
▁Status	-10.3892
▁नागरिकता	-10.3895
▁ख्याल	-10.3896
▁हक	-10.3896
▁पेशकश	-10.39
▁भेजने	-10.3901
▁आँखों	-10.3902
▁*.	-10.3902
स्	-10.3909
▁संतृप्ति	-10.3909
▁मुकेश	-10.391
यो	-10.3912
▁गेंदों	-10.3913
’’	-10.3914
▁150	-10.3922
िल	-10.3925
▁पसंदीदा	-10.3926
▁प्रभु	-10.3932
▁रुपया	-10.3939
▁बाबू	-10.3944
▁राजकुमार	-10.3946
▁सरकारों	-10.3947
▁होणार	-10.3949
in	-10.3949
राजनीति	-10.3951
▁देशभर	-10.3951
▁होली	-10.3953
▁बैग	-10.3954
▁आयी	-10.3956
कडे	-10.3963
▁त्योहार	-10.3964
▁मनाने	-10.397
पूर्व	-10.3974
▁हालाँकि	-10.3978
▁माफी	-10.3981
▁हल्कापन	-10.3982
▁शिविर	-10.3984
▁संभावित	-10.3986
▁RGB	-10.399
▁धारण	-10.3993
▁बढ़ाया	-10.3993
▁स्थायी	-10.3994
▁उत्सव	-10.3997
▁यूजर	-10.4
▁फीस	-10.4008
▁प्रशासनिक	-10.401
▁साजिश	-10.4015
▁अक्तूबर	-10.4022
▁इंजीनियरिंग	-10.4024
▁ऑक्सीजन	-10.4025
▁साढ़े	-10.4028
टर	-10.4032
▁चलाया	-10.4034
▁दैर्ध्य	-10.4035
▁HSL	-10.4037
▁2000	-10.4037
▁गुस्सा	-10.4038
िश	-10.4039
▁हैक्सा	-10.4041
डेसीमल	-10.4043
▁सुनें	-10.4046
▁प्रिय	-10.4049
▁ग्रीन	-10.405
▁कानूनों	-10.4053
▁अमीर	-10.4074
▁ट्रेलर	-10.4074
▁चूंकि	-10.4075
▁ड्राइवर	-10.4076
▁बिहारी	-10.4078
▁स्टाइल	-10.4078
▁पारंपरिक	-10.4082
▁.“	-10.4084
▁फांसी	-10.4084
▁ढेर	-10.4087
▁सीनियर	-10.4087
▁डेढ़	-10.4087
▁भट्ट	-10.4088
▁स्नान	-10.4089
ां	-10.4093
▁सकी	-10.4099
▁उठाए	-10.4107
▁पंजीकरण	-10.4109
▁गर्व	-10.4112
▁समक्ष	-10.4112
▁पोस्टर	-10.4113
▁डॉक्टरों	-10.4113
▁आमिर	-10.4114
ांचे	-10.4117
▁उल्लेखनीय	-10.4119
*	-10.4119
▁वाजपेयी	-10.4123
▁आत्म	-10.4124
▁मास्क	-10.413
▁अपेक्षा	-10.4137
▁पकड़ा	-10.4138
आपको	-10.414
▁द्वितीय	-10.4144
▁तुम्हारी	-10.4147
▁सम	-10.4148
▁हिंदुस्तान	-10.4151
▁किरण	-10.4152
▁केन्द्रीय	-10.4158
▁मरने	-10.4158
▁येत	-10.416
▁65	-10.4161
▁ब्लड	-10.4162
▁श्रम	-10.4166
▁हमे	-10.417
▁बॉडी	-10.4174
▁गुप्त	-10.4183
▁उर्फ	-10.4189
▁N	-10.419
▁सपोर्ट	-10.4196
▁गणना	-10.4196
▁नकारात्मक	-10.4199
वल	-10.4205
▁प्रतिभा	-10.4207
▁बनती	-10.422
▁अनुवाद	-10.4221
▁कमर	-10.4225
▁खेलते	-10.4225
▁वस्तुओं	-10.4227
▁आतंकवादी	-10.4241
▁पूजन	-10.4246
▁कार्यकारी	-10.4247
▁भय	-10.4252
▁रफ्तार	-10.4258
▁आपस	-10.4259
▁देहरादून	-10.4265
▁आपदा	-10.4266
▁मछली	-10.4268
▁भावनाओं	-10.4269
▁करवाने	-10.427
▁जायेगी	-10.4271
▁अभाव	-10.4278
▁अजीब	-10.4278
▁फैशन	-10.4278
▁प्राधिकरण	-10.4283
▁छात्रा	-10.4286
▁जाम	-10.4289
रु	-10.4289
▁रोशनी	-10.429
▁पाना	-10.429
▁धवन	-10.4291
▁कमाल	-10.4295
▁त्रिपाठी	-10.4299
▁३	-10.43
▁मिलना	-10.4304
▁2007	-10.4304
N	-10.4305
बल	-10.4309
▁मासिक	-10.4309
▁करोड़ों	-10.4316
▁बेच	-10.4319
▁दोस्ती	-10.4329
▁स्वच्छ	-10.433
▁उपभोक्ता	-10.433
‍	-10.4331
-1	-10.4335
सबसे	-10.4336
▁सदर	-10.4338
▁सुभाष	-10.4338
▁रत्न	-10.4341
▁तरीकों	-10.4341
▁गहरा	-10.4343
▁सामूहिक	-10.4344
▁नाव	-10.4345
18	-10.4348
▁संपन्न	-10.4349
▁साइड	-10.4351
सो	-10.4357
वान	-10.436
:-	-10.4362
▁पौधे	-10.4369
▁गहरी	-10.4373
▁फैला	-10.4375
▁नो	-10.4382
▁सरदार	-10.4388
▁पैरों	-10.4392
▁आशीर्वाद	-10.4398
▁फर्क	-10.4401
▁इन्होंने	-10.4404
▁क्रिकेटर	-10.4406
समय	-10.4412
▁रिलायंस	-10.4412
▁आश्रम	-10.4414
▁दीवार	-10.4416
▁more	-10.4417
▁सर्वेक्षण	-10.4419
▁रेडियो	-10.4422
▁शोषण	-10.4427
▁दुर्गा	-10.4431
▁मैसेज	-10.4435
अपना	-10.4436
▁राजपूत	-10.4441
▁आयात	-10.4441
▁दोष	-10.4443
▁सालाना	-10.4444
पे	-10.4454
▁स्वभाव	-10.4455
▁सदस्यता	-10.4456
▁37	-10.4458
▁बचे	-10.4458
▁शुरूआत	-10.4458
▁ब्राह्मण	-10.446
▁शुक्ला	-10.4461
▁प्रकरण	-10.4465
▁घोटाले	-10.4468
▁प्रतिमा	-10.4473
▁प्लेटफॉर्म	-10.4473
▁कंगना	-10.4477
▁संस्थापक	-10.4484
▁चुने	-10.4493
▁दिक्कत	-10.4494
णे	-10.4496
▁अधिकारों	-10.4502
▁व्यावसायिक	-10.4504
▁तत्वों	-10.4508
▁पारित	-10.4512
▁भाग्य	-10.4512
▁सबूत	-10.452
▁ज़रूर	-10.4523
ियन	-10.4525
पुरा	-10.4526
▁भिन्न	-10.4529
▁स्टाफ	-10.4542
▁व्यस्त	-10.4542
दास	-10.4547
▁बेल	-10.4552
▁मोड़	-10.4555
▁निरंतर	-10.4557
▁फॉलो	-10.4557
▁गौर	-10.4568
▁हेड	-10.4584
▁पोल	-10.4592
▁भाषाओं	-10.4593
ंद	-10.4595
▁टीका	-10.4601
▁अज्ञात	-10.4608
▁टिप्स	-10.4612
▁श्रीमती	-10.4613
▁सकेगा	-10.4618
▁म्हणाले	-10.4621
▁तस्वीरों	-10.4623
▁गा	-10.4625
▁इसने	-10.4626
▁विद्या	-10.4629
▁द्वार	-10.4629
▁लाइट	-10.4632
गर	-10.4637
▁सहमत	-10.4643
▁दिले	-10.4645
▁नामांकन	-10.4647
▁मानक	-10.4651
▁यूरोपीय	-10.4652
▁आंतरिक	-10.4659
▁आर्यन	-10.4659
▁ऋषि	-10.466
शन	-10.4665
▁फैल	-10.4668
▁दत्त	-10.4669
▁समर्थक	-10.4677
▁ट्रेनिंग	-10.4679
▁इशारा	-10.468
▁सितम्बर	-10.4681
▁बिंदु	-10.4683
▁मंत्रियों	-10.4687
ष	-10.4687
▁भेजे	-10.4698
▁फाइल	-10.4712
▁क्रिया	-10.4713
V	-10.4723
▁त्यांच्या	-10.4726
▁देण्यात	-10.4731
▁लड़का	-10.4732
▁संस्थानों	-10.474
▁रू	-10.4741
▁मिश्रण	-10.4742
▁₹	-10.4746
▁जीवित	-10.4747
▁पदाधिकारी	-10.4747
▁प्रयासों	-10.475
▁प्रा	-10.4755
▁म्हणून	-10.4755
▁चोर	-10.4758
▁पब्लिक	-10.4781
▁ज़मीन	-10.4792
▁विवेक	-10.4794
▁42	-10.4798
▁मैन	-10.4799
▁निकट	-10.48
त्व	-10.4802
दे	-10.4805
▁मागणी	-10.4805
▁जेटली	-10.481
▁घटकर	-10.4815
▁वा	-10.4815
▁प्राथमिकता	-10.4821
▁मजा	-10.4827
▁महल	-10.4831
▁घूमने	-10.4843
▁त्यांना	-10.4845
▁आधी	-10.485
▁स्थिर	-10.4852
▁बैंकिंग	-10.4859
.6	-10.486
▁लायक	-10.4886
▁ठोस	-10.4887
▁आधे	-10.4892
▁नृत्य	-10.4894
▁लेवल	-10.4897
▁मजदूरों	-10.4899
ेन	-10.4905
▁कलाकारों	-10.4906
दि	-10.4907
L	-10.4908
▁पाँच	-10.4917
ांचा	-10.4917
h	-10.4919
▁मोटर	-10.4924
▁बचत	-10.4926
▁कर्मियों	-10.4929
▁गु	-10.493
▁मच	-10.4931
▁52	-10.4933
▁दाल	-10.4935
▁इन्हीं	-10.4935
▁तार	-10.4935
▁शर्त	-10.4938
▁असल्याने	-10.4945
▁जाँच	-10.495
▁येणार	-10.4953
▁हिम्मत	-10.4954
▁चलेगा	-10.4969
▁पार्टनर	-10.497
▁उपकरणों	-10.4976
▁चंद	-10.4993
▁लिखते	-10.4996
कुल	-10.5002
▁करत	-10.5003
▁भक्त	-10.5004
▁महेंद्र	-10.5004
▁मुँह	-10.501
▁वीं	-10.501
▁ऑन	-10.5011
▁महोत्सव	-10.5018
▁X	-10.5019
▁अशा	-10.5029
▁गंभीरता	-10.5035
▁सोचते	-10.5041
▁गीता	-10.5042
चर	-10.505
▁चाह	-10.5051
▁गरम	-10.5051
मुख्यमंत्री	-10.5051
हार	-10.5055
▁लीजिए	-10.5057
▁साथियों	-10.506
▁दलितों	-10.5061
▁प्लांट	-10.5063
▁चांदी	-10.5068
▁ऑ	-10.5071
▁नाक	-10.5072
▁हंगामा	-10.5075
हो	-10.5078
▁मुठभेड़	-10.508
▁पड़ोसी	-10.508
▁गाँधी	-10.5084
▁कामकाज	-10.5088
▁ठ	-10.5093
▁जानवरों	-10.5094
▁आचार्य	-10.5094
▁.3.	-10.5096
▁पारिवारिक	-10.5097
सू	-10.5097
▁सिख	-10.5099
▁यकीन	-10.5102
▁प्रारंभिक	-10.5109
▁प्रशांत	-10.511
▁जिलाधिकारी	-10.5112
▁मिस	-10.512
▁रोका	-10.5123
▁जॉन	-10.5129
▁आईं	-10.5135
▁संदीप	-10.5137
▁इंटर	-10.5138
▁उपयोगकर्ता	-10.5141
th	-10.5141
51	-10.5141
▁देरी	-10.5153
▁समस्याएं	-10.5154
िग	-10.5155
▁पाक	-10.5156
ऊ	-10.5174
▁एहसास	-10.5177
▁ऑल	-10.5177
वाले	-10.5182
R	-10.5186
करण	-10.5191
▁विचारधारा	-10.52
‘	-10.5206
ानी	-10.5208
▁टाइप	-10.5208
▁मानें	-10.521
▁समझना	-10.5212
▁अनुरूप	-10.5213
▁डेट	-10.5217
▁चमक	-10.5217
▁1000	-10.5218
▁भव्य	-10.5219
झ	-10.5228
▁मानने	-10.5229
▁निभा	-10.523
ात्मक	-10.523
▁स्पीड	-10.5232
▁खंड	-10.5237
▁लापरवाही	-10.5239
▁ता	-10.5244
भर	-10.5244
यां	-10.5247
▁चलिए	-10.5256
▁सिद्धार्थ	-10.5262
वत	-10.5266
▁बताए	-10.5273
▁जीने	-10.5284
19	-10.5285
▁बाप	-10.5287
▁भक्ति	-10.5291
▁जागरूकता	-10.5298
▁जाधव	-10.5299
▁function	-10.5302
▁देवता	-10.5317
▁हुसैन	-10.5319
▁गिरा	-10.5319
▁पृष्ठभूमि	-10.5322
ड़े	-10.5325
▁गोपाल	-10.5328
▁प्लस	-10.5333
▁तेरे	-10.5334
24	-10.5335
भा	-10.534
ख़बर	-10.5347
▁शनि	-10.5351
▁V	-10.5352
▁श्रद्धा	-10.5352
▁कमाने	-10.5355
▁कृपा	-10.536
▁जोरदार	-10.5361
ान	-10.5363
▁धूप	-10.5368
▁सुर	-10.5371
▁इच्छुक	-10.5372
▁प्रसन्न	-10.5373
मल	-10.5375
▁विक्रम	-10.5377
िये	-10.5379
▁लगाएं	-10.5388
▁कृष्णा	-10.5388
▁आकर्षण	-10.5388
▁अनुसूचित	-10.5395
▁हॉस्पिटल	-10.5397
▁कहकर	-10.54
▁43	-10.5406
▁भूकंप	-10.5406
▁खेली	-10.5411
▁कारवाई	-10.5413
दान	-10.5414
▁अदा	-10.5416
नाम	-10.5422
▁सऊदी	-10.5423
▁चुन	-10.5424
▁अवतार	-10.5429
▁पोषण	-10.5435
ंक	-10.5437
▁अपलोड	-10.544
▁शक्तिशाली	-10.544
▁चंडीगढ़	-10.544
▁मास	-10.5442
▁दरवाजे	-10.5447
▁पदार्थों	-10.5456
▁शेख	-10.5459
लर	-10.5463
▁दरम्यान	-10.5463
▁सोचने	-10.5469
▁51	-10.5471
प्रधानमंत्री	-10.5474
▁फुट	-10.5477
▁उतनी	-10.5479
▁साधन	-10.5484
▁पॉजिटिव	-10.5485
▁जरुरी	-10.549
▁नतीजे	-10.5494
▁अलर्ट	-10.5497
▁शीर्षक	-10.5504
फा	-10.5506
▁टेक	-10.5507
▁जुड़	-10.551
▁कृति	-10.5511
▁भेजें	-10.5514
▁मुखिया	-10.5515
▁लड़कियां	-10.5522
▁जड़	-10.5523
▁राजेंद्र	-10.5528
▁लकड़ी	-10.553
▁महेश	-10.5531
▁असलेल्या	-10.5536
▁आश्चर्य	-10.5548
▁सीखने	-10.555
▁संरचना	-10.5551
▁शिशु	-10.5555
▁ख़त्म	-10.5555
▁हवाले	-10.5558
▁बहु	-10.5561
तीन	-10.5564
▁एंट्री	-10.557
▁ड्यूटी	-10.5574
▁s	-10.5575
▁संदेह	-10.5588
▁रूपए	-10.5589
▁प्याज	-10.5601
▁H	-10.5604
▁अल्लाह	-10.5605
▁गरीबों	-10.5605
▁यूनियन	-10.5605
▁कालेज	-10.5607
▁लघु	-10.5614
▁जरा	-10.5619
▁विशेषज्ञों	-10.5624
बड़े	-10.5627
▁ज्योतिष	-10.5631
▁जोड़े	-10.5638
▁??	-10.5638
▁चुप	-10.564
▁अफसर	-10.5651
▁सीईओ	-10.5653
▁घड़ी	-10.5657
▁रोजी	-10.5658
▁पुनः	-10.5667
▁मीटिंग	-10.5672
ण्ड	-10.5677
▁मकसद	-10.5677
g	-10.5677
▁पीछा	-10.5678
▁मेले	-10.568
▁मनमोहन	-10.5681
ातून	-10.5684
▁मैने	-10.5687
▁वैज्ञानिकों	-10.5692
▁पो	-10.5692
▁उन्होने	-10.5694
▁हमसे	-10.5697
▁गुजर	-10.57
▁आस्था	-10.57
்	-10.5713
▁गत	-10.5714
पंजाब	-10.5715
▁निरीक्षक	-10.5717
▁मुखर्जी	-10.5718
▁स्टील	-10.5723
कम	-10.573
▁हीरो	-10.5733
▁दर्जा	-10.5746
▁बर	-10.5746
▁’’	-10.5748
▁शास्त्री	-10.5749
ेगी	-10.575
▁पहाड़	-10.5754
उत्तराखंड	-10.5754
▁मल	-10.5756
▁नीतियों	-10.5758
लिंग	-10.5758
▁प्रतिष्ठित	-10.5761
▁प्ले	-10.5761
▁बताती	-10.5762
▁सलाहकार	-10.5763
▁वाई	-10.5773
▁लॉ	-10.5781
गत	-10.5786
▁साक्षात्कार	-10.5797
▁ट्रस्ट	-10.5798
▁39	-10.5803
=	-10.5804
कोई	-10.5809
▁जागरण	-10.5818
▁हि	-10.5819
▁बैठकर	-10.5822
▁संचालक	-10.5822
▁लीक	-10.5827
▁भौतिक	-10.5828
▁झील	-10.5829
▁गेल्या	-10.5832
▁रुक	-10.5835
▁मजबूती	-10.5839
▁कै	-10.5853
▁ओम	-10.5854
▁400	-10.5858
▁बेड	-10.5862
र्	-10.5866
▁हरि	-10.5867
▁बह	-10.5867
▁मैनेजर	-10.5871
▁चि	-10.5874
▁बुद्ध	-10.5876
▁पैनल	-10.5876
▁खैर	-10.5877
▁अखिल	-10.5878
▁सतह	-10.5879
▁किंतु	-10.5889
▁कच्चे	-10.5896
▁मुहूर्त	-10.5898
▁हड़ताल	-10.5899
▁गर्भवती	-10.5899
▁छुटकारा	-10.59
▁स्वच्छता	-10.5901
▁प्रशंसा	-10.5903
ीत	-10.5907
ॅ	-10.5911
▁अत	-10.5913
▁ख़ुद	-10.5916
▁साइकिल	-10.5919
GB	-10.5922
▁ज़िले	-10.5927
जवाब	-10.5935
▁गरीबी	-10.5937
▁इमारत	-10.5945
▁इलेक्ट्रिक	-10.595
▁कन्या	-10.5955
कारी	-10.5956
▁चिकित्सक	-10.5956
▁अपर	-10.596
▁परियोजनाओं	-10.5961
कांग्रेस	-10.5963
ौ	-10.5967
▁जाएंगी	-10.5971
▁इंजीनियर	-10.5972
▁करेंगी	-10.5972
▁रोटी	-10.598
▁अस्पतालों	-10.5983
▁पांडेय	-10.5987
▁तेजस्वी	-10.5994
▁अकादमी	-10.5995
▁डिज़ाइन	-10.6003
▁गणित	-10.6004
▁बलों	-10.6004
▁पि	-10.6005
12	-10.6005
▁हादसा	-10.6009
▁राष्ट्रवादी	-10.6009
▁सब्जी	-10.6011
▁नाथ	-10.602
▁पहने	-10.602
रात	-10.6024
▁44	-10.6027
▁प्रत्यक्ष	-10.603
▁ऊ	-10.6032
▁साझेदारी	-10.6036
▁कैद	-10.6045
▁द्वीप	-10.6052
▁W	-10.6052
सि	-10.6053
▁सौंप	-10.6058
▁जरुरत	-10.606
15	-10.6062
एच	-10.6064
▁निर्देशन	-10.6068
▁सांसदों	-10.607
िनी	-10.6071
▁सेटिंग्स	-10.6081
▁मनोहर	-10.6089
िस्ट	-10.6091
▁हिस्सेदारी	-10.6092
▁सोनी	-10.6093
▁बढ़िया	-10.6098
▁त्याग	-10.6103
▁प्रांत	-10.6106
▁बनते	-10.6107
▁यूं	-10.6109
जल	-10.6114
▁दुष्कर्म	-10.612
▁आरंभ	-10.612
▁मेकअप	-10.6123
▁गिरने	-10.6126
▁काटने	-10.613
▁शेट्टी	-10.6132
▁ड्रेस	-10.6132
▁भगत	-10.6134
▁दीपावली	-10.6137
▁प्री	-10.6146
▁रूट	-10.6148
‍ि	-10.6151
▁अन्ना	-10.6151
▁अपराधियों	-10.6156
▁जूनियर	-10.6158
▁शून्य	-10.6159
▁फीट	-10.6161
सभी	-10.6169
▁वेस्टइंडीज	-10.617
▁पाती	-10.6174
▁स्नातक	-10.6175
▁तालाब	-10.6175
पुलिस	-10.6178
on	-10.6179
▁संदिग्ध	-10.618
▁पथ	-10.618
▁बादल	-10.618
▁टेबल	-10.6181
.“	-10.6183
▁रूसी	-10.6185
▁धाम	-10.6188
▁डाली	-10.6189
▁महंगा	-10.6193
▁पैक	-10.6198
▁कहें	-10.6202
▁नायक	-10.6203
▁सिद्धू	-10.6204
▁कारोबारी	-10.6209
▁खोला	-10.6211
▁घेऊन	-10.6211
▁बिन	-10.6216
विदेश	-10.6216
▁जॉब	-10.6217
▁आखिरकार	-10.6219
▁तालिबान	-10.6219
▁तेरी	-10.622
▁बरकरार	-10.6221
▁बहादुर	-10.6222
▁धो	-10.6225
▁फिल्‍म	-10.6225
▁जीबी	-10.6226
▁पूछ	-10.6226
▁वंचित	-10.6231
▁बर्बाद	-10.6235
▁मस्तिष्क	-10.6235
▁56	-10.6237
▁एशियाई	-10.6239
▁एसिड	-10.624
▁खुली	-10.624
▁प्रोडक्ट	-10.6241
▁गोद	-10.6242
▁तुलसी	-10.6244
27	-10.6244
▁रिश्तों	-10.6244
▁ग्लोबल	-10.6245
▁आलू	-10.6245
▁रहकर	-10.6253
▁एड	-10.626
▁47	-10.6264
▁निवेशकों	-10.6272
▁वरुण	-10.6272
▁सनी	-10.6276
मेरी	-10.6277
▁मेरठ	-10.628
▁10.	-10.6282
▁सेंसर	-10.6283
▁पूंजी	-10.6285
ेंट	-10.6287
30	-10.6288
▁निकली	-10.629
▁कब्जे	-10.6291
▁रोगी	-10.6293
▁स्वर	-10.6293
▁हॉल	-10.6298
▁L	-10.6298
▁सुविधाएं	-10.6299
▁अनाज	-10.6301
▁मात	-10.6303
गु	-10.6307
▁प्रवाह	-10.6308
-3	-10.631
▁कॉपी	-10.631
▁बुखार	-10.6315
▁ऑडियो	-10.6315
▁भागीदारी	-10.6318
▁जिसको	-10.6322
▁कमेंट	-10.6323
▁64	-10.6325
▁फुटबॉल	-10.6327
▁मराठी	-10.6328
ेन्द्र	-10.633
▁डिस्प्ले	-10.6333
▁ख़बरें	-10.6333
▁अपमान	-10.6335
▁चरणों	-10.634
▁वारदात	-10.6341
▁हट	-10.6344
▁रोशन	-10.6346
▁सिंचाई	-10.6347
▁प्रसारण	-10.6354
्ट	-10.6359
▁आसमान	-10.636
▁दीदी	-10.6361
▁बताता	-10.6363
▁सियासी	-10.6369
▁नशे	-10.637
▁ज़िंदगी	-10.6371
शेयर	-10.6373
▁ठंड	-10.6379
▁पर्वत	-10.638
▁पाठकों	-10.6383
▁चौथी	-10.6387
▁बैक	-10.639
▁रजिस्ट्रेशन	-10.6394
▁जि	-10.6394
▁दक्षिणी	-10.6396
▁भारतीयों	-10.6408
▁पेशेवर	-10.6409
▁फूड	-10.6415
▁बैठी	-10.6417
▁दिखता	-10.6417
टो	-10.6418
्‍	-10.642
▁फेंक	-10.6423
▁हराया	-10.6424
▁आईसीसी	-10.6424
▁पंच	-10.6425
टेक	-10.6428
▁दिलीप	-10.6429
णा	-10.643
▁संवेदनशील	-10.6435
▁महाविद्यालय	-10.644
प्रश्न	-10.6444
▁प्रदीप	-10.6448
▁उच्चतम	-10.6448
▁सार	-10.645
हालांकि	-10.6451
▁लैपटॉप	-10.6451
▁एपिसोड	-10.6454
▁वेरिएंट	-10.6461
▁रावण	-10.6462
▁पायलट	-10.6462
▁जिंदा	-10.647
▁ब्लू	-10.6471
कई	-10.6472
▁दवाओं	-10.6476
▁उपचुनाव	-10.6477
▁आरएसएस	-10.6477
डो	-10.6479
▁अनुपात	-10.6486
▁इं	-10.6494
▁डीएम	-10.6495
▁आलोक	-10.6496
▁बनाती	-10.6513
▁छाया	-10.6518
▁बढ़ाकर	-10.652
▁दावे	-10.6523
▁}.	-10.6524
▁साधना	-10.6528
▁ज्ञात	-10.6531
▁फायर	-10.6532
▁मतदाता	-10.6533
कर्ता	-10.6533
▁अपराधी	-10.6535
▁पु	-10.6542
▁चैट	-10.6544
▁अन्यथा	-10.6545
▁निकाली	-10.6546
चुनाव	-10.655
▁सेंट्रल	-10.6552
▁ज़िला	-10.6561
▁हरे	-10.657
▁ढ	-10.6572
▁पहनने	-10.6578
अभी	-10.6587
▁[	-10.6588
वीर	-10.6591
▁कैप्टन	-10.6592
▁गोयल	-10.6592
▁निचले	-10.6594
▁कठोर	-10.6595
लोक	-10.6595
▁थोड़े	-10.6599
▁पश्चात	-10.66
▁सुन्दर	-10.6603
▁गारंटी	-10.661
21	-10.6612
▁तरफ़	-10.6623
▁पाठ्यक्रम	-10.6627
▁बाजारों	-10.6628
▁पुन	-10.6629
▁शिमला	-10.6634
▁एग्जाम	-10.6638
▁गहराई	-10.6641
ाव	-10.6643
▁संहिता	-10.6645
▁अंडर	-10.6651
▁निधि	-10.6651
क्ष	-10.6653
▁घट	-10.6658
▁धातु	-10.6659
▁11.	-10.6663
▁अवार्ड	-10.6666
▁सम्पूर्ण	-10.6666
▁राजनैतिक	-10.6667
▁घूम	-10.6672
▁बिल्ली	-10.6678
▁बुजुर्ग	-10.668
▁पहाड़ी	-10.6683
▁चपेट	-10.6687
▁by	-10.669
▁मुहैया	-10.6692
▁स्तरीय	-10.6696
▁राणा	-10.6697
▁साड़ी	-10.6699
▁नारे	-10.6709
▁कीमतें	-10.6711
▁ब्रेक	-10.6711
▁दरवाजा	-10.6716
▁देखो	-10.6718
▁सर्जरी	-10.6718
▁सिम	-10.6719
▁करीबी	-10.672
▁हस्तक्षेप	-10.6721
▁जहाज	-10.6722
▁पोलिसांनी	-10.6725
▁सटीक	-10.6729
मुख्य	-10.6729
▁समृद्ध	-10.673
▁बदमाशों	-10.6733
▁सिफारिश	-10.6735
▁कोतवाली	-10.6737
▁अनुच्छेद	-10.6739
▁श्रद्धांजलि	-10.6741
▁ट्रांसफर	-10.6742
▁भला	-10.6742
▁बताना	-10.6744
▁फार्म	-10.6747
▁संतान	-10.6752
▁सावधानी	-10.6759
▁साम्राज्य	-10.6769
▁आईडी	-10.6772
▁विवादित	-10.6778
▁मेला	-10.6782
▁प्रसार	-10.6783
▁गांड	-10.6784
▁इतर	-10.6786
▁किले	-10.6789
▁छठ	-10.6789
▁अब्दुल	-10.6791
▁फ्रंट	-10.6797
▁शुक्ल	-10.68
▁हार्ट	-10.6806
▁41	-10.6808
यर	-10.6808
▁खाद	-10.6808
▁अंश	-10.6809
▁मित्रों	-10.681
▁डाले	-10.6811
▁कौर	-10.6817
▁नाबालिग	-10.6825
▁अकबर	-10.6828
▁परि	-10.6828
टन	-10.6833
▁हल्का	-10.6834
▁आदी	-10.684
.8	-10.6843
▁तोड़ने	-10.6843
▁कान	-10.6844
▁पैन	-10.6847
▁एफआईआर	-10.6854
ढ	-10.6854
▁फाउंडेशन	-10.6862
ल्या	-10.6864
▁उदय	-10.6867
▁विभागों	-10.687
▁भार	-10.6872
▁49	-10.6872
▁बौद्ध	-10.6875
▁शोर	-10.6879
▁पैकेज	-10.6881
▁मम्मी	-10.6881
▁जुर्माना	-10.6882
▁a	-10.6882
आपके	-10.6882
धन	-10.6884
न्स	-10.6889
▁कराना	-10.6893
▁साइंस	-10.6893
▁झालेल्या	-10.6894
▁समूहों	-10.6896
▁दायरे	-10.6898
▁विरासत	-10.6901
▁खुराक	-10.6912
िय	-10.6917
▁बु	-10.6918
▁जब्त	-10.6927
▁निभाई	-10.6935
▁अभि	-10.6944
▁सेल्सियस	-10.6946
▁फायरिंग	-10.6955
▁संस्थाओं	-10.6958
▁जीतकर	-10.6959
▁चैनलों	-10.6967
▁पण	-10.6968
मर	-10.6969
मि	-10.6971
हु	-10.6976
▁आश्वासन	-10.6979
▁01	-10.6981
्‍स	-10.6981
तर	-10.6983
▁एटीएम	-10.6988
▁किराए	-10.6991
▁युक्त	-10.6993
▁आपसी	-10.6994
▁मैक	-10.6994
▁मद्देनजर	-10.6996
▁अंबानी	-10.6996
▁व्याख्या	-10.7001
▁रिकॉर्डिंग	-10.7001
▁नर	-10.701
▁हल्के	-10.701
▁दशकों	-10.7015
▁एकल	-10.7016
▁लेन	-10.7017
▁फेस	-10.7017
घ	-10.702
▁".	-10.7023
पति	-10.7027
▁एकत्र	-10.7027
▁रणवीर	-10.7029
▁अहमदाबाद	-10.7031
▁नीरज	-10.7031
X	-10.7032
▁ठंडा	-10.7036
▁मामूली	-10.7039
▁बिस्तर	-10.7043
लैंड	-10.7045
▁प्रारूप	-10.7046
26	-10.7046
▁खोजने	-10.7056
टू	-10.706
▁46	-10.7063
▁लिहाज	-10.7065
▁रोचक	-10.7068
▁आईटी	-10.7068
▁पहन	-10.707
▁72	-10.7071
▁सुशील	-10.7072
▁शा	-10.7074
▁भेंट	-10.7074
▁दा	-10.7076
▁पाएं	-10.7076
▁बोल्ड	-10.7081
स्वास्थ्य	-10.7081
▁दिल्‍ली	-10.7087
▁बोझ	-10.7087
ुल	-10.709
▁रिटर्न	-10.709
▁रैंकिंग	-10.7091
▁जागरूक	-10.7094
▁टेक्नोलॉजी	-10.7095
▁मील	-10.7104
▁उजागर	-10.7106
ीन	-10.7108
वाई	-10.7108
लि	-10.7111
्त	-10.7113
▁संतुष्ट	-10.7114
▁काव्य	-10.7114
▁सम्बंधित	-10.7117
▁रिकार्ड	-10.712
▁स्कीम	-10.712
▁जताया	-10.7122
▁तमिल	-10.7122
▁इंडेक्स	-10.7123
▁प्रबंध	-10.7126
▁ॉ	-10.7127
▁दुश्मन	-10.7127
ंब	-10.7129
▁रिलीज़	-10.713
▁आमदार	-10.7138
▁अनुदान	-10.7142
▁साइन	-10.7144
▁आंख	-10.7146
ंडा	-10.7146
▁सिलसिला	-10.7147
▁मजाक	-10.7148
▁एचडी	-10.7149
▁स्वाभाविक	-10.7149
▁निर्देशित	-10.715
▁लिखकर	-10.7153
▁काँग्रेस	-10.7155
▁देनी	-10.7156
▁मार्गदर्शन	-10.7157
▁शीघ्र	-10.7158
▁घी	-10.7162
▁क्राइम	-10.7163
▁दंड	-10.7163
▁फीसद	-10.7165
▁श्याम	-10.7167
50	-10.7171
▁पाप	-10.7172
▁सुनते	-10.7173
▁पहुंचाया	-10.7177
▁रोगों	-10.7189
ल्स	-10.7191
मेल	-10.7192
▁समर्थकों	-10.7194
▁जुट	-10.7196
दिन	-10.7197
▁सीरियल	-10.7197
▁ड्राइव	-10.7197
चरण	-10.7199
▁कबीर	-10.72
▁शहद	-10.7201
मीडिया	-10.7201
▁दुबे	-10.7201
था	-10.7204
▁किस्म	-10.7205
▁पकड़े	-10.721
▁चाहें	-10.7211
ाबाद	-10.7212
▁नतीजा	-10.7212
▁पैसों	-10.7214
▁दुबई	-10.7215
▁कम्पनी	-10.7217
हां	-10.7217
▁मूल्यांकन	-10.7218
िता	-10.7219
▁ट्रेड	-10.7219
▁पंकज	-10.722
▁राजनाथ	-10.7221
▁शोक	-10.7221
▁सेकंड	-10.7222
▁जानवर	-10.7229
▁प्रिंट	-10.723
जीवन	-10.7236
▁ध्वनि	-10.7237
▁आदित्य	-10.7238
▁».	-10.7239
▁विभाजन	-10.724
▁उत्तम	-10.7243
॰	-10.7245
ंची	-10.7247
▁.4.	-10.7248
▁बुद्धि	-10.7249
▁प्रोत्साहित	-10.725
▁कुलपति	-10.7251
▁त्यौहार	-10.7251
▁पकड़ने	-10.7252
▁Read	-10.7254
ऐसे	-10.7254
▁मेहता	-10.726
▁जश्न	-10.7269
▁बहाने	-10.7272
लू	-10.7276
इसी	-10.7277
▁विस्फोट	-10.7278
▁वैसा	-10.7278
▁सस्ता	-10.728
रूप	-10.7281
▁उत्कृष्ट	-10.7282
▁ऑयल	-10.7283
▁उपहार	-10.7284
▁कमीशन	-10.7287
▁संभाल	-10.7287
योग	-10.729
▁इकट्ठा	-10.7293
▁अधीन	-10.7293
▁मार्केटिंग	-10.7296
▁उत्पीड़न	-10.7301
र्ट	-10.7305
ंच	-10.7308
▁तेज़	-10.7312
▁दर्जन	-10.7312
▁रात्रि	-10.7312
मध्य	-10.7313
राजस्थान	-10.7314
▁मैनेजमेंट	-10.7316
▁मांस	-10.7317
▁कोटी	-10.7317
▁पंत	-10.732
▁विशेषता	-10.7321
▁नाइट	-10.7321
▁कुत्ते	-10.7327
am	-10.7331
▁आशीष	-10.7333
▁त्यानंतर	-10.7334
छत्तीसगढ़	-10.7348
▁लांच	-10.735
▁घुस	-10.735
यी	-10.7352
▁शुभकामनाएं	-10.7358
▁बेस	-10.7358
अधिक	-10.7361
▁ईंधन	-10.7363
▁एनडीए	-10.7363
▁घटनाएं	-10.7367
▁अमरीकी	-10.7368
▁आर्मी	-10.7375
▁अभिव्यक्ति	-10.7375
>	-10.7381
▁प्रबंधक	-10.7382
▁एकड़	-10.7384
▁अपहरण	-10.7386
भाजपा	-10.7389
▁क़ानून	-10.739
▁सराहना	-10.7392
▁पड़ेगी	-10.7394
भाव	-10.7398
▁मायने	-10.7399
▁कैंप	-10.7402
▁मंत्रिमंडल	-10.7406
हरियाणा	-10.7406
▁नक्सलियों	-10.7408
▁शिवाजी	-10.7412
▁संवाददाता	-10.7418
▁श्रीनगर	-10.7423
11	-10.7428
▁2006	-10.7429
▁J	-10.7435
▁वंश	-10.7436
▁दादा	-10.7437
जीत	-10.7437
▁हवाला	-10.744
ाया	-10.7443
it	-10.7445
▁अधिसूचना	-10.7445
▁तेलंगाना	-10.7448
."	-10.7449
▁बीबीसी	-10.745
िव	-10.7455
▁चु	-10.7456
▁शासक	-10.7456
▁गाइड	-10.7457
▁ठिकाणी	-10.746
▁प्रचलित	-10.7462
▁भास्कर	-10.7467
▁डिप्टी	-10.7472
▁अंग्रेजों	-10.7475
▁पहलू	-10.7479
▁एक्टिव	-10.7481
▁किन	-10.7483
▁जिम	-10.7485
▁शास्त्र	-10.7485
▁संजीव	-10.7486
▁हसन	-10.7489
▁पंप	-10.749
िटी	-10.7493
▁बीसीसीआई	-10.7495
.7	-10.7495
▁ति	-10.7497
▁हॉकी	-10.7501
▁पिटाई	-10.7507
▁पॉलिसी	-10.7509
मत	-10.7512
▁मेडल	-10.752
▁आन्दोलन	-10.7526
▁साधा	-10.7527
▁मानता	-10.7529
▁उर्दू	-10.7531
▁उपलब्धि	-10.7535
▁जिनसे	-10.7544
▁चन्द्र	-10.7546
्‍य	-10.7546
▁मुख	-10.7549
▁आयकर	-10.7562
उस	-10.7563
▁व्यापारियों	-10.7566
▁54	-10.7567
▁मंदिरों	-10.7567
U	-10.7571
▁जाएँ	-10.7572
वाली	-10.7577
▁दिखे	-10.7578
▁ट्रैफिक	-10.7578
▁तरी	-10.7584
▁दांव	-10.7585
▁पैदल	-10.7586
▁दफ्तर	-10.7589
लिया	-10.7591
स्त	-10.7592
▁2005	-10.7593
▁उपयोगकर्ताओं	-10.7599
▁तुम्हारा	-10.7601
▁डाॅ	-10.7606
▁शिंदे	-10.7614
▁दुकानों	-10.7619
▁भोग	-10.7621
J	-10.7623
▁सेंट	-10.7624
▁हंस	-10.7627
▁शैक्षणिक	-10.7633
▁देह	-10.7635
▁गुलाब	-10.7638
▁पढ़ते	-10.7638
▁मानो	-10.7639
िट	-10.7641
▁क्षण	-10.7642
▁ऑर्डर	-10.7645
▁डाक	-10.7648
हीन	-10.7653
▁लिखना	-10.7656
▁फूलों	-10.7657
▁आत्मविश्वास	-10.7658
▁सब्सिडी	-10.7665
▁प्रस्तावित	-10.7666
▁58	-10.7667
▁लौटने	-10.767
▁निलंबित	-10.7671
▁राजद	-10.7674
▁मोर	-10.7676
▁बैठने	-10.7676
▁किस्मत	-10.769
▁f	-10.769
▁सर्दी	-10.7691
▁2004	-10.7694
▁बाधा	-10.7698
▁शुभारंभ	-10.7704
▁नेट	-10.7707
▁उपाध्याय	-10.7707
है	-10.7707
▁अनुष्का	-10.7713
▁Hindi	-10.7714
▁शि	-10.7715
▁टुकड़े	-10.772
▁डेविड	-10.772
१	-10.772
▁कराए	-10.7721
ly	-10.7721
▁काबू	-10.7723
▁pm	-10.7725
▁मारकर	-10.7732
▁पद्धति	-10.7732
▁फीचर्स	-10.7733
▁व्यायाम	-10.7734
▁बालक	-10.7737
यहां	-10.7737
▁जरुर	-10.7743
▁53	-10.7743
▁बनेगा	-10.7747
16	-10.7749
▁जटिल	-10.7749
▁बर्फ	-10.7751
▁गुस्से	-10.7752
▁पाच	-10.7753
▁कुशल	-10.7754
▁चढ़	-10.7754
▁दोनो	-10.7756
▁आभार	-10.7759
▁छोड़ा	-10.776
▁धरना	-10.776
बॉलीवुड	-10.7762
▁पौधों	-10.7764
▁माध्यमिक	-10.7765
▁चांद	-10.7768
▁स्पोर्ट्स	-10.7771
▁दीजिए	-10.7772
▁केंद्रों	-10.7775
▁ओडिशा	-10.7775
▁रहस्य	-10.7782
▁कमान	-10.7783
▁दिखाते	-10.7788
▁युवकों	-10.7794
▁अल्पसंख्यक	-10.7794
▁रेस	-10.7796
जर	-10.7796
▁गठित	-10.7796
▁वरना	-10.78
▁पूर्णिमा	-10.78
▁सुर्खियों	-10.78
ज़ा	-10.78
▁अमृत	-10.7801
▁वॉलपेपर	-10.7806
▁सूजन	-10.7807
▁उठाते	-10.7809
▁तल	-10.781
▁पंजीकृत	-10.7819
▁मौजूदगी	-10.7826
▁इसलिये	-10.7829
▁ज़िन्दगी	-10.7829
▁तूफान	-10.7834
▁भेदभाव	-10.7838
▁न्यूयॉर्क	-10.7842
an	-10.7844
▁दर्शाता	-10.7848
▁इंस्टीट्यूट	-10.7849
▁खनन	-10.7855
▁धोखा	-10.7859
▁उड़	-10.7861
ट्स	-10.7865
▁सूरत	-10.7876
▁पीसी	-10.7877
▁सबका	-10.7878
▁प्रीमियम	-10.788
▁रॉय	-10.7884
▁विंडोज	-10.7889
▁जेब	-10.7893
▁औरत	-10.7895
▁पैटर्न	-10.7901
▁भीषण	-10.7903
▁कनाडा	-10.7905
▁कुर्सी	-10.7905
▁बंधन	-10.7906
▁Post	-10.7908
▁जूझ	-10.791
ाय	-10.7916
िम	-10.7926
▁निंदा	-10.7926
O	-10.7934
▁मतदाताओं	-10.7934
▁लड़कों	-10.7935
▁कक्ष	-10.7936
▁पोस्टमार्टम	-10.7939
▁नाकाम	-10.7948
▁गेहूं	-10.7948
लेट	-10.7948
▁शासकीय	-10.795
▁स्टोरेज	-10.7951
▁जर्मन	-10.7952
▁कलम	-10.7953
▁पक्षों	-10.7955
कू	-10.7962
or	-10.7965
▁हिल	-10.797
▁ज्ञापन	-10.7971
▁सीन	-10.7977
हाल	-10.7979
▁परिचित	-10.7981
▁बनाम	-10.7983
▁टीचर	-10.7987
▁लक्ष्मण	-10.7989
▁गौ	-10.7991
▁आक्रमण	-10.7991
▁सदा	-10.7993
▁रिपोर्ट्स	-10.7995
▁जु	-10.7996
कैसे	-10.7996
▁डिलीवरी	-10.7998
া	-10.7999
40	-10.8
▁सूचित	-10.8002
ंगी	-10.8003
▁लंबाई	-10.8008
▁बैंड	-10.8008
▁कैसी	-10.801
एफ	-10.8011
▁एका	-10.8015
▁निराश	-10.8016
''	-10.8017
▁भैया	-10.8019
▁नजदीक	-10.8019
पाकिस्तान	-10.802
▁ट्रॉफी	-10.8021
▁झलक	-10.8021
▁आरती	-10.8027
▁तकरीबन	-10.8027
▁पहुंचकर	-10.8029
▁कामना	-10.8031
▁आध्यात्मिक	-10.8032
▁ब्रह्म	-10.8033
▁कुलदीप	-10.8034
▁यातायात	-10.8035
▁एप्लीकेशन	-10.8041
▁मुझ	-10.8042
▁पर्दे	-10.8042
▁इटली	-10.805
▁आलम	-10.805
▁गहरे	-10.8054
नर	-10.8057
मार	-10.8061
▁देवेंद्र	-10.8062
▁उन्‍हें	-10.8062
▁रंगों	-10.8063
▁सावधान	-10.8071
▁शाही	-10.8077
▁भागों	-10.8078
▁हरकत	-10.8078
▁श्रीराम	-10.808
▁साइबर	-10.8082
▁हानि	-10.8085
डि	-10.8085
▁कामयाबी	-10.8086
▁स्टूडेंट्स	-10.8091
▁क्रीम	-10.8093
▁खरीदारी	-10.8095
ेंस	-10.8099
ठा	-10.81
▁स्पेस	-10.8104
▁अश्लील	-10.8105
70	-10.8107
▁मोह	-10.8117
▁59	-10.8118
▁शौचालय	-10.8119
▁शौक	-10.812
▁नाग	-10.8121
▁पंजाबी	-10.8126
मेरा	-10.8128
▁जोधपुर	-10.8128
्‍या	-10.8128
▁समुद्री	-10.8129
बो	-10.813
▁250	-10.8134
v	-10.8137
.10	-10.8137
▁57	-10.8138
▁पेस्ट	-10.814
▁न्यायमूर्ति	-10.8141
▁डबल	-10.8142
ri	-10.8146
▁अफसरों	-10.815
▁मनी	-10.8154
▁टेलीविजन	-10.8157
▁खुलकर	-10.8157
▁सभ्यता	-10.8159
▁स्वीकृति	-10.816
▁आर्य	-10.8171
▁सरस्वती	-10.8172
पो	-10.8174
▁फ़	-10.8181
▁पर्सनल	-10.8181
▁करण्यासाठी	-10.8183
▁रेंज	-10.8193
▁सतीश	-10.8194
▁आइ	-10.8194
▁श्रेय	-10.8195
▁पर्यटक	-10.8196
▁नारी	-10.8196
▁चाचा	-10.8202
▁राखी	-10.8205
’,	-10.821
▁गायक	-10.8211
▁ज़	-10.8214
▁सुनी	-10.8219
▁मार्क	-10.822
▁भाइयों	-10.822
▁झटके	-10.8221
▁पालिका	-10.8222
लाइन	-10.8223
▁रियल	-10.8226
▁चिंतित	-10.8226
▁ढाई	-10.8227
काम	-10.8228
▁रसोई	-10.8229
▁अरे	-10.823
▁पर्यटकों	-10.8232
मुळे	-10.8233
▁दर्शक	-10.8236
याँ	-10.8239
▁सिलेंडर	-10.8241
▁मह	-10.8244
▁मूल्यों	-10.8245
▁अवगत	-10.8247
▁काशी	-10.8247
▁रंजन	-10.8248
फल	-10.8251
▁उठाकर	-10.8253
▁बुरे	-10.8253
▁रोज़	-10.8256
▁बघेल	-10.8261
ंज	-10.8262
▁फिटनेस	-10.8269
ट्रेंडिंग	-10.8272
▁माजी	-10.8274
▁अव	-10.8277
▁नदियों	-10.8277
▁उमर	-10.8278
▁आलिया	-10.8281
▁गढ़वाल	-10.8281
जय	-10.8285
▁फंस	-10.8286
▁आर्ट	-10.8288
क़	-10.8294
▁12.	-10.8296
▁जग	-10.8297
2.	-10.8298
▁यश	-10.8302
▁आतंकवादियों	-10.8302
▁नारियल	-10.8304
▁कांड	-10.8308
▁रेटिंग	-10.8308
▁बॉर्डर	-10.8312
गण	-10.8314
▁गली	-10.8314
▁भूषण	-10.8321
▁’.	-10.8323
▁अड्डे	-10.8324
▁चंद्रमा	-10.8325
▁लोकप्रियता	-10.8331
▁खेलना	-10.8332
बाग	-10.8332
▁अनुराग	-10.8332
▁आपराधिक	-10.8334
▁किलोग्राम	-10.8334
▁विवादों	-10.8346
▁जीडीपी	-10.8349
▁कैच	-10.8351
60	-10.8352
▁वृक्ष	-10.8354
ुन	-10.8357
▁गुणों	-10.8361
▁फसलों	-10.8371
▁परामर्श	-10.8374
▁डेब्यू	-10.8375
गन	-10.8378
▁ऊपरी	-10.8379
▁पढ़ना	-10.8383
▁टाइगर	-10.8384
▁सौंदर्य	-10.8385
▁लापता	-10.8395
▁मानसून	-10.8396
▁कामों	-10.8399
▁गतिविधि	-10.8399
▁दीक्षित	-10.8406
▁परिणामस्वरूप	-10.8407
ैया	-10.8407
▁कैश	-10.8414
▁उसमे	-10.8414
▁एजेंसियों	-10.842
▁आह्वान	-10.8429
▁मजेदार	-10.843
▁उपभोक्ताओं	-10.8431
▁लाना	-10.8434
बता	-10.8436
▁बोनस	-10.844
▁ज़ोर	-10.8442
प्रदेश	-10.8449
▁इजाजत	-10.845
▁मासूम	-10.845
ांवर	-10.8451
▁बढ़े	-10.8453
▁प्रवासी	-10.8453
▁मांगने	-10.8454
▁मराठा	-10.8455
नहीं	-10.8455
▁O	-10.8456
▁स्थलों	-10.8461
▁बैन	-10.8462
▁प्रश्‍न	-10.8465
▁टीमें	-10.8469
▁पोषक	-10.847
▁आगमन	-10.8471
▁खूबसूरती	-10.848
25	-10.8482
▁साहस	-10.8484
▁वसूली	-10.8486
एक्स	-10.8486
99	-10.8486
▁बीस	-10.8491
▁कप्तानी	-10.8492
Next	-10.8492
.1.	-10.8493
▁प्राण	-10.8494
▁दुखी	-10.8495
▁गहलोत	-10.8497
▁नकली	-10.8498
ंनी	-10.8499
र्न	-10.8501
▁हाथी	-10.8503
▁एरिया	-10.8506
▁अंदाजा	-10.8509
▁मज़ा	-10.8512
कों	-10.8512
▁रोगियों	-10.8519
▁कपड़ों	-10.8521
▁जाणार	-10.8521
▁डोज	-10.8522
▁ट्रेनों	-10.8522
▁ट्रेडिंग	-10.8523
बाल	-10.8524
न्	-10.8528
▁५	-10.8533
▁तीर्थ	-10.8534
फोटो	-10.8535
▁व्हाट्सएप	-10.8539
▁फंसे	-10.8541
▁किंग	-10.8549
▁तुर्की	-10.8556
▁सपनों	-10.8557
▁धीमी	-10.856
▁मारी	-10.8569
▁भेद	-10.857
▁जानकर	-10.8571
पर्यंत	-10.8571
▁इंग्लिश	-10.8575
▁आपत्ति	-10.8576
▁दही	-10.858
▁85	-10.858
▁ब्रा	-10.8582
म्प	-10.8582
▁ईसाई	-10.8582
▁जानती	-10.8584
▁लौटे	-10.8588
मंत्री	-10.8589
पु	-10.8595
90	-10.8598
▁अंडे	-10.8602
▁मिमी	-10.8609
▁फैन	-10.8613
à	-10.8618
▁गाव	-10.8625
▁इनसे	-10.8627
▁रिकॉर्डर	-10.8629
▁माला	-10.8629
▁0%	-10.8629
▁प्रीमियर	-10.8629
▁मुनाफा	-10.8633
▁हलचल	-10.8633
फी	-10.8635
▁जोन	-10.8636
▁चलो	-10.8636
▁कहानियां	-10.8637
▁रैम	-10.8638
▁इवेंट	-10.8641
▁कैफ	-10.8648
▁खरीदा	-10.865
▁जुटी	-10.8652
अर	-10.8654
ol	-10.8655
▁गुरू	-10.8656
▁हमलों	-10.8659
▁सीता	-10.866
▁गैलरी	-10.8665
▁स्थगित	-10.8665
विश्व	-10.8666
▁बर्तन	-10.867
▁मांगा	-10.8676
▁सरपंच	-10.8677
▁मोठ्या	-10.8678
इससे	-10.8679
▁वेस्ट	-10.868
▁ग्वालियर	-10.8681
▁संसाधनों	-10.8684
पल	-10.8684
▁प्रतीत	-10.8688
▁दुःख	-10.8689
▁बस्ती	-10.8691
▁जोश	-10.8694
▁लेट	-10.8694
▁न्यायिक	-10.8695
▁म्यूजिक	-10.8698
▁संग्रहालय	-10.8699
17	-10.8701
z	-10.8702
▁पासवर्ड	-10.8706
▁उत्साहित	-10.8706
▁मथुरा	-10.8708
34	-10.8717
▁कारक	-10.8718
वय	-10.872
▁खेतों	-10.872
तून	-10.8722
▁दबा	-10.8726
ढ़	-10.8728
▁डेंगू	-10.8729
▁नेहा	-10.8729
▁दशा	-10.8731
▁परत	-10.8731
निक	-10.8731
▁ऊंची	-10.8736
▁करीना	-10.8739
▁अनुबंध	-10.8741
▁असताना	-10.8743
▁छापेमारी	-10.8743
स्थ	-10.8743
▁ईमानदारी	-10.875
Y	-10.875
जू	-10.8752
▁संतुलन	-10.8754
▁निभाने	-10.8754
वास	-10.8758
▁देखेंगे	-10.8758
▁l	-10.8759
▁असफल	-10.8766
▁कहानियों	-10.8766
▁विडियो	-10.877
▁गार्ड	-10.8771
▁सेमीफाइनल	-10.8774
▁प्रतिष्ठा	-10.8774
.9	-10.8775
▁डील	-10.8777
▁62	-10.8778
▁खातों	-10.878
▁पीड़ा	-10.878
0%	-10.8781
र्क	-10.8782
ंचा	-10.879
▁करूंगा	-10.8792
▁दरों	-10.8793
▁गृहमंत्री	-10.8796
▁बहू	-10.8799
विशेष	-10.8801
▁वाढ	-10.8807
▁प्रखंड	-10.8811
कला	-10.8812
निया	-10.8816
31	-10.8818
ुआ	-10.8822
ग्राम	-10.8826
▁किंग्स	-10.8827
▁आज़ादी	-10.8827
▁अनंत	-10.8828
57	-10.8833
▁वितरित	-10.8839
पद	-10.8839
▁बदलते	-10.884
▁जमाने	-10.8847
▁हेयर	-10.8847
ंना	-10.8848
शे	-10.885
▁क्रमश	-10.8851
▁पढ़ी	-10.886
▁महादेव	-10.8862
▁डाउन	-10.8864
▁अत्याचार	-10.8868
▁शरण	-10.887
▁याबाबत	-10.8871
वेल	-10.8877
▁सकल	-10.8885
▁चर्च	-10.8891
at	-10.8894
▁63	-10.8894
28	-10.8897
ळी	-10.8897
▁66	-10.8906
▁वर	-10.8907
▁कुंडली	-10.8909
▁चैंपियन	-10.8911
▁कमिश्नर	-10.8913
▁सध्या	-10.8915
ज़ी	-10.8922
▁स्थितियों	-10.8923
िड	-10.8925
▁वेद	-10.8925
▁सुपरस्टार	-10.8929
38	-10.893
▁इंस्पेक्टर	-10.893
▁मूड	-10.8932
▁सौंपा	-10.8932
▁एप्लिकेशन	-10.8934
es	-10.8936
▁प्रोत्साहन	-10.8939
▁हथियारों	-10.894
▁फेल	-10.8941
म्ब	-10.8941
▁सौर	-10.8942
▁परीक्षाओं	-10.8942
▁एंड्रॉयड	-10.8943
▁हरिद्वार	-10.8948
▁दुनियाभर	-10.895
पहले	-10.8953
▁कॉन्फ्रेंस	-10.8953
२	-10.8956
त्र	-10.8956
14	-10.8957
▁हितों	-10.896
▁हॉलीवुड	-10.8968
▁विविधता	-10.8971
▁मिसाइल	-10.8975
▁तृणमूल	-10.8976
▁बगैर	-10.8977
▁मंजूर	-10.898
▁अश्विन	-10.8981
पासून	-10.8983
▁अहसास	-10.8985
▁भेजी	-10.899
ंत	-10.8995
▁धूल	-10.8996
▁फैलाने	-10.8998
▁बगल	-10.8999
▁मंजिल	-10.9002
▁प्रभावशाली	-10.9003
रत	-10.9004
▁जादू	-10.9005
बड़ी	-10.9007
.#	-10.9008
बस	-10.9008
▁अटक	-10.9013
▁जापानी	-10.9014
▁चलना	-10.9014
▁शासित	-10.9019
▁छू	-10.9022
▁सुशांत	-10.9025
मिल	-10.9027
▁किताबें	-10.9028
▁गवर्नर	-10.9031
▁अर	-10.9032
▁सीधी	-10.9033
▁पूछने	-10.9034
▁समीर	-10.9034
▁टक्के	-10.9035
▁कैलाश	-10.9035
▁अगला	-10.9036
53	-10.9041
▁पेन	-10.9044
सरकार	-10.9051
▁डूब	-10.9051
▁प्रतीक्षा	-10.9055
▁कोयला	-10.9059
▁नक्सली	-10.9061
वहीं	-10.9066
▁उठाना	-10.9067
▁जला	-10.9068
ूर	-10.907
▁प्रमोशन	-10.9077
▁जाल	-10.9078
लिंक	-10.9078
▁व्यास	-10.9083
▁सास	-10.9086
▁हराकर	-10.9089
▁फोकस	-10.9091
▁नाराजगी	-10.9091
▁उन्नत	-10.9093
वानी	-10.9093
▁दरबार	-10.9093
▁व्हाइट	-10.9095
▁राउंड	-10.9097
▁कॉम	-10.9097
▁दाग	-10.9101
▁उपायुक्त	-10.9102
▁दीप	-10.9103
▁डालते	-10.9103
▁बीत	-10.9104
▁ती	-10.9105
▁कुमारी	-10.9108
▁बिलियन	-10.9108
▁त्वरित	-10.9111
▁प्लेट	-10.9114
▁लिहाजा	-10.9125
▁चर्चित	-10.9127
▁विफल	-10.9129
▁रोमांटिक	-10.9129
▁क्‍या	-10.9129
▁फ्लैट	-10.913
▁अगुवाई	-10.9133
▁हल्दी	-10.9135
▁फ़ाइल	-10.9141
▁इंकार	-10.9141
▁कष्ट	-10.9141
▁टेनिस	-10.9143
▁लॉक	-10.9144
▁जातियों	-10.9146
जिन	-10.9148
▁खरीदी	-10.9149
▁यमुना	-10.9152
▁हिंदुओं	-10.9152
▁आकलन	-10.9155
कै	-10.9157
▁अग्नि	-10.9158
▁नितिन	-10.9161
▁जोकि	-10.9168
▁४	-10.9169
▁नौसेना	-10.9171
स्टर	-10.9173
बि	-10.9176
▁ज्योति	-10.9179
▁हेक्टेयर	-10.9185
▁तीव्र	-10.9188
▁रमन	-10.9193
▁इजाफा	-10.9195
▁आंखें	-10.9196
▁120	-10.9202
▁लीजिये	-10.9205
▁उछाल	-10.9206
चंद	-10.9206
▁नम्बर	-10.9209
डर	-10.9209
▁ख़ान	-10.9209
▁खींच	-10.9211
▁सप्लाई	-10.9213
▁यामुळे	-10.9214
▁परिजन	-10.9214
धर	-10.9223
▁मस्ती	-10.9224
▁2002	-10.9224
▁मसले	-10.9224
▁ऑफिसर	-10.9226
▁1.5	-10.9227
▁अध्याय	-10.9228
वाडी	-10.9229
▁मोहब्बत	-10.9232
▁वैकल्पिक	-10.9232
▁बचें	-10.9232
पूर्वक	-10.9232
▁प्रवृत्ति	-10.9233
▁स्वर्ग	-10.9236
22	-10.9236
▁सहारे	-10.9237
ांग	-10.9238
▁लीड	-10.924
▁वाकई	-10.9241
▁वाक्य	-10.9241
▁am	-10.9244
पुरी	-10.9246
▁आदिवासियों	-10.9249
▁चेतना	-10.9252
▁महीना	-10.9258
▁परिभाषा	-10.9266
▁शुगर	-10.9268
▁मुताबिक़	-10.927
▁सूट	-10.9271
▁सेल्फी	-10.9273
▁ऐप्स	-10.9275
▁प्रतिबंधित	-10.9279
▁सस्ते	-10.9279
▁चुनने	-10.928
33	-10.928
▁टिक	-10.9282
▁इनको	-10.9286
पीएम	-10.9289
र्ड	-10.929
▁निक	-10.9291
▁पुष्प	-10.9293
▁१०	-10.9295
▁प्रवीण	-10.9297
▁article	-10.9298
▁गिरोह	-10.9298
▁परिस्थिति	-10.9301
यूपी	-10.9311
▁अंकित	-10.9311
▁तालुक्यातील	-10.9314
▁परम	-10.9315
▁विभाजित	-10.9315
तुम	-10.9317
▁गेम्स	-10.9317
▁नक्षत्र	-10.9319
▁अतीत	-10.9322
▁पागल	-10.9326
▁.1.	-10.9329
▁टमाटर	-10.933
▁ड्रग्स	-10.9332
ोस	-10.9334
▁to	-10.9335
▁चौके	-10.9335
▁काउंसिल	-10.9336
▁नाते	-10.934
32	-10.9344
जान	-10.9346
▁कुंभ	-10.9349
▁कोटा	-10.9353
▁कैलेंडर	-10.9363
▁गैंग	-10.9365
▁बारी	-10.9366
39	-10.9368
▁???	-10.9368
▁चूक	-10.9369
साल	-10.937
▁वोटों	-10.9373
▁सम्राट	-10.9376
▁सैफ	-10.9381
पि	-10.9382
▁सेमी	-10.9386
▁कागज	-10.9386
▁सहकारी	-10.9388
▁फाइबर	-10.9388
▁करवाई	-10.9391
▁प्रसारित	-10.9391
▁गिनती	-10.9392
▁पोर्ट	-10.9393
कौन	-10.9395
सब	-10.9396
▁स्टूडियो	-10.9398
कट	-10.9398
▁लम्बे	-10.9398
id	-10.9399
▁छा	-10.9399
36	-10.9402
▁370	-10.9406
▁संवैधानिक	-10.9408
▁साहिब	-10.9411
▁चलाते	-10.9412
▁मानवीय	-10.9415
▁निकाले	-10.9417
ळा	-10.9419
▁कर्तव्य	-10.9424
▁तलवार	-10.9425
▁जनजाति	-10.9426
▁यासाठी	-10.9428
▁स्मिथ	-10.943
▁माफ	-10.9431
▁एसी	-10.9435
▁पाये	-10.9439
▁आपल्या	-10.9446
भाई	-10.9447
ानंद	-10.9453
▁इंतजाम	-10.9455
▁दुल्हन	-10.9455
▁फडणवीस	-10.9456
▁निराशा	-10.9456
▁कं	-10.9459
पिछले	-10.946
▁नागपुर	-10.9462
ेंद्र	-10.9463
▁Q	-10.9464
▁तुमने	-10.9465
▁पहलुओं	-10.9469
पश्चिम	-10.9469
छोटे	-10.947
▁गर्दन	-10.9473
▁ढूंढ	-10.9475
जन्म	-10.9477
▁सैमसंग	-10.9478
ंच्या	-10.948
▁नींबू	-10.9481
▁समीप	-10.9481
▁बनारस	-10.9484
▁गिरकर	-10.9486
▁कोशिकाओं	-10.9488
▁रणबीर	-10.9492
▁बिल्डिंग	-10.9497
▁गुड	-10.9499
▁इंतज़ार	-10.9501
▁नं	-10.9502
▁फोर्स	-10.9502
▁वर्गों	-10.9502
▁जूते	-10.9505
▁आरम्भ	-10.9506
▁राजमार्ग	-10.9507
▁समापन	-10.951
▁मांगे	-10.9512
▁पेमेंट	-10.9512
▁सर्दियों	-10.9515
▁लाए	-10.9516
▁सिंगल	-10.9517
स्व	-10.9519
▁संशोधित	-10.9521
▁कोने	-10.9525
▁निबंध	-10.9525
▁शाहिद	-10.953
प्पा	-10.9532
▁छेद	-10.9534
▁छीन	-10.9535
▁देशमुख	-10.9536
कडून	-10.9536
▁बन्द	-10.9546
फिल्म	-10.955
▁लेनी	-10.955
▁बेरोजगारी	-10.955
धा	-10.9556
▁बोतल	-10.9557
हिंदी	-10.9559
▁एजेंट	-10.956
▁पुरी	-10.9562
▁डोनाल्ड	-10.9563
️	-10.9566
09	-10.9567
▁गिल	-10.9567
▁बेटियों	-10.957
हमें	-10.9578
▁आयुर्वेद	-10.9578
▁बेंगलुरु	-10.9579
▁राजू	-10.9579
▁तेरा	-10.9581
▁सीसीटीवी	-10.9585
भाषा	-10.9591
तम	-10.9591
▁समृद्धि	-10.9592
▁Twitter	-10.9593
▁इलेक्ट्रॉनिक	-10.9595
▁ससुराल	-10.9595
▁रामदेव	-10.9596
▁माइक्रो	-10.96
▁बहरहाल	-10.9603
▁गेंदबाजों	-10.9606
▁टैग	-10.9607
▁वाद	-10.9607
कोट	-10.961
▁नाबाद	-10.961
▁क्योकि	-10.9612
▁पान	-10.9613
▁सृजन	-10.9616
▁कैरियर	-10.9617
▁बॉल	-10.9624
35	-10.9625
37	-10.963
▁78	-10.9633
▁नफरत	-10.9639
▁स्पिनर	-10.964
el	-10.9644
▁किसे	-10.9657
▁त्रिपुरा	-10.9664
▁कथन	-10.9666
▁एम्स	-10.9666
▁उतरे	-10.9667
▁भ्रम	-10.9679
▁वचन	-10.9681
▁लोकल	-10.9681
▁चा	-10.9683
▁तिल	-10.9689
▁धारणा	-10.9689
▁सिलसिले	-10.969
▁कार्बन	-10.9692
मुंबई	-10.9695
▁सूक्ष्म	-10.9697
▁स्पीकर	-10.9699
▁बेकार	-10.97
▁गार्डन	-10.9703
▁निष्कर्ष	-10.9705
▁दया	-10.9706
86	-10.9706
▁भक्तों	-10.9712
▁फैन्स	-10.9713
▁हल्की	-10.9713
▁तारा	-10.9714
▁विकल्पों	-10.9714
▁भंग	-10.9715
▁टो	-10.9716
▁एकजुट	-10.9719
पार	-10.972
▁निकाय	-10.9723
52	-10.9723
▁घास	-10.9724
▁तेंदुलकर	-10.973
▁स्वराज	-10.9732
▁.5.	-10.9738
▁कस	-10.9738
▁सैलरी	-10.9739
#	-10.9741
▁जेएनयू	-10.9744
आपका	-10.9744
▁उतारा	-10.9746
▁पुर	-10.9747
▁पड़ते	-10.9747
▁गिरी	-10.9748
▁कारों	-10.9749
▁संयोजक	-10.9753
▁एक्टिंग	-10.9753
▁परिणामों	-10.9754
▁भंडार	-10.9755
▁आरोग्य	-10.9756
जिस	-10.9756
▁रॉयल	-10.9758
▁दिखती	-10.9759
चीन	-10.976
▁नैतिक	-10.9763
▁परेशानियों	-10.9764
▁६	-10.9764
▁2003	-10.9766
▁आंटी	-10.9767
▁पार्ट	-10.977
▁घेतली	-10.9771
▁सम्मिलित	-10.9772
▁अर्पित	-10.9777
62	-10.978
ौर	-10.9781
▁बीवी	-10.9782
शि	-10.9784
ंचे	-10.9785
▁मकर	-10.9785
▁सौदा	-10.9785
._	-10.9787
▁जन्मे	-10.9789
रस	-10.979
▁तले	-10.9793
▁स्टैंड	-10.9795
▁समग्र	-10.9796
▁अवधारणा	-10.9796
▁रैंक	-10.9797
▁सिपाही	-10.9801
▁AM	-10.9804
▁मददगार	-10.9806
▁निर्धारण	-10.9807
वै	-10.9812
▁समानता	-10.9819
ळे	-10.9819
▁कुमाऊँ	-10.9826
▁धक्का	-10.9828
आवाज	-10.9833
प्रति	-10.9836
▁एजुकेशन	-10.9837
▁सुषमा	-10.9837
▁क्रोध	-10.9839
▁100%	-10.984
▁घेतला	-10.9842
▁पासवान	-10.9845
्यु	-10.9852
▁शॉट	-10.9854
▁लैस	-10.9854
▁ख़ुशी	-10.9856
ंगे	-10.9856
▁वर्क	-10.9856
▁02	-10.9857
▁बेंच	-10.9859
▁चे	-10.9862
▁शूट	-10.9864
▁74	-10.987
▁ढांचे	-10.9872
▁मन्दिर	-10.9877
▁उठता	-10.9877
▁एमपी	-10.9878
▁गर्भ	-10.9878
▁बुध	-10.9879
▁अकेला	-10.9884
▁स्थानांतरित	-10.9884
भाग	-10.9884
▁स्वादिष्ट	-10.9886
▁मानवाधिकार	-10.9887
▁शरीफ	-10.9891
गल	-10.9891
▁अधिग्रहण	-10.9896
▁स्	-10.9896
▁श्रेष्ठ	-10.9898
13	-10.9899
▁आरबीआई	-10.9899
▁विनय	-10.991
मुक्त	-10.9914
▁लेनदेन	-10.9914
▁घटक	-10.9915
▁बाई	-10.9915
▁गढ़	-10.9918
▁दस्तावेजों	-10.9919
▁लोकतांत्रिक	-10.992
▁चलकर	-10.992
▁गला	-10.9923
▁रेत	-10.9933
ar	-10.9934
▁डो	-10.9937
▁स्ट्राइक	-10.9945
हू	-10.9945
▁ईरानी	-10.9946
▁रजिस्टर	-10.9946
▁सांप	-10.9947
▁मेन	-10.995
▁गुलाम	-10.9951
▁चैंपियनशिप	-10.9952
▁सोनू	-10.9955
▁शुक्र	-10.9956
▁बताएंगे	-10.9958
ुद्दीन	-10.996
ऐ	-10.9962
▁जोड़कर	-10.9963
▁कमजोरी	-10.9963
▁योजनाएं	-10.9964
▁सूखे	-10.9964
▁बैनर	-10.9966
▁उड़ा	-10.9968
लिन	-10.997
▁पाण्डेय	-10.9971
▁भयानक	-10.9974
▁विश्वसनीय	-10.9975
▁ऑफिशियल	-10.9977
▁सकाळी	-10.9977
बु	-10.9978
▁व्यय	-10.9983
▁कॉमेडी	-10.9985
▁छेड़छाड़	-10.9987
▁एकादशी	-10.9987
▁करीत	-10.9989
युक्त	-10.9993
▁पक्षी	-10.9998
▁बीएसई	-11.0003
गाव	-11.0003
▁आईएएस	-11.0005
तक	-11.0005
▁विदेशों	-11.0006
▁अमल	-11.0007
▁पाचन	-11.0007
▁राफेल	-11.0009
▁महानिदेशक	-11.0011
▁कैटरीना	-11.0012
▁कमलनाथ	-11.0014
▁बुकिंग	-11.0015
▁खपत	-11.0016
हिन्दी	-11.0018
▁घातक	-11.0022
▁अटैक	-11.0022
ऐसा	-11.0023
▁तु	-11.0024
▁बदमाश	-11.0025
ियर	-11.0034
▁दुर्लभ	-11.0035
▁हकीकत	-11.0047
▁बताएं	-11.0048
दीप	-11.0062
▁क्रिस	-11.0062
▁in	-11.0065
▁कॉलोनी	-11.0071
▁आतंक	-11.0071
▁रजत	-11.0071
▁तुझे	-11.0074
en	-11.0079
▁बहुजन	-11.0081
▁ाज्य	-11.0082
यहाँ	-11.0083
23	-11.0086
ur	-11.0087
.‘	-11.0088
▁छक्के	-11.0089
▁तकलीफ	-11.0091
▁प्रोसेसर	-11.0097
▁प्रश्नों	-11.0099
▁सबकुछ	-11.0105
▁नामों	-11.0105
▁गाड़ियों	-11.0106
▁उद्धव	-11.0107
माल	-11.0108
▁फेर	-11.0109
सम	-11.0113
▁पुन्हा	-11.0114
48	-11.0114
▁लेखकों	-11.0119
▁चरम	-11.012
▁शर्तों	-11.0122
▁समा	-11.0123
▁यांची	-11.0129
,000	-11.0132
75	-11.0136
▁मिनी	-11.0138
▁स्तन	-11.0146
▁उद्यान	-11.0148
▁चाकू	-11.0148
▁आडवाणी	-11.0154
▁ग्रंथ	-11.0155
▁उमेश	-11.0157
▁स्नेह	-11.0158
▁तैयारियों	-11.0161
97	-11.0164
▁रिक्त	-11.0168
▁कोण	-11.017
▁उन्हे	-11.0171
▁श्रीकृष्ण	-11.0173
▁सुरु	-11.0174
▁चौकी	-11.0176
घाट	-11.0178
आइ	-11.018
कॉम	-11.0181
नू	-11.0186
▁मेगापिक्सल	-11.0189
▁जबलपुर	-11.019
03	-11.0194
▁धार	-11.0197
ad	-11.02
▁निवडणूक	-11.0202
▁हरीश	-11.0205
▁त्रि	-11.0205
▁हिंसक	-11.0206
समाचार	-11.0213
▁76	-11.0216
▁मानसिकता	-11.0221
लखनऊ	-11.0226
▁छाप	-11.0233
us	-11.0241
▁टॉस	-11.0241
▁बलिया	-11.0248
▁लाश	-11.0253
29	-11.0257
▁अखबारों	-11.0258
▁आलेख	-11.0258
▁उपज	-11.0258
▁जुटे	-11.0259
▁अंसारी	-11.0259
▁App	-11.026
▁टोल	-11.0263
▁कॉफी	-11.027
▁सिंगापुर	-11.0271
▁जौहर	-11.0272
▁मिठाई	-11.0273
▁निभाया	-11.0273
▁बढ़ेगी	-11.0275
▁अनुभवी	-11.0277
▁प्रकल्प	-11.028
47	-11.0283
▁एडमिट	-11.0286
▁बेन	-11.0291
▁कोर	-11.0291
▁अजीत	-11.0293
▁जम	-11.0299
हमने	-11.0301
▁उठे	-11.0302
▁स्मारक	-11.0303
▁05	-11.0309
बाई	-11.031
▁मोटी	-11.0312
▁68	-11.0312
▁प्रथा	-11.0313
दिल	-11.0316
▁ग्राउंड	-11.0316
▁बल्लेबाजों	-11.0318
▁p	-11.0321
महा	-11.0325
▁सोचना	-11.0326
▁06	-11.0328
▁यु	-11.0329
▁जडेजा	-11.033
▁आफ	-11.0331
▁कूद	-11.0333
▁मानकर	-11.034
▁बरें	-11.0343
▁प्रारम्भ	-11.0345
▁सर्वर	-11.0346
▁चुनौतियों	-11.0346
शक्ति	-11.0349
',	-11.035
▁उपायों	-11.035
▁कारगर	-11.035
▁फूट	-11.0351
दु	-11.0352
▁घोटाला	-11.0353
▁भागवत	-11.0357
▁बचना	-11.0358
▁हानिकारक	-11.0359
▁पदाधिकारियों	-11.0359
▁हिमालय	-11.0361
▁रात्री	-11.0365
श्	-11.0368
▁बहनों	-11.0371
अन	-11.0376
▁औपचारिक	-11.0377
▁होश	-11.0378
▁एंड्रॉइड	-11.0378
▁जिल्ह्यातील	-11.0379
चि	-11.0379
▁ठहराया	-11.0379
▁मोटे	-11.0383
▁युवराज	-11.0383
▁कोष	-11.0384
▁रिश्तेदार	-11.0387
▁टूल	-11.0396
▁डॉट	-11.04
▁यज्ञ	-11.0404
45	-11.0404
▁वाणी	-11.0405
▁सुखद	-11.0406
हरा	-11.0409
ांत	-11.041
▁देसी	-11.0412
▁चिट्ठी	-11.0414
▁डाइट	-11.0416
▁बुला	-11.0417
विज्ञान	-11.0418
▁95	-11.042
▁2001	-11.0422
मधील	-11.0425
▁बूथ	-11.0426
▁इमेज	-11.0427
▁वैरिएंट	-11.0429
▁लक्षणों	-11.043
▁गिफ्ट	-11.0431
▁सलामी	-11.0432
▁सौंपी	-11.0432
▁उमेदवार	-11.0433
▁मौर्य	-11.0435
▁महाभारत	-11.0437
▁शेतकरी	-11.0437
▁पुण्य	-11.0438
▁धूम	-11.0439
▁चिदंबरम	-11.0439
▁पट्टी	-11.0444
स्थान	-11.0444
महाराष्ट्र	-11.0445
▁परिवर्तित	-11.0446
तब	-11.0447
▁इनकम	-11.0452
3.	-11.0455
▁कंधे	-11.046
▁समझाने	-11.0462
▁बरसात	-11.0462
आपकी	-11.0462
▁असिस्टेंट	-11.0465
▁सबकी	-11.0466
▁भाजप	-11.0466
▁अर्थात्	-11.0467
▁नायडू	-11.0467
▁परवाह	-11.0468
▁77	-11.0469
▁उद्योगों	-11.047
▁खरीदना	-11.0472
▁सौदे	-11.0475
▁नारा	-11.0479
नए	-11.0487
1.	-11.0495
▁ट्रैक्टर	-11.0497
▁आरक्षित	-11.0499
▁61	-11.0501
खी	-11.0505
▁सब्जियों	-11.0506
▁अग्रणी	-11.0507
▁.•	-11.0507
▁बदौलत	-11.0508
▁अर्ज	-11.0509
▁वें	-11.0509
▁घंटा	-11.051
▁पासपोर्ट	-11.0512
▁पहना	-11.0513
हिमाचल	-11.0514
ूं	-11.0518
▁गेले	-11.0519
▁लगीं	-11.0519
▁नरेश	-11.0531
पत	-11.0533
▁जुड़ने	-11.0534
▁सोर्स	-11.0541
▁लाई	-11.0543
▁अवॉर्ड	-11.0545
▁चयनित	-11.0545
▁कमांडर	-11.0548
यन	-11.0548
▁फर्म	-11.0551
55	-11.0551
▁राधा	-11.0552
▁विभागीय	-11.0553
▁किसने	-11.0554
▁प्रशंसकों	-11.0555
वली	-11.0555
बाद	-11.0555
▁सबक	-11.0557
▁पोलीस	-11.056
▁ठेकेदार	-11.0562
▁स्वामित्व	-11.0566
▁संभालने	-11.0567
▁थक	-11.0574
▁2022.	-11.0576
हमारी	-11.0582
;.	-11.0585
▁लिखें	-11.0586
▁गर्मियों	-11.0588
▁गेल	-11.059
▁आजम	-11.0592
▁हैंडल	-11.0594
▁तयार	-11.0597
▁साक्षी	-11.0599
56	-11.0604
▁दांत	-11.0605
▁Posts	-11.0608
▁सिरे	-11.0611
01	-11.0611
▁फ़रवरी	-11.0612
▁श्रमिकों	-11.0614
▁बिज़नेस	-11.0615
▁खुफिया	-11.0615
▁नैनीताल	-11.0616
▁स्वप्न	-11.0616
▁आवंटन	-11.0616
▁अपनाया	-11.0618
▁बेशक	-11.0622
▁गाजियाबाद	-11.0623
▁तस्करी	-11.0627
▁गौरी	-11.0627
▁भजन	-11.0627
▁क़रीब	-11.0635
▁शर्म	-11.0635
▁शिफ्ट	-11.0637
▁2017-18	-11.0637
▁एसडीएम	-11.0638
▁माँग	-11.064
मय	-11.0643
na	-11.0644
▁पार्षद	-11.0644
▁मरम्मत	-11.0646
▁कलेक्शन	-11.0648
▁फर्स्ट	-11.0651
▁मांगों	-11.0651
▁ज्‍यादा	-11.0656
▁डाक्टर	-11.0657
▁निवेदन	-11.0657
Related	-11.0659
▁अंततः	-11.066
▁गुलाबी	-11.066
▁फैमिली	-11.0661
फर	-11.0665
▁जूस	-11.0671
▁स्टेज	-11.0674
▁द्विवेदी	-11.0674
▁ताज़ा	-11.0675
▁धोखाधड़ी	-11.0675
▁चिन्ह	-11.0679
▁भागने	-11.0682
▁मुहम्मद	-11.0682
▁हत्याकांड	-11.0683
वले	-11.0684
▁दुआ	-11.0688
▁जंगलों	-11.0689
▁दुसरे	-11.0689
▁ज़रिए	-11.0691
नु	-11.0693
▁डायबिटीज	-11.0698
न्त	-11.0698
▁अर्जित	-11.07
▁बादशाह	-11.0704
▁दूंगा	-11.0706
▁बजाए	-11.0707
.15	-11.0709
सोशल	-11.071
▁मोटरसाइकिल	-11.0713
▁यंत्र	-11.0716
वून	-11.0717
▁ख़राब	-11.0717
▁वैदिक	-11.0719
▁पढ़कर	-11.072
▁एसएसपी	-11.0721
▁जातक	-11.0724
▁पिच	-11.0724
▁प्रेशर	-11.0725
▁दिलाई	-11.0726
▁रिहा	-11.0727
▁परिचालन	-11.0733
▁गाली	-11.0735
▁शशि	-11.0736
▁लौटा	-11.0737
▁लड़ा	-11.074
▁रोमांचक	-11.0741
▁इनाम	-11.075
▁आइये	-11.075
मोदी	-11.0752
▁किराया	-11.0757
▁संयोजन	-11.0758
▁सहा	-11.0758
▁84	-11.0762
▁जनगणना	-11.0764
▁समावेश	-11.0764
▁कोल्हापूर	-11.0765
▁स्पेन	-11.0772
▁सिंधिया	-11.0773
▁स्टेप	-11.0773
▁हटाया	-11.0773
▁कपड़ा	-11.0775
▁सदैव	-11.0777
▁आक्रामक	-11.0778
▁चंद्रशेखर	-11.0779
▁गुर	-11.0783
▁आंसू	-11.0783
स्क	-11.0785
▁खन्ना	-11.0786
▁लेटेस्ट	-11.0791
▁तरुण	-11.0794
▁लम्बी	-11.0795
▁बलिदान	-11.0798
le	-11.08
▁वोटिंग	-11.0801
इसलिए	-11.0805
▁लीला	-11.0809
▁साहित्यिक	-11.0818
▁स्वचालित	-11.0821
▁वहीँ	-11.0826
फे	-11.0827
▁इस्लामिक	-11.0827
▁मल्टी	-11.0828
▁मतभेद	-11.0829
ers	-11.083
▁समन्वय	-11.083
▁पुलिसकर्मियों	-11.0834
▁कंटेंट	-11.0836
ेर	-11.0837
▁गणतंत्र	-11.0839
▁लाभदायक	-11.0839
▁लॉग	-11.0841
▁एडिटर	-11.0842
▁2.5	-11.0843
▁स्पर्श	-11.0846
▁ऐश्वर्या	-11.085
▁छात्राओं	-11.0851
▁अभ्यर्थियों	-11.0854
▁आँखें	-11.0854
पानी	-11.0856
वर्ष	-11.0856
▁मस्त	-11.0856
▁तृतीय	-11.0856
▁कचरा	-11.0858
▁जरूरतों	-11.086
▁मधु	-11.086
▁भूत	-11.086
▁घायलों	-11.0861
▁शिल्पा	-11.0863
▁दिलचस्पी	-11.0863
▁ग़लत	-11.087
▁दायित्व	-11.0873
▁माननीय	-11.0875
तू	-11.0876
▁वायुसेना	-11.0878
▁शमी	-11.0881
▁मानवता	-11.0884
▁साहू	-11.0884
▁पीस	-11.0884
▁गर्लफ्रेंड	-11.0885
आय	-11.0885
▁कांग्रेसी	-11.0888
कर्म	-11.0888
▁यूपीए	-11.0888
8.	-11.0889
▁साधु	-11.0891
▁उपर	-11.0892
▁लेगा	-11.0894
▁पूल	-11.0895
रानी	-11.0895
▁सांप्रदायिक	-11.0896
▁600	-11.0898
▁साप्ताहिक	-11.0898
▁शैक्षिक	-11.09
▁प्रोफाइल	-11.0903
.00	-11.0905
▁पलट	-11.0909
▁केयर	-11.0909
▁डेस्कटॉप	-11.091
ic	-11.0913
▁सर्टिफिकेट	-11.0914
▁पीट	-11.0916
सिया	-11.0916
▁पत्ते	-11.0917
▁अपनाने	-11.0919
▁वस्त्र	-11.0921
▁क्रमांक	-11.0924
▁सशक्त	-11.0925
▁बाय	-11.0928
▁रथ	-11.0928
▁वाह	-11.0929
ro	-11.093
▁ऋतु	-11.0932
▁बढ़ाना	-11.0935
▁सज़ा	-11.0938
गुरु	-11.094
▁ब्रेकिंग	-11.0944
क्	-11.0949
▁सुंदरता	-11.0955
ंगा	-11.0956
बिल	-11.0957
▁लहसुन	-11.0957
▁उदयपुर	-11.0958
▁एससी	-11.096
▁71	-11.0967
ेला	-11.0973
▁राजन	-11.0973
▁खोले	-11.0974
क्र	-11.0975
j	-11.0979
शो	-11.0981
▁बोर	-11.0983
▁बारह	-11.0986
▁अय्यर	-11.0986
Email	-11.099
जि	-11.0991
42	-11.0991
▁कैप	-11.0993
ार्थ	-11.0993
▁पाकर	-11.0996
▁बिलासपुर	-11.0996
▁कविताओं	-11.0999
▁पशुओं	-11.1004
▁निशाने	-11.1005
▁जीवनसाथी	-11.101
▁राज्यमंत्री	-11.1018
▁जबरन	-11.102
▁सुल्तान	-11.1021
▁रसायन	-11.1022
▁c	-11.1022
▁छोर	-11.1025
▁घाटा	-11.1026
▁तथ्यों	-11.1026
▁अजित	-11.1027
ण्यासाठी	-11.1038
▁मोर्चे	-11.1039
धारी	-11.104
re	-11.104
▁b	-11.1041
ामुळे	-11.1043
▁दमदार	-11.1044
▁प्रोडक्शन	-11.1044
▁परिभाषित	-11.1046
▁उठने	-11.1047
▁सोसायटी	-11.1051
▁पलायन	-11.1051
▁ईद	-11.1052
▁ट्रेंड	-11.1056
▁धैर्य	-11.1058
▁उज्जैन	-11.1059
▁फलों	-11.1061
▁पढ़िए	-11.1065
▁67	-11.1065
▁टे	-11.1067
▁प्रसंग	-11.1069
▁हू	-11.1074
▁नींव	-11.1081
▁खाई	-11.1084
▁नाहीत	-11.1084
▁लैब	-11.1086
▁गुन्हा	-11.1089
▁रेड्डी	-11.109
लन	-11.1096
मै	-11.1104
▁खां	-11.1109
▁फ्लाइट	-11.111
▁कश्मीरी	-11.1112
▁मणिपुर	-11.1114
▁तीस	-11.1116
▁रासायनिक	-11.1118
▁NEW	-11.1119
▁सोनम	-11.112
▁नीलामी	-11.1121
▁किडनी	-11.1122
▁दुर्ग	-11.1124
▁82	-11.1125
▁छुपा	-11.1125
▁क्षति	-11.1125
▁किताबों	-11.1128
▁रामायण	-11.1129
▁टैंक	-11.1129
▁मौलिक	-11.113
▁03	-11.1136
▁तीव्रता	-11.1136
▁किट	-11.1141
▁वसा	-11.1145
▁महापौर	-11.1145
▁मिसाल	-11.1145
▁अर्धशतक	-11.1146
▁ग्रे	-11.1151
हल	-11.1152
64	-11.1154
ाल	-11.1154
▁वादे	-11.1159
▁रोकथाम	-11.1161
▁ताज	-11.1165
▁सील	-11.1165
▁लाकर	-11.1165
▁फैक्ट्री	-11.1169
▁पिन	-11.1176
▁मेजर	-11.118
▁नौकरियों	-11.1181
▁सौभाग्य	-11.1184
93	-11.1185
सार	-11.1186
▁बजकर	-11.1188
▁बिक	-11.1191
▁समिती	-11.1194
▁कहर	-11.12
▁प्रमोद	-11.12
65	-11.1203
▁ईमानदार	-11.1204
दरअसल	-11.1204
▁जीती	-11.1205
▁आमदनी	-11.1208
ंडी	-11.1208
▁खिड़की	-11.1211
मूल	-11.1215
▁पादुकोण	-11.1215
▁शी	-11.1215
▁1990	-11.1218
▁यूज	-11.1219
▁सरकारें	-11.122
इतिहास	-11.1221
▁कर्मी	-11.1221
मेट	-11.1222
▁चौथा	-11.1222
▁86	-11.1222
▁सम्पन्न	-11.1228
ख़	-11.123
▁सुमारे	-11.1233
▁प्रवास	-11.1233
ाक	-11.1234
▁उलट	-11.1234
▁संग्राम	-11.1238
▁."	-11.1242
▁थकान	-11.1248
▁किशन	-11.1251
▁डोमेन	-11.1252
आउट	-11.1255
▁बिगड़	-11.1256
▁सीज़न	-11.1259
▁सीखा	-11.1261
▁चीख	-11.1264
▁पूर्ति	-11.1265
ेरा	-11.1266
पान	-11.1269
▁इमाम	-11.127
▁नोटिफिकेशन	-11.1272
▁माया	-11.1273
▁वापर	-11.1274
▁प्रबल	-11.1279
▁यार	-11.1282
▁ऑस्ट्रेलियाई	-11.1285
▁समझता	-11.1286
▁खुदरा	-11.1286
▁बहाल	-11.1286
▁फोटोग्राफी	-11.1286
▁परिसरात	-11.1287
▁वर्जन	-11.1288
▁जेम्स	-11.1289
▁तन	-11.1291
फ़ा	-11.1294
▁सीमाओं	-11.1295
▁भ्रष्ट	-11.1295
▁परम्परा	-11.1296
पूर	-11.1299
▁चलाई	-11.1299
▁छिपा	-11.13
▁जिल्ह्यात	-11.1301
▁टीके	-11.1302
▁सियासत	-11.1302
▁गरज	-11.1303
▁मौलाना	-11.1303
मेन	-11.1307
▁भीम	-11.1308
▁मजदूरी	-11.1308
▁पीड़ितों	-11.1313
ज्ञ	-11.132
स्‍ट	-11.132
▁निरस्त	-11.1322
▁राजनेता	-11.1322
▁रखेंगे	-11.1322
46	-11.133
पत्नी	-11.1331
क्षेत्र	-11.1331
▁सितारों	-11.1333
▁चव्हाण	-11.1335
▁सदस्यीय	-11.1343
▁क्वालिटी	-11.1344
▁सोचता	-11.1345
▁सतर्क	-11.1346
▁83	-11.1346
हरी	-11.1349
▁उत्पादक	-11.1351
▁सामुदायिक	-11.1351
रंग	-11.1354
▁हैरानी	-11.1354
▁जहर	-11.1355
▁दिग्विजय	-11.1355
-10	-11.1356
▁गर्भावस्था	-11.1357
▁एलान	-11.1358
▁गे	-11.1361
▁औसतन	-11.1361
▁अन्याय	-11.1365
▁मनु	-11.1369
हट	-11.137
▁अक्षर	-11.1371
.25	-11.1372
▁अधि	-11.1373
्रा	-11.1373
▁आवश्यकताओं	-11.1373
▁फिल्मी	-11.1375
बद्ध	-11.1376
▁अधिवक्ता	-11.1377
▁देखती	-11.1378
सरकारी	-11.138
▁भावुक	-11.1383
्री	-11.1384
▁साहित्यकार	-11.1388
▁दादी	-11.139
▁कोचिंग	-11.1395
▁रिपोर्टर	-11.1396
व्य	-11.1402
▁वाटर	-11.1403
क्यू	-11.1403
जु	-11.1403
▁पुलिसकर्मी	-11.1409
▁राख	-11.1409
▁महंगे	-11.141
उन	-11.1414
▁अवकाश	-11.1414
प्रो	-11.1415
▁नवाब	-11.1416
▁जेपी	-11.1421
▁आंबेडकर	-11.1425
▁पॉपुलर	-11.1426
▁निकालकर	-11.1428
▁फरीदाबाद	-11.1429
हाँ	-11.1431
▁शेखर	-11.1435
▁सार्थक	-11.1437
▁प्रेमिका	-11.144
▁निर्माताओं	-11.1442
▁हाईवे	-11.1442
लु	-11.1444
▁झेल	-11.1446
▁जिनको	-11.1449
▁ओबीसी	-11.145
▁दीं	-11.1453
जून	-11.1455
▁समझाया	-11.1457
▁बोस	-11.1464
▁फा	-11.1469
▁उत्पत्ति	-11.147
▁पांचवें	-11.1471
▁दिलाया	-11.1477
▁कड़े	-11.1477
▁आसन	-11.1478
▁Re	-11.1481
▁एक्सपर्ट	-11.1482
ज्ञान	-11.1482
▁अभियंता	-11.1482
▁बाधित	-11.1482
▁श्रीदेवी	-11.1485
▁मधुमेह	-11.1496
▁वै	-11.1496
व्यापार	-11.1499
▁पचास	-11.1501
▁प्रतिस्पर्धा	-11.1501
▁पुरे	-11.1502
▁पूनम	-11.1503
▁घटनास्थल	-11.1507
▁गोलियां	-11.1509
▁कवरेज	-11.151
▁मुआवजा	-11.151
▁छाती	-11.1511
63	-11.1512
▁दोषियों	-11.1512
▁सस्ती	-11.1513
61	-11.1513
▁विद्वान	-11.1513
▁गुल	-11.1514
▁इन्	-11.1514
▁गवाह	-11.1515
▁लाहौर	-11.1515
▁चारा	-11.1516
▁ौ	-11.1516
▁असंभव	-11.1518
▁संयोग	-11.1522
▁जाहीर	-11.1525
4.	-11.1525
▁जैविक	-11.1525
▁बकाया	-11.1528
राय	-11.1535
$	-11.1535
▁तब्दील	-11.1537
▁क्रमशः	-11.1542
▁शर्तें	-11.1543
▁सादर	-11.1543
▁मेहमान	-11.1544
▁उपरोक्त	-11.1544
▁मनाई	-11.1545
भी	-11.1548
7.	-11.1548
▁दखल	-11.1548
▁ब्राउज़र	-11.155
▁महागठबंधन	-11.1551
▁पाएगा	-11.1551
ाऊ	-11.1552
▁सावंत	-11.1557
▁संबोधन	-11.1558
▁प्रस्तुति	-11.1559
▁खाया	-11.156
04	-11.1561
▁पालक	-11.1563
▁तेज़ी	-11.1569
▁शे	-11.1569
▁पहुँचा	-11.1572
▁मेजबान	-11.1574
▁विहार	-11.1574
आगे	-11.1574
वैसे	-11.1574
41	-11.1575
दल	-11.1575
▁देंगी	-11.1576
्वा	-11.1577
▁जलाने	-11.1581
▁भेट	-11.1583
▁रियर	-11.159
▁अभ्यर्थी	-11.159
▁क्र	-11.159
▁सीरिया	-11.1591
▁पंक्ति	-11.1591
49	-11.1593
08	-11.1595
▁राग	-11.1599
▁चार्ट	-11.1603
ूंगा	-11.1608
▁जागा	-11.161
सल	-11.1614
▁जंक्शन	-11.1617
▁टाल	-11.1618
▁अदरक	-11.1622
▁लु	-11.1623
▁1999	-11.1624
-5	-11.1625
е	-11.163
नेस	-11.1633
▁लोकार्पण	-11.1634
▁सू	-11.1637
▁क्यू	-11.1638
▁महत्त्वपूर्ण	-11.1639
▁उंगली	-11.1641
▁मीरा	-11.1651
▁पाइप	-11.1652
▁निकलते	-11.1653
▁मोती	-11.1654
▁सितारे	-11.1654
▁कनेक्ट	-11.1654
भूमि	-11.1655
▁अलीगढ़	-11.1656
▁भावनात्मक	-11.1656
कुमार	-11.1658
▁ब्रांच	-11.1664
▁पारा	-11.1665
▁गोलीबारी	-11.1668
▁कहानियाँ	-11.167
-4	-11.1674
मू	-11.1675
▁मुहिम	-11.1678
▁कीजिये	-11.1678
80	-11.1679
▁रोम	-11.168
थी	-11.168
▁नरम	-11.168
▁बढ़ेगा	-11.1681
▁कोट	-11.1681
71	-11.1683
▁स्वीकृत	-11.1687
to	-11.1687
▁73	-11.1691
▁विद्रोह	-11.1697
▁सिंधु	-11.1701
ि‍	-11.1701
▁कॉलेजों	-11.1701
▁ओवरों	-11.1702
▁जलन	-11.1705
▁तरल	-11.1706
and	-11.1708
▁सदियों	-11.1714
▁प्राचार्य	-11.1715
▁देवताओं	-11.1715
▁count	-11.1716
▁एनर्जी	-11.1716
▁पेरिस	-11.1725
▁सूबे	-11.1725
▁रहेंगी	-11.1725
ल्ड	-11.1726
▁उठी	-11.1727
▁पीले	-11.1733
शील	-11.1735
▁निदान	-11.1735
ण्यात	-11.1736
घा	-11.1738
▁गीतों	-11.174
दोस्तों	-11.174
▁प्रयागराज	-11.1744
चंद्र	-11.1749
▁मेष	-11.175
▁सेकेंड	-11.175
▁हेमंत	-11.1758
▁बदनाम	-11.1758
▁घेर	-11.176
▁केशव	-11.176
▁शॉपिंग	-11.1763
गृह	-11.1767
नेट	-11.177
▁हिन्दुस्तान	-11.1771
लेल्या	-11.1773
▁बराबरी	-11.1773
जरा	-11.1775
▁तंग	-11.1775
डीजल	-11.1776
सेन	-11.1776
▁महंगी	-11.1777
▁बदलना	-11.1778
▁गांगुली	-11.1779
▁ताल	-11.1781
▁नहर	-11.1782
▁on	-11.1784
▁गहन	-11.1784
▁मदन	-11.1785
▁श्रद्धालुओं	-11.1785
▁क्रिसमस	-11.1788
▁ललित	-11.1788
▁कम्प्यूटर	-11.179
▁ईयर	-11.1792
▁बिटकॉइन	-11.1792
▁पात्रता	-11.1793
▁ट्रायल	-11.1795
▁लगाये	-11.1796
बिजनेस	-11.1798
▁स्पर्धा	-11.1799
▁69	-11.1801
▁अन्न	-11.1802
▁भुवनेश्वर	-11.1804
▁सैनी	-11.1806
▁लाभकारी	-11.1807
্	-11.1808
▁09	-11.1811
▁संज्ञान	-11.1811
णार	-11.1814
▁सृष्टि	-11.1816
▁चंदन	-11.1821
▁उतरी	-11.1822
⋙	-11.1823
▁मजिस्ट्रेट	-11.1823
ेक्स	-11.1826
लाइफस्टाइल	-11.1828
र्ज	-11.1828
वाह	-11.1828
▁बरेली	-11.183
▁अंग्रेज़ी	-11.183
इसमें	-11.1831
▁सचमुच	-11.1837
▁दिव्य	-11.184
च्छ	-11.1841
बाजी	-11.1844
▁दस्तक	-11.1845
▁एयरटेल	-11.1846
▁वास्तविकता	-11.1851
ुर	-11.1855
▁बंदी	-11.1856
▁08	-11.1857
▁अख्तर	-11.1857
ma	-11.1865
▁बेसिक	-11.1865
▁एकीकृत	-11.1865
▁गडकरी	-11.1867
▁BJP	-11.1872
▁बदली	-11.1875
▁अतिक्रमण	-11.1877
▁पुत्री	-11.1878
▁गुहार	-11.1879
▁बसों	-11.1884
▁मामा	-11.1885
▁गोविंद	-11.1886
▁व्यावहारिक	-11.1887
▁बदलती	-11.1889
▁98	-11.1891
▁जौनपुर	-11.1893
उप	-11.1898
जम्मू	-11.1901
▁गंदगी	-11.1901
ारी	-11.1905
69	-11.1905
.2.	-11.1908
▁इंद्र	-11.191
72	-11.191
▁कश्यप	-11.1913
un	-11.1913
▁जानकार	-11.1913
▁आनन्द	-11.1917
▁दिखाए	-11.1921
▁तैयारियां	-11.1922
et	-11.1923
▁रेल्वे	-11.1925
▁पेंट	-11.1933
▁पिताजी	-11.1934
इंग	-11.1936
▁99	-11.1937
▁सच्ची	-11.194
▁हेलीकॉप्टर	-11.1942
▁आचरण	-11.1942
▁गुड़	-11.1945
▁चलन	-11.1945
▁बरस	-11.1945
▁धर	-11.1946
▁सफलतापूर्वक	-11.1949
▁खुलने	-11.1951
▁सिंगर	-11.1951
▁घटनाक्रम	-11.1955
▁मोटा	-11.1956
▁नमस्कार	-11.1958
▁पड़ताल	-11.1959
▁प्रतिरोध	-11.1961
.19	-11.1962
प्रमुख	-11.1962
▁पै	-11.1962
▁प्रतिनिधियों	-11.1967
76	-11.1967
▁देसाई	-11.1969
▁उतरने	-11.1969
▁उपलब्धता	-11.197
▁मुम्बई	-11.1971
▁चढ़ा	-11.1971
▁सेक्शन	-11.1974
▁इक	-11.1974
▁नशा	-11.1977
▁तिलक	-11.1979
▁मज़बूत	-11.198
किन	-11.1981
▁यो	-11.1982
▁फ़ैसला	-11.1983
▁जिलाध्यक्ष	-11.1983
▁ओबामा	-11.1984
▁पूर्वोत्तर	-11.1984
▁रहीम	-11.1987
▁ग्रेड	-11.1988
३	-11.1989
▁हालिया	-11.1989
▁बाथरूम	-11.1991
▁लोड	-11.1995
▁वाट	-11.1997
▁ऐड	-11.1998
तु	-11.2
▁पुनर्	-11.2002
▁संक्षिप्त	-11.2003
▁भूपेश	-11.2003
नोट	-11.2004
ीला	-11.2005
▁फील्ड	-11.2005
▁महासागर	-11.2005
▁सूखा	-11.2006
44	-11.2006
▁प्रदेशों	-11.2007
▁दहशत	-11.201
▁उतने	-11.2011
▁मधुर	-11.2011
▁रोने	-11.2011
▁कैलोरी	-11.2012
▁एकत्रित	-11.2013
उसके	-11.2018
▁मांसपेशियों	-11.202
▁निकासी	-11.2021
▁गुफा	-11.2021
▁तपास	-11.2021
▁पट	-11.2022
ियत	-11.2023
▁बवाल	-11.2024
▁प्रशंसक	-11.2024
▁अमृतसर	-11.2026
▁लग्न	-11.2027
▁रच	-11.2027
▁नतीजों	-11.2027
सेवा	-11.2028
▁हर्ष	-11.2029
कृत	-11.2032
▁यूएस	-11.2033
▁अंधेरे	-11.2033
▁चिकन	-11.2033
नंतर	-11.2036
▁शायरी	-11.2039
▁१८	-11.204
ोन	-11.204
कार्य	-11.2041
पेट	-11.2042
▁पिक्चर	-11.2045
▁ट्यूब	-11.2045
ूल	-11.2045
▁सुरक्षाबलों	-11.2046
▁रिया	-11.2047
▁छूने	-11.2048
▁बौद्धिक	-11.2048
▁81	-11.2049
▁घेतले	-11.205
▁माइकल	-11.2054
▁यद्यपि	-11.2056
▁मिस्र	-11.2058
▁बजा	-11.2059
▁व्यवस्थित	-11.206
पट	-11.206
▁नियोजन	-11.206
▁सोसाइटी	-11.2061
▁फास्ट	-11.2061
▁सर्वोत्तम	-11.2065
▁स्पॉट	-11.207
9.	-11.2073
▁रेसिपी	-11.2077
दूर	-11.2079
▁जंगली	-11.2082
▁अस्थायी	-11.2085
▁द्रविड़	-11.209
▁पेट्रोलियम	-11.2091
▁घेत	-11.2092
▁एसबीआई	-11.2095
▁पार्टियां	-11.2096
▁स्ट्रीट	-11.2099
ra	-11.21
▁जदयू	-11.2101
▁सोम	-11.2102
▁बालिका	-11.2103
पू	-11.2105
▁वसंत	-11.2106
▁जावेद	-11.211
▁नीले	-11.211
्ज	-11.2114
▁बज	-11.2115
▁बचाया	-11.2119
नुसार	-11.2122
डू	-11.2123
▁बसे	-11.2125
▁ब्राजील	-11.2128
▁निचे	-11.2133
▁नाना	-11.2134
▁असल्याची	-11.2135
▁शर्ट	-11.2138
जिला	-11.2138
▁मौन	-11.2139
¤	-11.2141
तरह	-11.2142
95	-11.2143
ation	-11.2146
▁बायो	-11.2146
▁प्रभा	-11.2149
▁यूनाइटेड	-11.2153
▁फ़िर	-11.2155
▁सुनाया	-11.2155
▁निर्मल	-11.2155
96	-11.2156
▁स्वयंसेवक	-11.2156
▁क्लिप	-11.2156
मोबाइल	-11.2158
77	-11.2159
▁स्त्रियों	-11.216
▁पुष्कर	-11.2161
▁मदत	-11.2164
▁पहुंचते	-11.2165
▁डोर	-11.2166
▁निवारण	-11.2166
w	-11.2168
▁मध्ये	-11.2175
▁पॉल	-11.2176
▁79	-11.2179
▁निर्मला	-11.2181
ांमध्ये	-11.2184
▁थीम	-11.2185
▁आईपीएस	-11.2186
st	-11.2187
▁आवंटित	-11.2193
▁U	-11.2198
▁अरोड़ा	-11.2201
▁बदलकर	-11.2203
ौली	-11.2207
▁समुदायों	-11.2216
▁शत्रु	-11.2219
▁संगम	-11.2222
▁निर्देशों	-11.2222
▁एक्सरसाइज	-11.2224
▁प्रीति	-11.2224
59	-11.2225
▁यांचे	-11.2226
▁डिस्क	-11.2226
▁पिछड़े	-11.2227
देन	-11.2233
▁सवारी	-11.2234
▁भ्रमण	-11.2238
▁औरतों	-11.2246
▁उपाधि	-11.225
▁ओवैसी	-11.225
▁औषधि	-11.2251
▁दिखते	-11.2254
▁राजेन्द्र	-11.2257
▁1998	-11.2258
▁डायरेक्ट	-11.2258
▁घोष	-11.2263
▁पहलवान	-11.2265
रण	-11.2267
6.	-11.2267
▁ग्लास	-11.2269
▁छापा	-11.227
वासियों	-11.2272
▁शु	-11.2274
▁भविष्यवाणी	-11.2278
▁टच	-11.2279
79	-11.2281
ி	-11.2283
▁बेबी	-11.2287
▁तादाद	-11.2287
,”	-11.2289
▁ताप	-11.229
▁सच्चे	-11.2293
▁ब्रिज	-11.2295
▁चुप्पी	-11.2298
▁लद्दाख	-11.2301
सत्य	-11.2302
▁चेन	-11.2308
▁शक्तियों	-11.231
▁विमर्श	-11.2313
▁Rs	-11.2314
विन	-11.2315
05	-11.2316
▁बंबई	-11.2318
▁एडमिशन	-11.2318
▁m	-11.232
▁गुट	-11.2321
▁घेण्यात	-11.2324
▁पीना	-11.2327
▁मुसीबत	-11.233
▁आयुष्मान	-11.233
91	-11.2331
डिया	-11.2332
▁बची	-11.2334
▁ट्रम्प	-11.2334
संबंधित	-11.2336
ग्रस्त	-11.2339
▁प्राइस	-11.234
-12	-11.2341
▁संतुलित	-11.2344
▁खासतौर	-11.2344
हन	-11.2347
आम	-11.2347
▁ग्रहों	-11.2347
▁महत्त्व	-11.2349
▁वैध	-11.235
▁हंसी	-11.2351
▁आलेल्या	-11.2354
▁मसाला	-11.2355
▁आओ	-11.2359
▁निकलता	-11.2361
ch	-11.2361
्ता	-11.2361
▁शहरातील	-11.2365
▁ग्रोथ	-11.2367
▁वाहतूक	-11.2369
▁अर्चना	-11.2373
▁सुधारने	-11.2373
▁शिरकत	-11.2375
▁सख्ती	-11.2376
▁गर्ल	-11.2377
▁साहेब	-11.2378
▁टैबलेट	-11.2387
▁तहसीलदार	-11.2389
▁ईडी	-11.2391
▁रचनात्मक	-11.2394
▁ऑपरेटिंग	-11.2395
▁’’.	-11.2397
▁अमरिंदर	-11.2397
▁चुपचाप	-11.2398
▁दिखाता	-11.2398
▁जाट	-11.2399
▁सन्दर्भ	-11.2402
▁खाएं	-11.2404
ोल	-11.2405
▁नील	-11.2406
▁केलेल्या	-11.2407
▁महासभा	-11.2411
ण्याची	-11.2422
▁धामी	-11.2422
▁प्रकोप	-11.2424
्न	-11.2429
▁टूटने	-11.2431
06	-11.2432
▁सेवक	-11.2434
▁नोटों	-11.2434
▁निष्पक्ष	-11.244
▁कहलाता	-11.2442
▁करण्याची	-11.2445
बिग	-11.2447
▁अंबेडकर	-11.2447
▁गड़बड़ी	-11.2452
▁स्कूली	-11.2453
▁पते	-11.2455
▁चिंतन	-11.2456
छा	-11.2457
▁पौराणिक	-11.246
▁दुकानदार	-11.2461
▁विक्की	-11.2468
▁नकदी	-11.2469
▁पुजारी	-11.2471
▁पत्रों	-11.2471
▁सातवें	-11.2472
दक्षिण	-11.2473
66	-11.2479
▁निदेशालय	-11.2481
▁शान	-11.2481
▁2018-19	-11.2488
▁96	-11.2489
▁आईआईटी	-11.2491
▁स्कूटर	-11.2491
▁चौंकाने	-11.2494
▁गिलास	-11.2495
▁जाग	-11.2497
▁किला	-11.2499
▁फ्रेंच	-11.2499
▁अंतराल	-11.2503
▁बस्तर	-11.2504
▁तंज	-11.2508
▁जुटा	-11.2508
▁जॉर्ज	-11.2509
▁आजतक	-11.251
▁टीएमसी	-11.251
▁जीना	-11.251
▁सुधीर	-11.2511
▁केदारनाथ	-11.2512
▁हाय	-11.2513
4%	-11.2516
▁धनराशि	-11.2518
▁आएंगी	-11.252
ामध्ये	-11.2521
▁मसीह	-11.2522
▁सूचीबद्ध	-11.2524
▁13.	-11.2524
▁यूँ	-11.2528
▁विलय	-11.2528
ूँ	-11.2528
▁परिश्रम	-11.2531
▁अख़बार	-11.2531
▁कद	-11.2532
लेख	-11.2533
त्	-11.2536
्यू	-11.2536
▁प्लेटफार्म	-11.2537
▁शिलान्यास	-11.2538
रन	-11.2539
इंडिया	-11.254
▁बताये	-11.2542
▁जवाहर	-11.2542
83	-11.2542
▁पू	-11.2544
▁सवा	-11.2546
▁दामों	-11.2546
५	-11.2547
▁संध्या	-11.2547
▁रिश्वत	-11.2549
▁कड़ा	-11.2552
▁सीओ	-11.2554
▁बोलना	-11.2555
▁निर्दलीय	-11.2557
लेखक	-11.256
▁re	-11.2562
▁.‘	-11.2563
▁रीति	-11.2565
फाई	-11.2565
▁भरत	-11.2566
▁केबल	-11.2566
▁जोड़ें	-11.2567
विचार	-11.2568
▁सुमन	-11.257
▁मान्य	-11.2571
▁लाइक	-11.2572
▁रामपुर	-11.2572
शास्त्र	-11.2573
▁सच्चा	-11.2577
▁इलेवन	-11.2578
▁मालिकों	-11.258
▁88	-11.2581
▁हिला	-11.2584
ियम	-11.2589
▁सनातन	-11.259
il	-11.2594
▁पद्म	-11.2595
▁पड	-11.2596
▁पेड़ों	-11.2599
▁हावी	-11.2599
02	-11.2599
07	-11.2606
▁चाहेंगे	-11.2607
▁तोमर	-11.2612
ीक	-11.2616
ीस	-11.2619
▁दर्जनों	-11.2619
▁800	-11.2621
▁प्रमाणपत्र	-11.2622
▁ट्रोल	-11.2624
▁मौ	-11.2626
▁धर्मेंद्र	-11.2628
▁04	-11.2631
छोटी	-11.2634
▁छठे	-11.2635
▁गट	-11.2637
▁संरक्षक	-11.2639
▁अग्रिम	-11.2639
▁पटरी	-11.2646
.*	-11.265
लों	-11.2651
▁परिदृश्य	-11.2654
▁07	-11.2657
.....	-11.2657
▁मुकदमे	-11.2657
▁कुंजी	-11.2666
▁आएं	-11.2668
Z	-11.2668
बोर्ड	-11.2668
▁स्थानिक	-11.267
▁राजे	-11.2671
▁आटा	-11.2673
▁सब्सक्राइब	-11.2673
68	-11.2674
▁कराते	-11.2676
▁पोर्न	-11.2677
.12	-11.2683
▁नोंद	-11.2683
▁सहयोगियों	-11.2684
▁कोविंद	-11.2686
▁पार्किंग	-11.2687
▁अजमेर	-11.2688
▁छोड़ना	-11.2694
▁शॉर्ट	-11.2696
मिन	-11.2696
▁गैलेक्सी	-11.2698
▁.*	-11.2701
▁खरीदें	-11.2702
43	-11.2702
▁निधी	-11.2703
▁सिद्धांतों	-11.2705
▁ज़ाहिर	-11.2705
▁श्रमिक	-11.2706
▁यांचा	-11.2707
▁नॉन	-11.2709
▁94	-11.271
▁लक्ष	-11.2713
▁e	-11.2714
▁आइटम	-11.2718
▁पंचायतों	-11.2719
▁CM	-11.2722
वला	-11.2723
▁पुराण	-11.2725
▁आस्ट्रेलिया	-11.2726
▁वर्चुअल	-11.2726
▁सीरीज़	-11.2728
▁वाणिज्य	-11.2728
74	-11.2728
ीज	-11.2733
92	-11.2735
▁प्राणी	-11.2738
▁पुलवामा	-11.2745
▁देशी	-11.2746
▁दुर्भाग्य	-11.2747
▁एंटरटेनमेंट	-11.2751
▁जैव	-11.2758
▁दिखाना	-11.276
▁प्रिया	-11.2762
▁स्पिन	-11.2766
▁पीटा	-11.2768
▁चाट	-11.2768
▁एलईडी	-11.2772
▁क्यूंकि	-11.2777
▁वीरेंद्र	-11.2786
▁लाठी	-11.2788
▁दबाने	-11.2789
▁बयानों	-11.2791
▁बदन	-11.2792
▁सम्बन्धित	-11.2794
▁क्रांतिकारी	-11.2794
▁नमी	-11.2794
बच्चों	-11.2795
▁मोबाईल	-11.2795
▁मिथुन	-11.2796
ष्ट	-11.28
▁92	-11.2802
▁जातीय	-11.2802
धार	-11.2803
▁चौथ	-11.2805
ment	-11.2806
▁कॉ	-11.281
▁रोमांस	-11.2811
झारखंड	-11.2811
लेस	-11.2811
▁संधि	-11.2813
▁झंडा	-11.2814
▁दीवारों	-11.2816
▁गंवा	-11.2821
▁रतन	-11.2822
▁सिगरेट	-11.2823
▁दोन्ही	-11.2825
▁व्यापारिक	-11.283
▁जगदीश	-11.2831
▁सै	-11.2834
्व	-11.2835
▁बादाम	-11.2836
▁माल्या	-11.2837
▁सौरभ	-11.2837
▁पेयजल	-11.2839
▁बनेंगे	-11.284
्टन	-11.2842
▁संबद्ध	-11.2842
▁संरक्षित	-11.2844
▁ड्रोन	-11.2845
चित्र	-11.2848
▁मिक्स	-11.2849
▁गैंगरेप	-11.285
▁बैच	-11.2851
▁अध्यापक	-11.2854
▁स्टे	-11.2855
परिवार	-11.2855
▁गाया	-11.2858
▁रिव्यू	-11.2859
▁विमानों	-11.2859
▁कमाए	-11.2866
▁ईस्ट	-11.2866
र्ग	-11.2869
▁निवासियों	-11.2872
▁महिंद्रा	-11.2874
ब्र	-11.2876
▁डालना	-11.2879
टीवी	-11.2879
िक्स	-11.2881
▁इंश्योरेंस	-11.2882
▁वर्णित	-11.2883
▁शिष्य	-11.2884
ग्	-11.2884
▁रिश्तेदारों	-11.2885
▁बुराई	-11.2885
▁विजयी	-11.2887
▁सर्जन	-11.2888
▁नगरसेवक	-11.2895
त्या	-11.2898
▁आयरन	-11.2898
▁:-.	-11.2899
▁सुरेंद्र	-11.2902
▁अनुशासन	-11.2905
▁लंबित	-11.2907
▁आंशिक	-11.2918
▁वोटर	-11.2919
▁जनसभा	-11.2919
▁खनिज	-11.292
▁दिलों	-11.2921
▁उठकर	-11.2924
झा	-11.2924
क्राइम	-11.2928
▁आँख	-11.2932
▁हुयी	-11.2932
स्प	-11.2934
▁Home	-11.2935
▁निश्चय	-11.2936
▁COVID	-11.2936
▁अब्दुल्ला	-11.2937
▁योनि	-11.2937
▁रहमान	-11.2941
▁मानती	-11.2942
▁शक्यता	-11.2944
▁कर्ण	-11.2946
▁1980	-11.2947
▁बनें	-11.2948
ल्ला	-11.2949
हेल्थ	-11.295
▁पौधा	-11.2951
▁स्मरण	-11.2954
▁खाड़ी	-11.2955
▁रंगीन	-11.2961
▁जोड़ों	-11.2961
▁बढ़ाते	-11.2961
▁नियामक	-11.2964
▁पार्वती	-11.2964
▁अधिकृत	-11.2966
बुक	-11.2968
▁माइक	-11.2971
▁एसटी	-11.2973
▁चॉकलेट	-11.2975
▁आयुर्वेदिक	-11.2977
▁विपणन	-11.2977
▁तलाशी	-11.299
▁मुकाम	-11.299
▁अफ्रीकी	-11.299
▁सतत	-11.2993
▁जेट	-11.2996
▁नकद	-11.2997
उनके	-11.3
▁अमन	-11.3004
▁कम्युनिस्ट	-11.3006
▁वैक्सीनेशन	-11.3007
▁इस्लामी	-11.301
▁महावीर	-11.301
▁दर्दनाक	-11.3014
▁Z	-11.3016
▁कुशवाहा	-11.3018
▁i	-11.3018
▁14.	-11.3019
81	-11.3019
▁कहेंगे	-11.3025
▁रहो	-11.3027
▁व्यंजन	-11.3027
▁सीआरपीएफ	-11.3028
▁स्टडी	-11.3028
▁लालच	-11.3031
▁बैल	-11.3032
त्मक	-11.3034
▁बुमराह	-11.3035
▁सकेगी	-11.3038
.•	-11.3039
▁केवळ	-11.3039
उधर	-11.3039
दारी	-11.3043
▁चतुर्वेदी	-11.3044
▁माप	-11.3045
▁पायी	-11.3047
▁प्रमाणित	-11.3051
विधि	-11.3052
▁अतुल	-11.3052
▁खांसी	-11.3053
▁पतन	-11.3053
▁अभय	-11.3053
▁बीती	-11.3054
▁बैक्टीरिया	-11.3055
▁बैलेंस	-11.3055
500	-11.3057
▁साकार	-11.3057
▁तुमसे	-11.3057
▁लोहे	-11.3058
▁चिह्न	-11.3059
▁अवलोकन	-11.306
▁125	-11.306
▁नर्मदा	-11.3061
देवी	-11.3062
▁माफिया	-11.3068
▁उधार	-11.3068
▁स्प	-11.3071
▁कोमल	-11.3073
▁91	-11.3077
मार्च	-11.3077
▁झगड़ा	-11.3081
▁प्रोटोकॉल	-11.3082
▁फैली	-11.3084
▁कांस्य	-11.3088
▁इंडोनेशिया	-11.3089
▁घोड़े	-11.3091
▁समर्पण	-11.3091
▁महाजन	-11.3096
▁एंकर	-11.31
▁नजदीकी	-11.31
▁चमत्कार	-11.31
▁घुटने	-11.31
▁हमलावर	-11.31
रिक	-11.31
ल्ट	-11.3101
▁नकल	-11.3103
▁घटा	-11.3103
▁पड़ोस	-11.3104
द्र	-11.3105
▁वकीलों	-11.3105
▁रिलेशनशिप	-11.3115
▁न्‍यूज	-11.3124
▁अध	-11.3124
▁अनजान	-11.3126
सिंग	-11.3129
▁बूब्स	-11.3132
न्द	-11.3135
▁YouTube	-11.3136
ia	-11.3136
▁शोधकर्ताओं	-11.3138
ांक	-11.3142
बंद	-11.3143
▁अस	-11.3147
.3.	-11.3148
▁रहाणे	-11.3154
▁क्षमा	-11.3154
▁अवसाद	-11.3157
▁कटा	-11.316
▁प्रशिक्षित	-11.316
▁दुकानें	-11.3162
▁क्विंटल	-11.3163
▁नगरी	-11.3163
▁गाडी	-11.3166
▁साई	-11.3168
▁मानकों	-11.3174
▁बेरोजगार	-11.3175
‬	-11.3177
▁डु	-11.3178
▁मिड	-11.3179
▁धोने	-11.3179
▁.6.	-11.318
▁डेरा	-11.3181
▁स्टूडेंट	-11.3181
्क	-11.3185
▁गन्ना	-11.3187
▁सर्किट	-11.3189
▁फुटेज	-11.3191
▁समीकरण	-11.3194
्यो	-11.3195
ंवर	-11.3195
▁सिक्योरिटी	-11.3196
5.	-11.3197
साहित्य	-11.3197
▁विशेषताएं	-11.3199
समाज	-11.3206
▁एमएस	-11.3208
▁जजों	-11.3214
▁संयंत्र	-11.3215
▁जयंत	-11.3221
पूर्वी	-11.3221
▁लेगी	-11.3222
जैसा	-11.3223
▁उपमुख्यमंत्री	-11.3224
73	-11.3227
कार्ड	-11.3229
▁इरादा	-11.323
▁रिचार्ज	-11.3231
▁बुलंद	-11.3232
▁तरक्की	-11.3233
गार	-11.3234
▁वरदान	-11.3236
▁शिक्षित	-11.324
▁1947	-11.3242
▁अवसरों	-11.3243
▁उत्सर्जन	-11.3247
▁निर्णायक	-11.3249
.05	-11.3252
▁जितेंद्र	-11.3252
▁समझे	-11.3254
बाप	-11.3254
▁दंगों	-11.3256
▁पन्ना	-11.326
▁93	-11.3261
▁विकार	-11.3263
▁सैंपल	-11.3264
▁जीभ	-11.3265
.0	-11.3266
▁हार्ड	-11.3269
▁मेयर	-11.327
ेरी	-11.3271
54	-11.3272
▁औरंगाबाद	-11.3272
▁बाघ	-11.3272
▁विंडो	-11.3276
▁भारद्वाज	-11.3279
▁डायरी	-11.328
▁क्वार्टर	-11.3282
▁वृद्ध	-11.3282
अल	-11.3284
माता	-11.3286
▁मृत्यू	-11.3287
▁रहित	-11.3289
▁जानकारियां	-11.329
▁बॉम्बे	-11.3293
▁सीखना	-11.3293
जहां	-11.3295
▁देखिये	-11.3296
क्रम	-11.3298
▁स्टेटस	-11.3299
”.	-11.3302
र्थ	-11.3302
▁असाधारण	-11.3307
▁सहन	-11.3307
▁झूठे	-11.3311
▁रवींद्र	-11.3311
▁लोहा	-11.3312
▁व्यंग्य	-11.3319
▁ऊंचा	-11.3322
▁कठिनाई	-11.3328
खे	-11.3328
up	-11.3328
▁मेगा	-11.3329
▁सीने	-11.3329
▁पुस्तकों	-11.333
▁रिंग	-11.3331
्ज़	-11.3332
▁आज़ाद	-11.3332
▁फौज	-11.3333
▁ड्रामा	-11.3334
▁मनाते	-11.3338
▁करणे	-11.3339
▁आचार	-11.334
ज़र	-11.334
▁सप्तर्षि	-11.334
▁कांस्टेबल	-11.3343
▁महंत	-11.3345
▁वैन	-11.3345
▁त्याला	-11.3346
किस	-11.3348
▁आइडिया	-11.3348
ेबल	-11.3349
▁तथाकथित	-11.3349
▁वयस्क	-11.3356
▁फोटोज	-11.3357
▁रहिए	-11.3357
▁खु	-11.3359
▁संभाला	-11.3359
▁कैसीनो	-11.3362
▁प्रॉपर्टी	-11.3362
स्पोर्ट्स	-11.3362
.11	-11.3368
▁हास्य	-11.3368
▁इसपर	-11.3371
▁स्टेशनों	-11.3371
▁महामंत्री	-11.3373
▁अप्लाई	-11.3374
▁मृतकों	-11.3375
किसान	-11.3376
ेत	-11.3385
▁भयंकर	-11.3386
▁रनौत	-11.3387
▁रूपों	-11.339
क्रिकेट	-11.339
▁दीजिये	-11.339
बात	-11.3392
▁मुगल	-11.3392
▁सेटिंग	-11.3392
▁माई	-11.3396
ृ	-11.3397
▁थिएटर	-11.3399
▁विश्वविद्यालयों	-11.34
▁प्रदर्शनकारियों	-11.34
▁शिवपाल	-11.3401
▁बनेगी	-11.3401
▁वीजा	-11.3402
▁संयम	-11.3405
▁देओल	-11.3406
▁माय	-11.3406
▁दूरसंचार	-11.3406
▁नवाज	-11.3407
▁लेखा	-11.3408
▁तालमेल	-11.3409
वरील	-11.341
▁नामित	-11.3413
▁व्	-11.3414
▁मुद्रास्फीति	-11.3414
▁अं	-11.3415
▁जताते	-11.3416
▁शोभा	-11.3417
▁सम्पर्क	-11.3417
ंडे	-11.3417
स्टार	-11.3418
▁शुक्रिया	-11.3419
सागर	-11.3423
▁मर्द	-11.3428
▁अनशन	-11.3429
▁डिमांड	-11.3431
ν	-11.3431
▁कमज़ोर	-11.3432
▁धरने	-11.3433
58	-11.3436
▁फैलने	-11.3438
▁ड्रग	-11.3439
▁डेली	-11.3439
▁करण्याचा	-11.344
▁कलाम	-11.3442
बू	-11.3442
ti	-11.3443
▁नै	-11.3447
▁प्राइम	-11.3447
सुबह	-11.3451
▁बांधकाम	-11.3455
▁ज़्यादातर	-11.3456
▁एलर्जी	-11.3458
87	-11.3458
▁पायदान	-11.3463
खंड	-11.3464
▁ज़िम्मेदारी	-11.3464
▁Android	-11.3466
▁महाराजा	-11.3467
▁पनीर	-11.3467
▁निवडणुकीत	-11.3467
▁अर्ध	-11.3468
▁बेचा	-11.3472
जाने	-11.3473
▁गंध	-11.3473
▁मुस्कान	-11.3474
▁चीज़ों	-11.3476
ाचार्य	-11.3476
▁97	-11.3477
▁नवजात	-11.3478
▁प्रिंस	-11.3479
▁करवाना	-11.3482
ion	-11.3485
▁अनुसरण	-11.3486
न्न	-11.3489
▁मॉल	-11.349
शाह	-11.349
▁नर्स	-11.3491
▁नीम	-11.3495
▁लू	-11.3497
▁सेवानिवृत्त	-11.3499
▁जालपृष्ठ	-11.35
▁फेक	-11.35
▁उमा	-11.3501
▁घटित	-11.3503
▁चिकित्सकों	-11.3503
▁अंगों	-11.3504
▁प्लेयर	-11.3505
la	-11.3506
शुभ	-11.3507
▁समाप्ति	-11.3507
▁सोलर	-11.351
▁वास्तु	-11.3512
▁साध	-11.3513
▁थोडा	-11.3515
▁प्यारी	-11.3517
▁बर्दाश्त	-11.3524
▁ईवीएम	-11.3524
▁चैन	-11.3525
▁फेस्टिवल	-11.3528
ta	-11.3529
▁कार्यकारिणी	-11.3529
▁टास्क	-11.353
▁टोपी	-11.3532
▁टोक्यो	-11.3532
▁उतारने	-11.3532
▁चादर	-11.3533
▁लगेगी	-11.3537
್	-11.354
▁मिश्रित	-11.3543
▁संवेदना	-11.3544
▁चर	-11.3549
नार	-11.3552
▁सरसों	-11.3553
▁बीकानेर	-11.3553
-6	-11.3556
▁डीजीपी	-11.3556
▁निहित	-11.3559
▁फेमस	-11.3561
▁हड्डी	-11.3562
▁कामगार	-11.3564
▁हिन्दुओं	-11.3565
लाइफ	-11.3569
▁त्रुटि	-11.3573
▁उनपर	-11.3574
नारायण	-11.3574
▁1996	-11.3577
▁बसा	-11.3577
▁2016-17	-11.3579
▁अबतक	-11.358
शिव	-11.358
▁जनहित	-11.3582
▁मठ	-11.3583
▁अमेठी	-11.3584
▁आश्चर्यजनक	-11.3587
▁नवरात्रि	-11.3589
▁संगीतकार	-11.3591
▁अद्वितीय	-11.3591
*.	-11.3592
▁Y	-11.3592
▁स्थिरता	-11.3593
▁India	-11.3593
▁उत्तरप्रदेश	-11.3594
प्स	-11.3594
ीकृत	-11.3598
▁ब्लाक	-11.3605
ter	-11.3605
▁खोजें	-11.3609
▁प्रभात	-11.361
▁फ्लोर	-11.361
▁मुजफ्फरपुर	-11.3613
▁वास	-11.3613
यु	-11.3615
▁मीठा	-11.3618
-11	-11.3619
▁नबी	-11.362
▁तालिका	-11.3626
र्व	-11.3627
▁प्रमाणात	-11.3629
▁दिव्यांग	-11.3631
▁मालिश	-11.3633
▁हीरा	-11.3634
▁निवेशक	-11.3637
▁89	-11.3637
▁क्रॉस	-11.3637
मुख	-11.3638
▁किम	-11.3639
▁In	-11.3639
▁मनोवैज्ञानिक	-11.3641
▁देवगन	-11.3641
▁प्रतिबद्ध	-11.3642
▁गुरुग्राम	-11.3642
▁इंस्टॉल	-11.3642
▁काटकर	-11.3643
▁दहेज	-11.3643
▁एक्सेस	-11.3644
▁गर्ग	-11.3644
▁पहाड़ों	-11.3646
ब्लॉग	-11.3646
▁प्रतिबद्धता	-11.3646
▁मीना	-11.3649
▁कमरा	-11.365
▁शहरात	-11.365
▁दुरुपयोग	-11.3652
▁पिछड़ा	-11.3652
▁लॉस	-11.3652
ढा	-11.3654
▁प्रतियोगी	-11.3655
▁याची	-11.3655
खाना	-11.3656
▁१२	-11.3657
▁डीसी	-11.3658
▁वाशिंगटन	-11.3659
▁सरकारने	-11.3661
▁तैनाती	-11.3662
▁स्टार्ट	-11.3663
▁जैक	-11.3663
▁सां	-11.3664
▁कपल	-11.3666
▁आक्रोश	-11.3667
ठी	-11.3667
विकास	-11.3673
व्यवस्था	-11.3675
▁घटाने	-11.3678
ाइज	-11.3678
▁सहवाग	-11.3684
▁सचिवालय	-11.3688
▁बैडमिंटन	-11.3695
▁प्रिंसिपल	-11.37
▁इंजेक्शन	-11.3702
▁संलग्न	-11.3702
महिला	-11.3703
ासन	-11.3704
▁तोड़ा	-11.3704
Tags	-11.3705
बर्ग	-11.3707
▁कस्बे	-11.3716
▁समर	-11.3717
मां	-11.3718
▁प्रोडक्ट्स	-11.3719
67	-11.3719
▁सांगली	-11.3719
▁मंदी	-11.3722
▁87	-11.3722
▁बढ़ाई	-11.3724
▁तर्ज	-11.3727
▁पैरा	-11.373
▁उन्नाव	-11.3732
▁ट्रांस	-11.3734
85	-11.3734
▁इलाका	-11.3735
▁फ्रेम	-11.3735
अनु	-11.3742
वती	-11.3742
▁मशीनों	-11.3742
▁विगत	-11.3746
लोग	-11.3746
°	-11.3746
▁रामनाथ	-11.3747
▁सम्	-11.3747
▁अकेली	-11.3749
▁ज्वाइन	-11.3752
टिक	-11.3754
▁वेक्टर	-11.3755
▁साइज	-11.3758
धाम	-11.3759
▁हिंदुत्व	-11.3759
▁उन्नति	-11.376
वालों	-11.3762
▁घेरे	-11.3763
▁आवेदक	-11.3766
▁मेनू	-11.3766
▁लता	-11.3768
▁Published	-11.3771
▁गोस्वामी	-11.3773
98	-11.3777
▁रै	-11.3778
▁गूंज	-11.378
▁नम	-11.378
▁पूर्वानुमान	-11.3781
▁हड़कंप	-11.3781
▁चाहत	-11.3782
▁मुल्क	-11.3785
▁क़	-11.3789
▁अनूप	-11.3793
▁अंधेरा	-11.3794
▁कन्	-11.3798
▁इंडस्ट्रीज	-11.3798
▁एनसीपी	-11.3802
▁पॉप	-11.3806
▁गम	-11.3807
तः	-11.3811
▁उच्चारण	-11.3811
▁<	-11.3811
▁मजबूरी	-11.3813
▁टकराव	-11.3814
▁वाणिज्यिक	-11.3814
▁आपत्तिजनक	-11.3814
▁सेब	-11.3816
ौल	-11.3817
▁गण	-11.3818
बैंक	-11.3819
▁प्रजनन	-11.382
.50	-11.3821
▁कण	-11.3822
".	-11.3824
▁गोपनीयता	-11.3828
▁आमने	-11.3829
धान	-11.3832
▁अपराधों	-11.3836
ोर	-11.384
▁बहिष्कार	-11.3841
▁असता	-11.3843
कोर	-11.3844
78	-11.3845
ya	-11.3846
अरे	-11.3846
▁चक्रवर्ती	-11.385
बन	-11.385
▁कू	-11.3858
▁बापू	-11.3858
▁दांतों	-11.3864
▁किशोरी	-11.3864
ीं	-11.387
▁कच्चा	-11.3871
▁जायजा	-11.3874
▁प्रदर्शनी	-11.3875
▁108	-11.3879
यान	-11.388
▁करुन	-11.3886
▁भरकर	-11.3886
MP	-11.3886
▁पांड्या	-11.3886
गुजरात	-11.3887
संपादित	-11.3887
▁ब्राउन	-11.3889
▁रिकवरी	-11.3891
नल	-11.3894
▁आईफोन	-11.3895
▁करण्याचे	-11.3895
▁स्‍	-11.3897
▁लिव	-11.3897
▁सोते	-11.3899
▁वसूल	-11.3903
▁प्रजाति	-11.3905
▁कृत्रिम	-11.3912
▁चलाना	-11.3913
▁अफवाह	-11.3915
▁उल्टा	-11.3916
▁वॉल	-11.3918
▁नमाज	-11.3918
▁रवैया	-11.392
▁भि	-11.3921
▁चहल	-11.3923
▁कर्नल	-11.3924
▁Facebook	-11.3928
▁स्क	-11.393
▁पेशे	-11.3932
▁मणि	-11.3932
▁प्रवर्तन	-11.3934
▁७	-11.3937
एसटी	-11.3938
िज	-11.3939
▁यशवंत	-11.394
▁चाहा	-11.394
▁खरीदते	-11.3944
▁थोक	-11.3945
▁बड़	-11.3945
▁रण	-11.3946
मध्यप्रदेश	-11.3948
▁]	-11.3948
▁आहत	-11.395
कॉपी	-11.3951
बंदी	-11.3951
प्रेम	-11.3951
&	-11.3951
▁राशियों	-11.3954
▁तहरीर	-11.3955
▁नौजवान	-11.3955
▁घुसपैठ	-11.3957
मीन	-11.3957
टिंग	-11.3958
84	-11.3959
▁सैयद	-11.3967
▁मिट	-11.3968
वाणी	-11.3969
ent	-11.3971
te	-11.3973
सिल	-11.3974
82	-11.3975
▁पाबंदी	-11.3976
▁बलि	-11.3977
▁मुस्लिमों	-11.3978
▁तुम्हे	-11.3978
▁बृहस्पतिवार	-11.3979
फिल	-11.398
▁बंदूक	-11.398
ीच्या	-11.3981
क्योंकि	-11.3987
▁क्षतिग्रस्त	-11.3991
▁चढ़कर	-11.3993
▁परेड	-11.3994
▁सैन	-11.3995
▁ग्रैंड	-11.3995
▁ज़रा	-11.3997
न्यूज़	-11.3998
▁बोध	-11.3998
▁लटका	-11.3999
▁ज्या	-11.4
▁किसके	-11.4002
▁विशेषकर	-11.4003
▁बढ़ना	-11.4003
▁धनी	-11.4004
▁सुमारास	-11.4006
▁प्रायः	-11.401
▁दृढ़	-11.4011
▁प्रगतिशील	-11.4011
▁रूचि	-11.4011
▁गयीं	-11.4012
▁संन्यास	-11.4012
▁बाँध	-11.4013
▁¥	-11.402
▁ठंडे	-11.402
▁असामान्य	-11.402
▁हार्मोन	-11.4021
▁कदर	-11.4023
पोस्ट	-11.4024
▁क्षेत्रफल	-11.4028
▁२०	-11.4028
▁1991	-11.4029
▁सिल्वर	-11.4029
▁संज्ञा	-11.4031
▁निजात	-11.4033
▁संगठित	-11.4034
▁टि	-11.4034
भू	-11.4036
▁तप	-11.4036
▁सत	-11.4038
▁विष	-11.4039
कृषि	-11.4042
॥.	-11.4043
▁बताओ	-11.4045
▁प्रत्याशियों	-11.4046
▁अरुणाचल	-11.4048
▁करणार्‍या	-11.405
एंगे	-11.4053
▁आविष्कार	-11.4054
▁अपेक्षाकृत	-11.4059
्म	-11.4059
▁पहुँचने	-11.4059
▁संपादन	-11.4062
र्म	-11.4062
▁गोबर	-11.4064
▁ग्रस्त	-11.4065
खबर	-11.4068
स्वामी	-11.4068
▁सेठ	-11.407
▁वैभव	-11.4071
▁किचन	-11.4074
वट	-11.4078
▁इमरजेंसी	-11.4078
मानी	-11.4081
▁खासी	-11.4082
ांसाठी	-11.4084
▁कुर	-11.4084
▁खासा	-11.4085
▁गुर्जर	-11.4088
अमेरिका	-11.4088
▁डिपार्टमेंट	-11.4089
▁फैले	-11.4092
▁दिवंगत	-11.4093
ॉल	-11.4095
▁तुला	-11.4096
▁लगेंगे	-11.4102
ेज़	-11.4103
वाने	-11.4104
रम	-11.4104
धी	-11.4105
▁बढ़ाता	-11.4106
▁पूर्वांचल	-11.4107
मह	-11.4108
▁स्टीव	-11.411
▁क्रिप्टो	-11.4111
गें	-11.4112
इसका	-11.4115
प्रकाश	-11.4116
▁गज	-11.4117
दोनों	-11.4122
▁ताला	-11.4124
▁पक्षियों	-11.4126
▁यूरो	-11.4127
▁बाबत	-11.4127
ाकडे	-11.4128
م	-11.4128
▁पॉइंट	-11.4129
▁बाबर	-11.4129
▁700	-11.413
▁पेटीएम	-11.4131
▁मुनि	-11.4137
▁नाशिक	-11.4137
▁वैचारिक	-11.4141
पांच	-11.4142
▁पॉवर	-11.4149
▁पेय	-11.4155
▁बंगाली	-11.4155
▁मिन	-11.4157
केंद्र	-11.4158
▁सईद	-11.4159
▁टुडे	-11.416
▁.19	-11.416
▁दवाई	-11.4163
▁दुखद	-11.417
▁परस्पर	-11.4173
▁पंचांग	-11.4174
▁चलें	-11.4175
▁ठाण्यात	-11.4177
▁छपी	-11.4182
▁विशेषताओं	-11.4183
▁इकाइयों	-11.4184
▁नसल्याने	-11.4185
▁सशस्त्र	-11.4185
पटना	-11.4187
▁कैल्शियम	-11.419
▁फर	-11.419
▁मोहित	-11.4191
▁`	-11.4191
▁वायदा	-11.4191
▁पीते	-11.4195
▁भु	-11.4196
▁►	-11.4204
▁बर्थडे	-11.4205
▁झांसी	-11.4207
.18	-11.4208
um	-11.4208
▁पुरूष	-11.4211
▁मौतों	-11.4213
▁Website	-11.4213
▁टैप	-11.4213
ड़िया	-11.4213
▁प्रयोगशाला	-11.4215
▁मुल	-11.4216
▁सावन	-11.4217
रोग	-11.4217
▁अंकल	-11.422
▁स्रोतों	-11.422
▁धरण	-11.4221
▁चीज़ें	-11.4221
▁असमर्थ	-11.4221
▁चलाए	-11.4225
▁विदाई	-11.423
▁बचाओ	-11.4231
नों	-11.4231
पणे	-11.4232
हान	-11.4234
▁खण्ड	-11.4234
▁विक्रेता	-11.4236
▁ऋषभ	-11.4237
▁ट्राई	-11.4237
▁सातारा	-11.4243
▁नकार	-11.4244
▁रैना	-11.4246
▁उपरांत	-11.4246
▁गिराया	-11.4254
▁अन्तर	-11.4256
ي	-11.4258
▁चौकशी	-11.4258
▁पालतू	-11.4259
▁-19	-11.4264
ি	-11.4264
▁फर्श	-11.4266
َ	-11.4266
▁अनुचित	-11.4269
अक्टूबर	-11.4271
द्	-11.4271
हित	-11.4273
▁कस्टम	-11.4273
▁टुकड़ा	-11.4274
▁खासियत	-11.4276
▁सेव	-11.4276
▁जवाहरलाल	-11.4278
▁छवियों	-11.428
▁अविनाश	-11.4284
▁प्रयुक्त	-11.4285
▁विद्यालयों	-11.4287
man	-11.4292
▁जिन्दगी	-11.4295
▁लागले	-11.4295
▁१५	-11.4299
भि	-11.43
▁संभवतः	-11.4301
▁त्याचा	-11.4302
▁बाएं	-11.4305
▁बुलाई	-11.431
▁कोल	-11.431
▁शै	-11.4313
▁विरोधियों	-11.4313
▁अपेक्षित	-11.4315
ॉन	-11.4316
▁आश्वस्त	-11.4321
▁साबुन	-11.4321
▁बंधक	-11.4322
▁शांतिपूर्ण	-11.4324
▁बट	-11.4325
▁मीन	-11.4326
▁राज्‍य	-11.4326
▁स्विच	-11.4331
▁posts	-11.4333
▁एप्पल	-11.4338
▁गेस्ट	-11.434
▁प्रक्रियाओं	-11.4342
▁परमात्मा	-11.4342
▁कमला	-11.4343
▁कार्यशाला	-11.4344
तन	-11.4346
▁टूर	-11.4349
▁कांफ्रेंस	-11.435
▁संदर्भित	-11.4351
▁मंशा	-11.4353
▁उदास	-11.4355
कांत	-11.4356
▁त्यागी	-11.4358
▁चलेगी	-11.436
त्त	-11.4361
मंडल	-11.4362
▁यादगार	-11.4363
कन	-11.4363
▁उपग्रह	-11.4365
▁पुस्तकें	-11.4365
▁उपवास	-11.4367
षा	-11.4374
▁बिता	-11.4377
▁सनसनी	-11.4378
▁ब्रह्मा	-11.4378
बेल	-11.438
▁डेवलपमेंट	-11.4381
संज्ञा	-11.4383
▁चालान	-11.4384
▁आरजेडी	-11.4385
सीएम	-11.4387
▁देत	-11.4388
▁1992	-11.4391
▁ट्रे	-11.4393
▁ऊंचे	-11.4398
▁अंकुश	-11.44
▁महिमा	-11.4401
▁घाटे	-11.4402
▁बनावट	-11.4402
▁आयुष	-11.4402
▁रेस्तरां	-11.4403
ाशी	-11.4407
▁कौ	-11.4407
,"	-11.4408
▁सत्तारूढ़	-11.4409
▁दिखाकर	-11.4409
▁मलेशिया	-11.441
▁राष्ट्रवाद	-11.4412
▁ब्यूटी	-11.4417
▁प्रज्ञा	-11.4418
जगह	-11.4418
▁भांति	-11.4419
ंगल	-11.442
इं	-11.442
माने	-11.4425
▁कैन	-11.4428
ाइल	-11.4428
▁गरिमा	-11.4432
ोगे	-11.4432
▁आपण	-11.4432
▁एल्बम	-11.4432
ट्टी	-11.4435
▁पुकार	-11.4437
ाम	-11.4437
▁आदर	-11.4439
▁ध्रुव	-11.444
lo	-11.4442
▁धाराओं	-11.4447
नियम	-11.4447
▁तीर	-11.4447
▁डिलीट	-11.4447
मधून	-11.4449
▁इरफान	-11.445
▁सत्ताधारी	-11.4452
▁जस	-11.4452
▁सर्विसेज	-11.4453
▁इस्तीफे	-11.4453
▁विज्ञप्ति	-11.4453
द्ध	-11.4453
▁वैवाहिक	-11.4456
▁गजब	-11.4461
▁माथे	-11.4461
बीर	-11.4462
▁डिफेंस	-11.4462
▁मुश्किलें	-11.4462
▁भागात	-11.4462
▁हिंद	-11.4463
▁प्रासंगिक	-11.4463
▁पक्का	-11.4463
▁आवासीय	-11.4463
▁कन्हैया	-11.4464
▁डेटिंग	-11.4467
▁शाळा	-11.4468
▁घोर	-11.4469
▁जातकों	-11.4469
▁खातिर	-11.4473
▁राज्यातील	-11.4473
▁काय	-11.4475
राजा	-11.4479
▁पाटिल	-11.448
ाँ	-11.4483
▁जानेंगे	-11.4483
▁II	-11.4486
▁दीवाली	-11.4486
▁रचनाओं	-11.4488
जनसांख्यिकी	-11.4489
▁रुके	-11.449
▁वर्चस्व	-11.4492
▁चोटी	-11.4492
▁सोवियत	-11.4498
▁तबीयत	-11.4498
▁निकलकर	-11.4499
▁सॉन्ग	-11.45
न्यू	-11.4501
▁अन्‍य	-11.4502
ानुसार	-11.4505
▁डब्ल्यू	-11.4506
कालीन	-11.4509
▁सेन	-11.4511
▁यामध्ये	-11.4512
▁याचा	-11.4513
▁मारुति	-11.4514
▁iPhone	-11.4514
दन	-11.4522
▁उभर	-11.4522
▁उपक्रम	-11.4523
▁वकालत	-11.4523
▁टायर	-11.4526
ट्टा	-11.4527
▁जमात	-11.4528
▁ड्राइविंग	-11.4529
▁अंदाज़	-11.453
▁वेबसाइटों	-11.4531
▁मिळत	-11.4532
▁परिवेश	-11.4533
ant	-11.4536
▁भड़ास	-11.4536
▁धरोहर	-11.4536
थे	-11.4537
▁फट	-11.4541
▁व्यर्थ	-11.4543
पुरुष	-11.4545
Pinterest	-11.4546
▁भरना	-11.4547
▁झाल्याने	-11.4549
ی	-11.4557
▁जेडीयू	-11.4557
▁नॉर्थ	-11.456
िकल	-11.456
▁जुलूस	-11.4562
▁विद्वानों	-11.4562
▁कनेक्टिविटी	-11.4568
स्‍त	-11.4574
▁लेबल	-11.4575
▁उग्र	-11.4578
▁d	-11.4579
▁आत्मनिर्भर	-11.458
ن	-11.458
सामान्य	-11.4581
▁होईल	-11.4581
.+	-11.4582
▁विंग	-11.4583
▁बहा	-11.4584
▁अन्त	-11.4585
▁चैलेंज	-11.4587
▁चाहने	-11.4588
▁सुपरहिट	-11.4591
▁अनुभवों	-11.4594
▁लड़ाकू	-11.4594
▁Video	-11.4596
▁फैट	-11.4597
▁शर्मनाक	-11.4601
ोली	-11.4603
▁जानलेवा	-11.4604
संपर्क	-11.4604
उसने	-11.4607
ut	-11.4608
▁रोकना	-11.4608
▁नैतिकता	-11.4611
वेद	-11.4611
▁उत्तरा	-11.4611
.04	-11.4614
▁पतली	-11.4614
▁रॉक	-11.4615
▁बद	-11.4615
एड	-11.4615
▁खासदार	-11.4617
दू	-11.4617
▁पुढे	-11.4617
100	-11.4618
▁1984	-11.4619
▁आराधना	-11.4619
बाबत	-11.4619
▁अनदेखी	-11.462
▁सोलापूर	-11.4623
ाब	-11.4623
▁स्वतः	-11.4625
▁नौकरियां	-11.4627
▁पावन	-11.4627
▁एनजीओ	-11.4629
▁महोदय	-11.463
▁निभाते	-11.463
▁मतदार	-11.463
▁सचेत	-11.4632
▁आज्ञा	-11.4633
ण्याचा	-11.4634
▁अड्डा	-11.4634
▁टैक्सी	-11.4635
▁दबंग	-11.4635
▁अकाली	-11.4637
▁निर्वाचित	-11.4638
सेट	-11.4639
▁कोरोनावायरस	-11.4641
▁नानक	-11.4642
▁क्लीन	-11.4643
▁मीट	-11.4644
▁संभावनाएं	-11.4644
▁दौलत	-11.4652
▁उपेक्षा	-11.4653
्टर	-11.4654
▁रिटायर	-11.4654
▁एकूण	-11.4658
▁पूछते	-11.4659
▁दवाएं	-11.4661
▁वैसी	-11.4662
▁दूतावास	-11.4662
▁राजदूत	-11.4666
▁सीबीएसई	-11.4669
▁5000	-11.4674
▁सलाम	-11.4676
▁लोकेशन	-11.4678
बैक	-11.4679
माँ	-11.468
यात्रा	-11.468
▁लक्ष्यों	-11.468
िप	-11.4682
▁वैट	-11.4688
ap	-11.469
▁बाला	-11.4691
▁चोद	-11.4692
ल्याने	-11.4694
सितंबर	-11.4699
▁क्लासिक	-11.47
▁बेल्ट	-11.4702
▁पैड	-11.4703
▁भोज	-11.4703
कथा	-11.4704
▁पकड़कर	-11.4704
▁घबरा	-11.4704
▁संभाग	-11.4708
चक	-11.4709
▁उभार	-11.4709
▁प्यारे	-11.471
▁सक्सेना	-11.4711
्द	-11.4711
▁अल्प	-11.4716
▁कैपिटल	-11.4717
▁पेंटिंग	-11.4718
▁सेटअप	-11.4721
▁निकालना	-11.4721
▁माधव	-11.4722
hide	-11.4722
▁दावों	-11.4724
▁उपासना	-11.4724
▁विद	-11.4727
▁तबाही	-11.473
▁मतों	-11.473
नीय	-11.473
▁बताकर	-11.4731
as	-11.4731
▁८	-11.4732
▁मुहर	-11.4732
▁मेमोरी	-11.4733
▁अनुपम	-11.4734
▁घाव	-11.4737
IN	-11.474
▁हाजिर	-11.4741
▁रामलीला	-11.4744
किंग	-11.4746
▁रजनीकांत	-11.4746
▁गाजीपुर	-11.4747
im	-11.4748
▁उद्यम	-11.4748
▁कैट	-11.4752
▁नल	-11.4752
▁चार्जिंग	-11.4754
▁अलविदा	-11.4755
▁पहनकर	-11.4756
▁घोल	-11.4757
ेक	-11.4758
▁विज	-11.4759
▁विश्वनाथ	-11.4759
उल	-11.4762
▁सफ़र	-11.4763
▁वाम	-11.4764
:-.	-11.4766
▁सिक्के	-11.477
ष्ठ	-11.4772
▁आवाहन	-11.4773
▁सुप्रीमो	-11.4774
भूत	-11.4776
योगी	-11.4778
▁गानों	-11.4779
▁सिग्नल	-11.4779
पाठ	-11.4779
▁सर्वप्रथम	-11.4782
ak	-11.4782
▁सिखाया	-11.4784
▁विनाश	-11.4785
▁व्याप्त	-11.4785
▁नमूना	-11.4786
▁सीतारमण	-11.4786
▁लखीमपुर	-11.4789
ाइड	-11.479
▁मसलन	-11.4792
स्य	-11.4792
▁कन	-11.4793
▁सूख	-11.4793
▁प्राथमिकी	-11.4795
▁प्रजा	-11.48
▁आशुतोष	-11.4801
▁स्वार्थ	-11.4802
▁राज्यात	-11.4803
▁110	-11.4804
▁एज	-11.4805
▁पोर्टफोलियो	-11.4805
▁राजी	-11.4806
▁पढाई	-11.4808
▁चौराहे	-11.4809
▁होस्ट	-11.4811
▁पोशाक	-11.4812
▁विश्राम	-11.4813
रान	-11.4813
ऽ	-11.4814
▁शिवलिंग	-11.4818
ऑटो	-11.4821
▁करावी	-11.4822
वासी	-11.4823
टाइम	-11.4823
जित	-11.4824
▁ब्लॉगर	-11.4824
▁दमन	-11.4824
▁डालर	-11.4825
▁जमीनी	-11.4826
▁निकलती	-11.4827
▁फटकार	-11.4829
▁कर्क	-11.4829
▁नवरात्र	-11.4832
▁कर्फ्यू	-11.4832
▁बाहेर	-11.4833
चित	-11.4835
▁नाईक	-11.4837
बाज	-11.4839
▁अपार्टमेंट	-11.4842
▁टारगेट	-11.4842
▁प्ल	-11.4842
त्य	-11.4846
शु	-11.4847
Facebook	-11.4848
▁एनआरसी	-11.4849
▁लत	-11.4852
▁अहंकार	-11.4853
▁पत्तियों	-11.4855
▁फाड़	-11.4858
▁सूद	-11.4859
▁भौगोलिक	-11.486
▁मतगणना	-11.4862
माला	-11.4863
Post	-11.4865
▁इंडियंस	-11.4865
▁प्रहार	-11.4865
▁आसार	-11.4867
▁अपनों	-11.4868
▁विवेकानंद	-11.4869
▁चिर	-11.4869
लोगों	-11.4872
ग्र	-11.4874
▁ख़	-11.4874
▁अनावश्यक	-11.4875
▁चेंज	-11.4876
▁बजाज	-11.4878
न्ना	-11.488
ऑनलाइन	-11.4881
▁सत्यापन	-11.4882
▁श्वेता	-11.4883
स्ता	-11.4883
▁भड़क	-11.4884
▁सोमवारी	-11.4885
▁रखरखाव	-11.4885
▁सलीम	-11.4887
▁वेळ	-11.4888
▁वालो	-11.4888
▁डीएसपी	-11.489
ॉ	-11.4891
▁शत	-11.4891
डब्ल्यू	-11.4891
▁समझें	-11.4894
▁});	-11.4895
ैन	-11.4896
▁सिनेमाघरों	-11.4898
▁सुनना	-11.4898
▁post	-11.49
भूगोल	-11.4901
▁फे	-11.4902
▁आयाम	-11.4903
Step	-11.4904
▁.–	-11.4904
▁संभावनाओं	-11.4904
▁व्यतीत	-11.4905
▁परंपरागत	-11.4906
▁अल्पसंख्यकों	-11.4906
▁संकलन	-11.4907
अप्रैल	-11.4907
▁खरीदे	-11.491
▁फु	-11.491
▁जुटाने	-11.4911
▁डिप्लोमा	-11.492
▁कॉरपोरेट	-11.4921
▁अमेरिकन	-11.4922
चढ़ाव	-11.4923
्ले	-11.4924
de	-11.4926
▁द्विपक्षीय	-11.4928
▁आजीवन	-11.493
▁टेक्स्ट	-11.4931
मार्ग	-11.4931
▁उपलब्धियों	-11.4931
▁प्रातः	-11.4931
▁ध्वज	-11.4933
▁म्यांमार	-11.4935
▁चाची	-11.4936
▁पांव	-11.4937
▁श्रद्धालु	-11.4937
▁350	-11.4937
▁इनपुट	-11.4938
▁निमंत्रण	-11.4941
जुलाई	-11.4942
▁बग	-11.4942
व्या	-11.4944
▁वापिस	-11.4944
▁एजेंडा	-11.4947
▁स्टार्स	-11.4947
▁जया	-11.4949
▁विद्यमान	-11.495
▁खिला	-11.495
▁टकरा	-11.495
▁मौज	-11.4953
▁यथार्थ	-11.4954
▁गि	-11.4957
ाह	-11.4958
▁जुनून	-11.4959
▁दोहरा	-11.4959
▁अभियुक्त	-11.4959
▁बू	-11.4962
ज्योतिष	-11.4962
▁कीमती	-11.4962
▁इज्जत	-11.4964
हटाएं	-11.4965
▁मनरेगा	-11.4965
▁पत्तों	-11.4968
▁विकेटकीपर	-11.4968
कं	-11.497
▁टेप	-11.4973
्का	-11.4974
▁Instagram	-11.4975
▁मोक्ष	-11.4977
ल्ले	-11.4978
li	-11.4981
▁प्रसन्नता	-11.4982
▁दलाल	-11.4982
▁भंडारण	-11.4983
ावा	-11.4984
▁10,000	-11.4985
▁स्वदेशी	-11.4987
▁इरादे	-11.4988
▁g	-11.499
सामने	-11.499
▁देखरेख	-11.4992
ण्यास	-11.4994
.14	-11.4995
▁सब्जियां	-11.4997
▁समोर	-11.4998
▁ग्रेट	-11.5
वर्तमान	-11.5001
▁उठाई	-11.5001
▁शिकायतों	-11.5002
▁बच्चो	-11.5003
▁मार्शल	-11.5003
▁सैर	-11.5007
▁भरोसे	-11.5008
▁कोयले	-11.501
▁महानगर	-11.5011
▁सम्भव	-11.5012
आदर्श	-11.5015
▁युगल	-11.5017
▁दक्षता	-11.5023
▁वध	-11.5028
▁विधवा	-11.5031
▁उत्तीर्ण	-11.5032
▁पहुँचे	-11.5037
▁छोड़ी	-11.5038
▁मार्टिन	-11.5041
▁हज़ारों	-11.5045
▁निर्दोष	-11.5045
▁मुलाक़ात	-11.5048
कोड	-11.5052
88	-11.5052
▁अभिनव	-11.5052
▁सटे	-11.5053
▁मुंडा	-11.5054
४	-11.5056
▁थम	-11.5058
▁रोबोट	-11.5059
▁सगाई	-11.5063
▁रश्मि	-11.5064
94	-11.5065
मस	-11.5065
▁दिखी	-11.5067
▁संगत	-11.5069
▁वामपंथी	-11.5069
▁कवायद	-11.5072
क्त	-11.5074
▁डिटेल	-11.5074
▁झड़प	-11.5074
▁पूर्वक	-11.5075
▁जाप	-11.5075
▁आरामदायक	-11.5076
संयुक्त	-11.5077
▁प्रोसेस	-11.5078
चू	-11.508
▁फि	-11.508
▁डार्क	-11.5082
▁लाभार्थियों	-11.5083
▁जीवनी	-11.5083
▁130	-11.5083
▁राशिद	-11.5084
▁स्क्रिप्ट	-11.5084
▁विख्यात	-11.5086
▁खुशबू	-11.5087
.0.	-11.5087
▁पीला	-11.5089
▁सीमेंट	-11.5089
केंद्रीय	-11.5091
▁उपदेश	-11.5093
▁चतुर्थी	-11.5095
▁हफ्तों	-11.5096
चल	-11.5098
▁चुरा	-11.5099
▁फ़िल्मों	-11.5099
▁अशुभ	-11.5099
▁खाकर	-11.5102
▁चित्रण	-11.5102
▁रुझान	-11.5104
is	-11.5104
▁उपयोगिता	-11.5104
▁एनसीबी	-11.5105
▁Blog	-11.5105
▁धूम्रपान	-11.5107
▁साक्ष्य	-11.5108
▁दिसून	-11.511
▁मेजबानी	-11.511
▁उसपर	-11.511
वायरल	-11.5111
▁कसा	-11.5112
▁टा	-11.5112
▁स्तंभ	-11.5118
▁बखूबी	-11.5119
▁जिया	-11.512
▁फो	-11.5121
▁रेफर	-11.5122
▁अर्जी	-11.5122
▁बाजी	-11.5124
▁सीडी	-11.5124
▁कैंपस	-11.5124
▁जखमी	-11.5126
▁नाजुक	-11.5126
ैट	-11.5126
▁बिताने	-11.5127
▁इसमे	-11.5128
▁मानस	-11.5128
▁वगैरह	-11.5129
▁मिनटों	-11.513
▁ज़िक्र	-11.513
▁प्रतिकूल	-11.5131
▁नेताजी	-11.5131
▁नी	-11.5132
000	-11.5134
▁लोहिया	-11.5138
▁पिक	-11.5139
▁कार्यक्षेत्र	-11.5141
▁चूसने	-11.5143
▁अंतरिम	-11.5148
▁शीट	-11.5151
▁दिनभर	-11.5152
▁करूं	-11.5157
▁पहनी	-11.5157
▁दिनचर्या	-11.5162
▁सुलझाने	-11.5164
▁नागर	-11.5165
राहुल	-11.5165
▁आल्या	-11.5166
▁त्यांची	-11.5166
▁रॉकेट	-11.5166
ir	-11.5166
▁दुपारी	-11.517
▁सिमट	-11.5174
▁स्कैन	-11.5175
ine	-11.5175
परि	-11.5176
▁एनकाउंटर	-11.5177
▁सहारनपुर	-11.5178
▁प्रतिवर्ष	-11.5179
▁फ़ीसदी	-11.5187
गाँव	-11.5188
▁ईंट	-11.5188
▁180	-11.5188
▁प्रोफेशनल	-11.5192
▁फ्लू	-11.5193
▁नेत्र	-11.52
२०	-11.5201
▁मीणा	-11.5202
▁बोलता	-11.5203
क्यों	-11.5203
▁पिंक	-11.5206
▁विश्‍व	-11.5207
▁निर्	-11.5207
▁बंटवारे	-11.5208
▁पराजित	-11.5208
▁पीयूष	-11.5208
▁धुन	-11.5211
▁लेंस	-11.5213
गंगा	-11.5215
वारा	-11.5216
▁आपातकाल	-11.5217
▁शिल्प	-11.522
▁बरी	-11.5222
रेन	-11.5224
▁गोचर	-11.5224
▁हॉस्टल	-11.5225
▁मिटा	-11.5225
बीजेपी	-11.5227
▁घटी	-11.5228
▁शीतल	-11.5232
ul	-11.5233
दर्शन	-11.5234
▁सुरंग	-11.5236
▁शेड्यूल	-11.5237
रेट	-11.5238
▁प्रावधानों	-11.5239
ंबर	-11.524
▁ससुर	-11.524
▁गायत्री	-11.524
▁संपादित	-11.5241
▁अपार	-11.5243
ंदा	-11.5243
▁नीरव	-11.5243
▁विज्ञापनों	-11.5251
▁सुलभ	-11.5251
▁बल्ले	-11.5251
▁संवाददाताओं	-11.5252
▁.#	-11.5254
▁मोटर्स	-11.5254
▁एनडीटीवी	-11.5258
▁लैंड	-11.5258
▁उद्देश्यों	-11.5262
▁आरटीआई	-11.5263
▁शिकायतें	-11.5267
▁फोरम	-11.5269
▁जू	-11.527
▁प्रैक्टिस	-11.5273
▁1971	-11.5274
यल	-11.5278
▁हज	-11.5279
▁इराक	-11.5279
▁वानखेड़े	-11.528
ेय	-11.5282
▁योगेश	-11.5282
िज्म	-11.5284
▁किस्से	-11.5288
▁म्हणजे	-11.529
▁लेखिका	-11.5291
▁”.“	-11.5291
कविता	-11.5299
▁जुडी	-11.5301
▁एसएमएस	-11.5304
▁शान्ति	-11.5304
▁रचा	-11.5308
▁कारखाने	-11.5309
खाने	-11.5309
▁अफेयर्स	-11.5311
▁किंवा	-11.5312
सेल	-11.5313
ड़ों	-11.5315
\	-11.5316
विल	-11.5316
▁भैंस	-11.5317
▁चू	-11.5319
▁श्रेणियों	-11.5322
▁रोमन	-11.5322
▁सफ़ेद	-11.5328
▁विधा	-11.5328
.45	-11.5328
▁शासनाने	-11.5329
बरा	-11.5329
▁मेघालय	-11.5332
▁नासा	-11.5337
▁स्पष्टीकरण	-11.5338
▁शिया	-11.5341
वर्ग	-11.5342
▁फ्लैश	-11.5344
▁प्वाइंट	-11.5346
मंत्र	-11.5346
▁कुत्तों	-11.5349
▁हुड्डा	-11.5349
▁समकालीन	-11.535
ोरा	-11.5351
▁विरूद्ध	-11.5352
▁अल्	-11.5353
▁फॉर्मेट	-11.5353
▁रॉबर्ट	-11.5354
▁लियोन	-11.5354
साई	-11.5356
▁खुलासे	-11.536
▁दलील	-11.5362
टल	-11.5362
.07	-11.5364
▁समलैंगिक	-11.5364
▁फ्लिपकार्ट	-11.5366
▁चुनना	-11.5366
▁काउंटर	-11.5369
कन्या	-11.537
,999	-11.5374
▁कोशिशों	-11.5375
प्रस्तुतकर्ता	-11.5378
▁डिजाइनर	-11.5379
▁नर्सिंग	-11.5384
▁पारियों	-11.5384
▁अद्यतन	-11.5384
▁विसर्जन	-11.5384
▁पाली	-11.5384
▁जीवों	-11.5387
▁मं	-11.5387
▁भागलपुर	-11.5388
मित्र	-11.5392
▁पश्चात्	-11.5393
▁पसीना	-11.5394
▁छुट्टियों	-11.5395
▁होंठ	-11.5396
▁सोन	-11.5397
▁साखर	-11.5399
▁नीलम	-11.54
▁हमको	-11.5402
▁जगा	-11.5405
▁ठगी	-11.5408
▁राइट	-11.5408
शाला	-11.5409
▁सर्जिकल	-11.5409
▁h	-11.5415
▁कुक	-11.5416
ha	-11.5416
▁w	-11.542
▁निकलना	-11.542
▁गिरे	-11.542
▁पैकेट	-11.542
▁ग्रेटर	-11.5421
▁सुनीता	-11.5422
▁ठाणे	-11.5423
▁मुस्कुरा	-11.5423
ैं	-11.5423
▁सज्जन	-11.5423
▁1500	-11.5424
▁सतर्कता	-11.5428
▁Stories	-11.5429
▁तोड़कर	-11.5432
▁तड़प	-11.5434
भगवान	-11.5438
▁जप	-11.5439
▁आम्ही	-11.5441
▁दरें	-11.5441
▁देशवासियों	-11.5446
▁बनीं	-11.5447
▁पकाने	-11.5447
पीसी	-11.5449
▁1993	-11.5451
▁app	-11.5452
▁मनुष्यों	-11.5454
▁लगाव	-11.5455
▁प्राइमरी	-11.5456
▁मार्क्स	-11.546
▁हाइ	-11.546
▁घटाकर	-11.5461
ाली	-11.5462
▁सम्बन्धी	-11.5463
▁बीमारियां	-11.5464
वरून	-11.5466
▁हड्डियों	-11.5467
▁धाव	-11.5469
▁जासूसी	-11.5469
▁आघाडी	-11.5472
▁कब्ज	-11.5472
▁त्याच्या	-11.5476
▁दत्ता	-11.5483
▁उबाल	-11.5487
ीचे	-11.5488
▁दंगे	-11.5489
▁मुमकिन	-11.5489
▁17.	-11.549
▁डेयरी	-11.549
▁सांग	-11.549
▁पहनना	-11.549
वारी	-11.5491
▁डीएनए	-11.5492
▁चूर्ण	-11.5496
▁महर्षि	-11.5497
▁त्यासाठी	-11.5498
▁देऊन	-11.55
▁औऱ	-11.55
▁बहने	-11.5502
▁मल्होत्रा	-11.5503
▁सुसाइड	-11.5504
▁गेमिंग	-11.5504
उद्धरण	-11.5506
्टी	-11.5509
▁सेशन	-11.5509
फुल	-11.551
▁विश्‍वास	-11.5511
▁जायें	-11.5512
▁चै	-11.5514
ग्रा	-11.5517
.16	-11.5517
▁शीतकालीन	-11.5517
▁मिलाएं	-11.552
फोन	-11.552
▁©	-11.5524
▁खत	-11.5526
▁आटे	-11.5527
.4.	-11.5527
्ल	-11.5532
रल	-11.5533
▁‪	-11.5533
▁मर्यादा	-11.5535
▁ज़िम्मेदार	-11.5535
▁खुदाई	-11.5535
▁सुकून	-11.5535
▁कबूल	-11.5538
▁.7.	-11.5538
▁रुकने	-11.5542
▁ब्रश	-11.5544
▁सुरुवात	-11.5546
▁चेतन	-11.5546
▁काजल	-11.5548
▁मद	-11.555
▁चित्रों	-11.555
▁खर	-11.5551
▁बीएसपी	-11.5555
.40	-11.5556
ांकडून	-11.5556
ैल	-11.5565
▁भयावह	-11.5565
▁परिक्रमा	-11.5567
▁विराम	-11.5568
▁साईं	-11.5568
▁रविशंकर	-11.5571
प्रिय	-11.5572
▁धमाल	-11.5573
▁धूमधाम	-11.5574
▁अनुपालन	-11.5574
▁बँक	-11.5576
बहन	-11.5577
▁लाता	-11.5577
कॉमर्स	-11.5578
▁वायर	-11.5578
▁मक्का	-11.5582
▁मजे	-11.5584
▁जोड़ना	-11.5588
▁दोगुना	-11.5591
▁धर्मों	-11.5592
▁९	-11.5592
▁वेट	-11.5595
▁चिल्ला	-11.5595
▁ध्वस्त	-11.5595
तार	-11.5596
▁पड़ाव	-11.5596
▁नोबेल	-11.5599
▁विस्फोटक	-11.5599
▁झगड़े	-11.56
▁लंच	-11.56
▁हक़	-11.56
न्यूज	-11.5602
▁शादीशुदा	-11.5604
▁नूर	-11.5604
▁मौतें	-11.5604
▁छल	-11.5605
▁फ़ोटो	-11.5607
गीत	-11.5608
▁सुने	-11.5608
▁अम	-11.5609
▁ढेरों	-11.5609
▁ठंडी	-11.5609
▁रिहाई	-11.5611
▁घृणा	-11.5612
शाम	-11.5617
▁~	-11.5617
▁करणार	-11.5617
▁त्यांचे	-11.5618
▁हजारे	-11.562
▁ऑफलाइन	-11.5621
म्म	-11.5623
▁वाजता	-11.5623
▁कारोबारियों	-11.5624
▁नजरअंदाज	-11.5624
हमारा	-11.5625
रत्न	-11.5625
▁कोलेस्ट्रॉल	-11.5627
▁गाल	-11.5628
▁पन्ने	-11.5629
▁भरपाई	-11.5629
▁हात	-11.5631
द्द	-11.5631
▁बांट	-11.5631
इल	-11.5633
ठीक	-11.5635
▁नगरपालिका	-11.5639
▁सुमित	-11.5639
▁एशियन	-11.564
▁मंथन	-11.564
अपराध	-11.5642
▁जीन	-11.5644
▁टैब	-11.5644
▁खिल	-11.5648
▁16.	-11.565
▁धर्मशाला	-11.5651
▁मुन्ना	-11.5651
▁घटने	-11.5652
▁शायर	-11.5654
▁असते	-11.5657
▁लिपि	-11.5659
▁बांटने	-11.566
स्‍	-11.5661
“	-11.5665
▁नड्डा	-11.5666
▁वृत्त	-11.5669
डिंग	-11.567
▁टुकड़ों	-11.5671
पीएस	-11.5671
निर्देश	-11.5671
▁सभागार	-11.5672
▁अब्बास	-11.5677
▁रक्तचाप	-11.5678
विक	-11.568
अंतरराष्ट्रीय	-11.5681
▁खट्टर	-11.5681
▁साठ	-11.5687
▁n	-11.5687
लिस	-11.5688
▁कंटेनर	-11.5688
▁त्यात	-11.5693
▁मुह	-11.5693
▁website	-11.5693
▁1995	-11.5694
▁पीपल	-11.5696
▁दाखिला	-11.5697
▁बै	-11.5698
▁एसयूवी	-11.5699
▁उम्मीदें	-11.57
▁साइटों	-11.5705
कहानी	-11.5706
डु	-11.5707
▁पेशाब	-11.571
▁होत्या	-11.5716
▁चश्मा	-11.5717
टॉप	-11.5718
पात	-11.5722
▁कुत्ता	-11.5725
▁हेल्दी	-11.5725
▁नवजोत	-11.5726
▁स्वत	-11.5728
ग़	-11.573
▁कैप्शन	-11.5732
▁पंख	-11.5735
ावली	-11.5737
▁बर्फबारी	-11.5739
▁छलांग	-11.5739
▁शुमार	-11.5739
ियल	-11.5742
▁कैदियों	-11.5744
▁झूठी	-11.5747
ंटा	-11.5748
ैक	-11.5748
▁नारेबाजी	-11.575
पक	-11.5752
▁जीवंत	-11.5752
▁प्रतिद्वंद्वी	-11.5753
▁जायसवाल	-11.5753
▁हारने	-11.5755
▁आईजी	-11.5756
▁दशहरा	-11.5757
.30	-11.5759
▁पारदर्शिता	-11.576
▁गन	-11.5763
[	-11.5763
▁नमन	-11.5764
▁ऋतिक	-11.5764
▁अनुभूति	-11.5764
▁हस्तियों	-11.5765
▁गोल्डन	-11.577
▁मैरी	-11.5773
वंत	-11.5774
▁इक्विटी	-11.5774
करी	-11.5777
▁देन	-11.5777
▁साधते	-11.5778
▁लड़ते	-11.5779
▁ढांचा	-11.5779
Share	-11.5779
▁घूमते	-11.5782
ण्या	-11.5783
▁144	-11.5784
▁लाभार्थी	-11.5785
Posted	-11.5786
▁हैसियत	-11.5786
▁गतिविधियां	-11.5786
▁करू	-11.5792
▁११	-11.5796
ry	-11.5803
▁हिना	-11.5806
▁ठोक	-11.5807
▁चक	-11.5808
▁2021:	-11.5809
लाइट	-11.5812
रोज	-11.5822
▁सावरकर	-11.5822
िंदर	-11.5823
ity	-11.5823
▁तांत्रिक	-11.5823
▁प्रोड्यूसर	-11.5823
▁मिलान	-11.5823
▁कसम	-11.5824
▁प्लानिंग	-11.5826
▁लेटर	-11.5828
▁देखील	-11.5829
कोविड	-11.583
▁चौटाला	-11.5833
▁पर्याय	-11.5836
▁अकसर	-11.5838
By	-11.5839
▁धनु	-11.584
जबकि	-11.584
▁निशा	-11.5844
कर्ताओं	-11.5845
▁तालुक्यात	-11.5848
▁बॉय	-11.5848
▁प्रसव	-11.585
▁ग्रंथों	-11.5851
कता	-11.5852
▁उपराष्ट्रपति	-11.5852
▁WhatsApp	-11.5854
▁गुजराती	-11.5856
▁ओह	-11.5858
वश	-11.5859
▁★	-11.5859
▁अंग्रेज	-11.586
▁बैंगलोर	-11.5862
▁क़दम	-11.5862
▁उल्टी	-11.5863
▁--	-11.5864
▁पाय	-11.5864
▁यूके	-11.5866
▁यीशु	-11.5868
▁घने	-11.587
▁1950	-11.587
्यात	-11.5873
▁बनवाया	-11.5874
▁आयरलैंड	-11.5876
▁खोलकर	-11.5877
▁मिलन	-11.5878
बाजार	-11.5879
▁कार्यो	-11.5882
▁1997	-11.5886
▁तपस्या	-11.5888
▁वांछित	-11.5888
▁महमूद	-11.589
▁128	-11.5896
▁एमडी	-11.5896
▁मोल	-11.5896
▁यांच्यासह	-11.5897
▁भगवा	-11.5898
ate	-11.5901
गुण	-11.5902
▁फंसा	-11.5904
ंध	-11.5909
रोड	-11.591
▁बेर	-11.5912
▁बहाना	-11.5912
▁रायबरेली	-11.5913
▁इमारतों	-11.5913
बिन	-11.5914
्ब	-11.5915
find	-11.5915
▁झंडे	-11.5916
▁सिल	-11.5916
▁संप	-11.5918
शिप	-11.592
▁गुरूवार	-11.5921
▁पार्थिव	-11.5921
▁गोरा	-11.5921
ر	-11.5923
▁रॉ	-11.5924
ुस	-11.5924
▁विद्यापीठ	-11.5928
▁माधुरी	-11.5928
▁प्रदेशाध्यक्ष	-11.5928
▁चिकित्सालय	-11.5929
▁बुलाकर	-11.593
र्त	-11.593
▁उठते	-11.5932
सिर	-11.5935
.02	-11.5935
दिसंबर	-11.5936
▁पूरक	-11.5938
दम	-11.5938
▁आकृति	-11.594
मती	-11.594
▁सहभागी	-11.5943
▁कपास	-11.5946
▁बनवा	-11.5951
▁दावेदार	-11.5952
▁सड़कें	-11.5956
▁जख्मी	-11.5958
▁खुजली	-11.5958
▁फाइनेंस	-11.5961
▁ताक़त	-11.5964
▁रेस्टोरेंट	-11.5965
▁वनस्पति	-11.5969
बीच	-11.597
चन	-11.5976
▁अध्यादेश	-11.598
▁यादों	-11.5983
पुत्र	-11.5983
▁घरवालों	-11.5985
▁ची	-11.5985
.08	-11.5986
▁आभूषण	-11.5988
▁मुड़	-11.5989
एसपी	-11.599
▁राजाओं	-11.5991
▁फ़ैसले	-11.5992
.06	-11.5993
कत	-11.5995
▁बढ	-11.5995
▁बाबरी	-11.5995
▁चोरों	-11.5995
▁आह	-11.5996
▁लाते	-11.5996
मिया	-11.5996
फ्ट	-11.5997
▁सिक्किम	-11.5998
▁भटक	-11.6
टेन	-11.6001
▁जिद	-11.6002
▁इन्द्र	-11.6004
▁अर्	-11.6005
पहली	-11.6006
▁प्रतिनिधिमंडल	-11.601
▁डेबिट	-11.6011
▁कैम	-11.6016
▁करेंसी	-11.6019
▁स्थाई	-11.6021
▁सुविधाजनक	-11.6021
▁पिट	-11.6023
▁सुधर	-11.6027
▁ताकतवर	-11.6027
▁दस्तावेज़	-11.6027
▁कॉलम	-11.6029
▁बुजुर्गों	-11.6034
▁घटनाएँ	-11.6034
ोला	-11.6035
ूक	-11.6037
▁लॉगिन	-11.6038
फ्री	-11.6039
▁ताब्यात	-11.6039
▁कतई	-11.6039
▁साक्षरता	-11.604
▁धु	-11.6041
डोर	-11.6043
▁झारखण्ड	-11.6047
▁चाँद	-11.6047
▁काळात	-11.6048
.13	-11.605
▁कमिटी	-11.605
ालय	-11.6051
रियल	-11.6052
▁अबू	-11.6053
▁आरोपित	-11.6054
▁नाश्ता	-11.6057
ंप	-11.6058
रिपोर्ट	-11.606
चन्द्र	-11.6061
▁तलब	-11.6061
▁उत्थान	-11.6061
▁प्रि	-11.6066
▁आजीविका	-11.6067
▁नक्सल	-11.6068
▁सट्टेबाजी	-11.6069
▁नाच	-11.607
▁नेते	-11.607
संगीत	-11.6073
तल	-11.6075
▁जता	-11.6076
▁डिस्काउंट	-11.6076
▁अहमियत	-11.6078
▁वतीने	-11.608
▁जिन्ना	-11.6082
प्रदर्शन	-11.6083
▁मत्स्य	-11.6083
▁1994	-11.6084
▁दहन	-11.6084
ड्या	-11.6089
▁टर्म	-11.609
▁चमकदार	-11.6093
▁बजरंग	-11.6093
▁समर्थित	-11.6096
▁दुरुस्त	-11.6099
▁हटाकर	-11.6102
▁तक्रार	-11.6103
▁चांस	-11.6107
▁सोरेन	-11.6107
यही	-11.6112
▁शीला	-11.6113
▁अद्याप	-11.6113
▁समायोजित	-11.6114
यातायात	-11.6116
▁अनमोल	-11.6118
▁वाइस	-11.6119
▁ऑपरेटर	-11.612
▁स्लॉट	-11.6121
▁डिनर	-11.6123
▁रियलिटी	-11.6126
▁मूत्र	-11.6127
▁Download	-11.6127
▁लगाम	-11.6129
▁भोसले	-11.6133
▁सजावट	-11.6134
▁बॉन्ड	-11.6134
ाइटिस	-11.6136
▁टीबी	-11.6137
▁वर्दी	-11.6137
▁मयंक	-11.6138
मानव	-11.614
▁तोड़फोड़	-11.6144
▁खींचने	-11.6144
▁उबर	-11.6145
▁नौकर	-11.6148
▁साध्वी	-11.6151
▁कराकर	-11.6151
▁कवियों	-11.6154
▁प्रान्त	-11.6156
▁मुरली	-11.6157
▁कैदी	-11.6157
▁एकाउंट	-11.6163
▁नस्ल	-11.6163
▁ग़ज़ल	-11.6164
▁जानबूझकर	-11.6164
▁यादें	-11.6166
्वे	-11.6167
▁जनक	-11.6173
▁वीज	-11.6174
▁प्रतिभागियों	-11.6175
▁बहार	-11.6175
▁काटा	-11.6176
▁गुजरने	-11.6178
by	-11.6183
▁रोज़गार	-11.6184
▁वाड्रा	-11.6185
▁करिश्मा	-11.6186
▁बैठते	-11.6189
सीसी	-11.619
ंबा	-11.6193
▁समझकर	-11.6193
▁निषेध	-11.6195
▁पुं०	-11.62
▁छानबीन	-11.62
▁आड़	-11.62
▁आल	-11.6203
▁सहानुभूति	-11.6204
▁19.	-11.6207
▁बाज	-11.6209
▁बाते	-11.6211
-16	-11.6212
दीन	-11.6214
▁बैर	-11.6214
▁सीएए	-11.6218
▁बच्चियों	-11.6219
टेल	-11.622
▁चंदा	-11.6223
▁रास	-11.6224
▁कचरे	-11.6224
▁देशभक्ति	-11.6225
▁news	-11.6227
▁निःशुल्क	-11.6227
॥	-11.6227
▁धमाकेदार	-11.6228
▁तबाह	-11.6228
▁इसरो	-11.6231
त्ता	-11.6232
वाँ	-11.6234
▁विनिमय	-11.6237
विस्तार	-11.6238
▁पाऊस	-11.6242
▁नियत	-11.6244
यम	-11.6244
करीब	-11.6245
▁इजरायल	-11.6245
▁एप्प	-11.6246
▁मोहल्ले	-11.6246
▁मिलेंगी	-11.6246
ब्रा	-11.6246
.17	-11.6246
▁दहा	-11.625
▁धकेल	-11.6253
▁हौसला	-11.6253
▁नाश	-11.6254
▁जबरदस्ती	-11.6256
उनकी	-11.6256
▁एव	-11.6256
ab	-11.6257
किया	-11.626
▁बेल्जियम	-11.6262
▁1989	-11.6264
▁रोहतक	-11.6266
पाक	-11.6268
▁विराजमान	-11.6269
▁t	-11.6269
▁कार्टून	-11.627
▁बोलीं	-11.627
विले	-11.6272
.”	-11.6276
▁काल्पनिक	-11.6283
▁द्वि	-11.6284
▁किग्रा	-11.6285
▁गन्ने	-11.6292
▁नाले	-11.6294
▁समुचित	-11.6295
▁गाड़ियां	-11.6296
मई	-11.6297
हत	-11.6302
▁बॉयफ्रेंड	-11.6303
▁टॉम	-11.6305
▁कमांड	-11.6306
जनवरी	-11.6306
▁पहचाना	-11.6306
▁दाढ़ी	-11.6307
ोप	-11.631
▁स्टाइलिश	-11.6312
▁लेग	-11.6312
▁ठुकरा	-11.6314
दूसरी	-11.6317
▁मरे	-11.6318
ेंगी	-11.6318
▁सन्देश	-11.6319
Latest	-11.6321
▁लॉटरी	-11.6323
▁प्रचंड	-11.6326
▁मूलभूत	-11.6327
▁पाएगी	-11.6328
▁उमेदवारी	-11.6329
▁वर्षो	-11.6329
सामाजिक	-11.633
▁तड़के	-11.633
▁पर्दा	-11.6334
▁कारावास	-11.6334
▁छोड़ते	-11.6334
▁May	-11.6335
.03	-11.6343
बुल	-11.6344
फूल	-11.6344
▁वक्तव्य	-11.6345
▁ओमप्रकाश	-11.6345
सात	-11.6346
▁पठान	-11.6349
▁for	-11.635
ce	-11.6353
▁दाऊद	-11.6353
▁भेजना	-11.6355
▁पुजारा	-11.6355
▁त्यानुसार	-11.6357
▁गणराज्य	-11.6358
▁गाजर	-11.6359
▁पैंट	-11.636
छात्राओं	-11.636
▁पारदर्शी	-11.6361
89	-11.6362
▁उल	-11.6362
कारों	-11.6363
▁इंगित	-11.6364
▁चुनी	-11.6365
▁अप्रत्याशित	-11.6368
▁November	-11.6368
▁3000	-11.637
प्रा	-11.6372
▁जै	-11.6373
ेम	-11.6373
▁जोगी	-11.6375
ाज	-11.6378
▁×	-11.6379
▁मक्खन	-11.638
▁छात्रवृत्ति	-11.638
▁दरभंगा	-11.6384
▁गै	-11.6385
▁UP	-11.6386
▁बीजिंग	-11.6386
han	-11.6388
▁पुरा	-11.6388
▁मांझी	-11.6389
पुरम	-11.6389
ل	-11.6391
▁सक्रियता	-11.6392
▁वीर्य	-11.6394
▁दोस्तो	-11.6397
▁दीन	-11.6397
▁महतो	-11.6399
▁गुवाहाटी	-11.64
▁बैरल	-11.6402
▁बांस	-11.6402
▁डाय	-11.6405
▁कास्ट	-11.6406
▁2-3	-11.6406
▁सैम	-11.6408
▁जल्दबाजी	-11.6409
▁अरबी	-11.6409
लक	-11.6409
▁ब्रेड	-11.6414
▁कलकत्ता	-11.6415
▁गोलियों	-11.6419
▁सेल्स	-11.6421
▁बंदरगाह	-11.6421
▁हटाए	-11.6424
▁रविंद्र	-11.6424
▁लाइब्रेरी	-11.6424
▁लगाता	-11.6425
▁खुराना	-11.6426
▁अभिभावकों	-11.6426
▁उदार	-11.6428
▁उत्सुक	-11.6429
200	-11.643
▁मिनिट	-11.643
▁जीरो	-11.643
▁समाधि	-11.6432
▁मंगळवारी	-11.6432
▁लोकपाल	-11.6433
क्शन	-11.6441
▁हांगकांग	-11.6441
▁पंद्रह	-11.6441
▁कौशिक	-11.6442
▁शास्त्रीय	-11.6442
,500	-11.6446
▁चिह्नित	-11.6447
▁धनतेरस	-11.6448
▁धमाके	-11.6448
▁अधिवेशन	-11.6448
▁इशारे	-11.6449
मोर	-11.6451
▁फलस्वरूप	-11.6454
गिरी	-11.6454
▁तेवर	-11.6456
▁त्योहारों	-11.6461
आधारित	-11.6462
▁कॉलिंग	-11.6464
शंकर	-11.6464
▁बेगम	-11.6464
▁महबूबा	-11.6465
▁डिप्रेशन	-11.6465
PM	-11.6467
▁मुली	-11.6468
▁अमावस्या	-11.647
▁अनोखा	-11.6472
▁अनेकों	-11.6473
.20	-11.6474
di	-11.6475
▁अभिभावक	-11.6475
ive	-11.6476
▁बहती	-11.6479
▁दिसत	-11.6482
▁शहादत	-11.6484
▁दूं	-11.6484
▁शेतकर्‍यांना	-11.6486
ोक	-11.6488
▁गोगोई	-11.6488
▁सायंकाळी	-11.649
▁navigation	-11.6492
▁बंसल	-11.6492
н	-11.6492
▁बागी	-11.6492
▁मर्जी	-11.6493
नै	-11.6494
▁विश	-11.6497
ेयर	-11.6502
-2021	-11.6502
▁दस्त	-11.6503
वाय	-11.6504
ोव	-11.6505
▁पप्पू	-11.6506
▁जड़ी	-11.6506
▁रिपोर्टिंग	-11.6507
▁ढाल	-11.6508
▁क़ीमत	-11.6509
ho	-11.6509
▁कोरियाई	-11.6511
▁मोठी	-11.6512
▁डॉन	-11.6513
▁शौच	-11.6514
▁प्रेमचंद	-11.6515
▁सशक्तिकरण	-11.6515
▁चूस	-11.6515
ोसिस	-11.6517
▁डिवीजन	-11.6518
▁हेल्प	-11.6519
▁पहुंचना	-11.6519
▁कहावत	-11.6521
▁टर्मिनल	-11.6523
साइड	-11.6523
▁बदलता	-11.6524
▁बोलती	-11.6525
▁शहीदों	-11.6527
▁प्यारा	-11.6528
▁शुक्रवारी	-11.6529
▁चुत	-11.6531
da	-11.6532
▁पंथ	-11.6532
▁संतों	-11.6532
▁कैटेगरी	-11.6535
▁भ्रूण	-11.6535
▁त्यावेळी	-11.6535
▁बर्खास्त	-11.6542
▁अविश्वसनीय	-11.6543
वाड़ा	-11.6545
▁50%	-11.6546
sh	-11.6546
▁चुनिंदा	-11.6547
▁मद्रास	-11.655
▁शस्त्र	-11.655
▁महेन्द्र	-11.6551
▁करावा	-11.6553
▁अनुपमा	-11.6554
▁कारकों	-11.6554
▁होऊ	-11.6555
▁यूज़	-11.6559
▁ड्रॉ	-11.6559
ताल	-11.6561
▁मला	-11.6561
लोन	-11.6566
▁साधनों	-11.6568
मंदिर	-11.6569
▁हेमा	-11.6569
▁ट्रीटमेंट	-11.6571
▁नहाने	-11.6574
▁लीवर	-11.6574
▁प्लेन	-11.6574
्‍यू	-11.6575
▁दार्शनिक	-11.6576
▁कतार	-11.6577
▁जाइए	-11.6579
▁लय	-11.658
▁हज़रत	-11.658
▁पीटीआई	-11.6583
▁De	-11.6583
▁सिसोदिया	-11.659
▁मेहमानों	-11.659
▁मूर्ख	-11.659
▁परहेज	-11.6592
▁ग्रन्थ	-11.6598
▁कैम्प	-11.66
▁पुढील	-11.66
जनों	-11.6603
▁Photo	-11.6603
▁उम्मीदों	-11.6604
वेन	-11.6605
removeAttr	-11.6605
▁संभल	-11.6606
▁जर्नल	-11.6608
▁माध्यमातून	-11.6608
▁भलाई	-11.6609
▁अभिनंदन	-11.6613
▁शेती	-11.6615
▁बुधवारी	-11.6615
-8	-11.6617
सिस	-11.6619
ऑ	-11.6621
▁प्रेमियों	-11.6621
▁गिना	-11.6625
▁पढ़ाने	-11.6626
▁पूछना	-11.6627
रेल	-11.6629
▁चूका	-11.663
▁शवों	-11.663
▁ताजमहल	-11.663
▁ब्लास्ट	-11.6631
सुन	-11.6631
▁2.0	-11.6631
▁हार्डवेयर	-11.6633
क्‍	-11.6635
▁पेड	-11.6635
▁बाध्य	-11.6635
▁संघीय	-11.6636
ारा	-11.6636
▁आदान	-11.6638
केट	-11.6638
▁जानकारों	-11.6638
▁एनसीआर	-11.6638
▁पीटर	-11.664
▁घुसकर	-11.6641
▁जुआ	-11.6642
▁रक्षक	-11.6643
▁निलंबन	-11.6645
▁साख	-11.6647
▁बडी	-11.6648
▁छापे	-11.6649
ng	-11.6651
▁श्रीकांत	-11.6653
▁वॉक	-11.6654
▁बिगाड़	-11.6655
▁विल	-11.6656
▁);	-11.6657
▁तस्‍वीरें	-11.6657
मोहन	-11.6657
▁छठी	-11.6658
▁छेड़	-11.6659
▁प्राय	-11.6662
▁वेग	-11.6664
▁मुफ्ती	-11.6664
▁°	-11.6664
अंत	-11.6665
▁पटाखे	-11.6665
मुस्लिम	-11.6665
▁मैक्स	-11.6666
▁वीकेंड	-11.6668
▁योद्धा	-11.6668
▁पुख्ता	-11.6672
▁अमेजन	-11.6674
.09	-11.6674
▁अपघात	-11.6674
▁पीएचडी	-11.6675
▁राइफल	-11.6675
▁बारात	-11.6676
ताओं	-11.6676
▁2015-16	-11.6677
▁बनवाने	-11.6677
▁च्या	-11.668
▁अमरनाथ	-11.668
▁आश्रय	-11.668
▁जिल्हाधिकारी	-11.6681
▁धनंजय	-11.6681
कर्मियों	-11.6684
▁मोठा	-11.6684
रह	-11.6685
▁बीएस	-11.6688
▁अवशेष	-11.6692
गढ	-11.6692
▁भिड़	-11.6693
▁इन्सान	-11.6693
▁चौंक	-11.6693
а	-11.6696
▁ज़माने	-11.6697
▁अम्मा	-11.6698
▁विनिर्माण	-11.6701
▁परेशानियां	-11.6701
एनसीआर	-11.6702
ँग	-11.6712
▁कॉर्पोरेट	-11.6713
▁प्रतिपक्ष	-11.6714
▁तोहफा	-11.6716
▁दू	-11.6717
▁ट्रिपल	-11.6719
me	-11.6721
▁जगन्नाथ	-11.6723
▁महासंघ	-11.6723
▁लगना	-11.6724
▁प्यास	-11.6725
▁ऋषिकेश	-11.6728
▁जहा	-11.673
▁ब्लूटूथ	-11.673
▁रणनीतिक	-11.6735
▁é	-11.6735
▁निष्ठा	-11.6735
▁शास्त्रों	-11.6735
ag	-11.6736
ठे	-11.6736
▁व्यंजनों	-11.6738
▁जर	-11.6739
▁फ्रांसीसी	-11.6739
▁बुलेट	-11.674
▁परीक्षाएं	-11.6743
▁एस्टेट	-11.6743
▁इलाक़े	-11.6744
▁सुर्खियां	-11.6744
▁सियान	-11.6746
▁v	-11.6748
▁दुबारा	-11.6748
शब्द	-11.6749
▁तालुका	-11.6751
.35	-11.6753
▁धमाका	-11.6756
и	-11.6758
▁डिश	-11.6759
टि	-11.676
▁आइकन	-11.676
▁लै	-11.6761
▁पुनर्वास	-11.6764
▁प्रजातियों	-11.6765
▁टाउन	-11.6766
▁खेर	-11.6766
▁तटीय	-11.6768
▁हाफ	-11.6771
▁अर्थशास्त्र	-11.6771
▁झंडी	-11.6771
▁केमिकल	-11.6774
▁बरतने	-11.6774
▁भुला	-11.6774
▁प्रभावों	-11.6774
ल्	-11.6775
▁धनुष	-11.6775
▁गायों	-11.6776
िस्तान	-11.678
▁चंद्रकांत	-11.6781
▁सिरदर्द	-11.6781
▁मिशेल	-11.6784
▁मेरिट	-11.6785
▁मुजफ्फरनगर	-11.6786
आईसी	-11.679
▁खीरी	-11.6791
▁टिप्पणियाँ	-11.6791
▁मातृ	-11.6792
▁पिस्टल	-11.6792
क्का	-11.6793
सफाई	-11.6793
▁.2	-11.6794
▁न्यायपालिका	-11.6796
▁मू	-11.6797
▁कांच	-11.6797
▁कदमों	-11.6797
कंपनी	-11.6798
▁अपितु	-11.68
▁बढ़ोत्तरी	-11.68
सम्मान	-11.68
▁पक्की	-11.6803
▁डिब्बे	-11.6804
धि	-11.6805
▁बयां	-11.6807
▁x	-11.6809
▁बनाएंगे	-11.6813
▁संकेतों	-11.6815
ट्री	-11.6816
▁भगवान्	-11.6816
खर	-11.6819
ण्याचे	-11.682
▁जन्मभूमि	-11.6823
▁दाने	-11.6824
▁रवैये	-11.6824
▁उपभोग	-11.6825
द्य	-11.6826
▁Ch	-11.683
▁उत्तेजित	-11.6832
▁नमूने	-11.6836
▁खासगी	-11.6837
म्मा	-11.6838
बोध	-11.6838
▁बुल	-11.6839
▁हटने	-11.684
▁परफॉर्मेंस	-11.684
▁ओपनिंग	-11.684
▁इश्क	-11.6841
▁खुशियों	-11.6843
टेक्नोलॉजी	-11.6846
▁माउंट	-11.6846
▁IPL	-11.6848
▁अहिंसा	-11.6849
▁आशय	-11.6849
▁मुरादाबाद	-11.6851
▁नमाज़	-11.6858
र्ब	-11.6859
▁ह्रदय	-11.686
दरी	-11.6861
▁पैसेंजर	-11.6862
डॉक्टर	-11.6862
▁इंसानों	-11.6863
▁घन	-11.6865
०००	-11.6866
नवम्बर	-11.6866
▁बेहोश	-11.6868
प्ट	-11.687
प्रसार	-11.6871
▁अमृता	-11.6872
-17	-11.6873
▁दामाद	-11.6873
बै	-11.6875
▁चिराग	-11.6877
मेष	-11.6878
▁फेंकने	-11.688
▁मौखिक	-11.688
▁आसाराम	-11.6881
▁रुग्णालयात	-11.6881
و	-11.6887
▁संपादकीय	-11.6887
▁गिरि	-11.6887
▁प्रभाग	-11.6889
कृष्ण	-11.689
▁तिब्बत	-11.6891
▁आकस्मिक	-11.6891
▁खरेदी	-11.6893
▁स्त्रोत	-11.6894
▁जैकेट	-11.6894
शिया	-11.6894
▁कानों	-11.6895
▁राउत	-11.6897
▁स्क्रीनिंग	-11.6899
▁तह	-11.69
▁नजारा	-11.6901
▁अनुभाग	-11.6902
कॉ	-11.6905
▁तिरंगा	-11.6906
▁भाग्यशाली	-11.6908
त्री	-11.6908
▁सोचकर	-11.6909
▁रविवारी	-11.6909
▁सूप	-11.6909
▁नहा	-11.6912
▁छिपे	-11.6915
लव	-11.6916
▁बेदी	-11.6918
▁बालू	-11.6921
ا	-11.6921
▁नसल्याचे	-11.6921
▁ताबड़तोड़	-11.6929
▁अभूतपूर्व	-11.6933
▁क्रियान्वयन	-11.6933
▁खौफ	-11.6934
▁बनायी	-11.6934
ान्त	-11.6935
भोपाल	-11.6936
▁रियो	-11.6936
▁पटियाला	-11.6937
▁टावर	-11.6938
▁चित्रित	-11.694
▁कुरान	-11.694
▁सोचे	-11.6942
र्ण	-11.6942
अमर	-11.6945
▁पसीने	-11.6945
▁आजमगढ़	-11.6945
▁अत्यन्त	-11.6946
▁जेन	-11.6948
द्वारा	-11.6948
▁बदतर	-11.6949
ाद	-11.6949
▁सिवा	-11.695
लिक	-11.6951
गड	-11.6952
?”	-11.6953
▁पवेलियन	-11.6954
▁किफायती	-11.6958
▁त्याची	-11.6959
▁संशय	-11.696
डेन	-11.696
तंत्र	-11.6961
▁तकनीकों	-11.6962
▁मस	-11.6962
▁वारंट	-11.6964
वेयर	-11.6965
▁साँस	-11.6969
▁मलाइका	-11.6969
क्षा	-11.6971
▁भत्ता	-11.6971
▁कफ	-11.6974
▁var	-11.6975
α	-11.6976
ge	-11.6977
▁स्वरुप	-11.6978
भु	-11.6979
िमा	-11.698
▁3.5	-11.6981
▁लटक	-11.6981
विरोधी	-11.6981
▁मसला	-11.6982
स्तर	-11.6988
स्कूल	-11.699
▁मोटापा	-11.6992
▁करोड़पति	-11.6992
▁बुलेटिन	-11.6995
िब	-11.6998
▁निगाह	-11.6998
▁बंध	-11.6999
▁गोदाम	-11.7
▁कंटेस्टेंट	-11.7002
▁संक्रमितों	-11.7002
▁राजवंश	-11.7003
▁करताना	-11.7003
▁दसवीं	-11.7008
सिन	-11.7008
▁कलश	-11.7009
लता	-11.7009
▁ज्येष्ठ	-11.7009
▁खरा	-11.7012
ेश्‍वर	-11.7012
▁बेडरूम	-11.7012
▁ठहर	-11.7013
▁स्टार्टअप	-11.7016
▁चार्जशीट	-11.7019
▁बंदर	-11.7024
कर्नाटक	-11.7026
▁]]>	-11.7026
ध्यान	-11.7027
▁टेस्टिंग	-11.7028
▁अम्बेडकर	-11.703
▁बुंदेलखंड	-11.7031
▁प्रॉब्लम	-11.7032
▁एचडीएफसी	-11.7032
्प	-11.7035
▁वसुंधरा	-11.7038
▁चित्त	-11.7038
▁खुशखबरी	-11.7039
टीम	-11.704
सुर	-11.7042
▁स्वर्गीय	-11.7042
▁क्वीन	-11.7043
प्ल	-11.7047
▁अफगान	-11.7047
▁वंदना	-11.7052
ुंग	-11.7052
▁इस्लामाबाद	-11.7053
फेसबुक	-11.7055
▁करिए	-11.7055
▁ड्रीम	-11.7055
उदयपुर	-11.7055
National	-11.7056
▁जिसपर	-11.7059
▁होऊन	-11.706
▁ऐंड	-11.706
▁रखनी	-11.7061
▁शासकों	-11.7063
▁अंपायर	-11.7064
▁बारीक	-11.7066
नामा	-11.7068
▁पीजी	-11.7069
▁उत्	-11.7069
▁वृश्चिक	-11.7071
Published	-11.7071
विजय	-11.7073
▁एंबुलेंस	-11.7073
▁बीबी	-11.7073
▁जीप	-11.7076
्ते	-11.7077
ash	-11.7079
ाधिकारी	-11.708
▁लगन	-11.7082
▁गड़बड़	-11.7082
इए	-11.7085
▁फ़ायदा	-11.7085
▁छक्का	-11.7086
न्ध	-11.7088
▁ओमिक्रॉन	-11.7088
प्ले	-11.7089
पता	-11.7089
▁अथॉरिटी	-11.7089
▁कसर	-11.709
age	-11.709
▁विवादास्पद	-11.7094
▁धनिया	-11.7094
▁अफसोस	-11.7096
णार्‍या	-11.7103
▁निष्क्रिय	-11.7105
ीचा	-11.7106
▁मेड	-11.7107
▁and	-11.711
▁ग्यारह	-11.7113
▁पौष्टिक	-11.7114
खो	-11.7114
▁शारदा	-11.7115
▁मीर	-11.7117
▁सॉफ्ट	-11.7118
▁जौ	-11.7118
▁सिद्धान्त	-11.7119
▁डरते	-11.7122
▁गुन्हे	-11.7122
▁खोलें	-11.7126
▁वाल	-11.7126
▁यंग	-11.7127
▁टिप	-11.7128
▁चौकीदार	-11.7128
▁वायरलेस	-11.7132
▁खरे	-11.7132
▁सेतु	-11.7133
▁कार्यालयों	-11.7133
▁नेपाली	-11.7137
ाकर	-11.7137
▁प्रतिरक्षा	-11.7137
पोर्ट	-11.7138
▁फोर	-11.7138
▁मैट	-11.714
em	-11.7142
▁वसीम	-11.7143
▁160	-11.7143
▁↑	-11.7144
▁रोते	-11.7144
िज़	-11.7145
▁किराये	-11.7149
▁करंट	-11.7151
राष्ट्र	-11.7153
▁मसाज	-11.7153
▁आलोचक	-11.7155
श्वर	-11.7159
▁येईल	-11.716
▁मनोविज्ञान	-11.716
▁एसआईटी	-11.7163
▁क्लर्क	-11.7164
▁खोने	-11.7166
▁मित्तल	-11.7166
▁पतला	-11.7168
▁कमलेश	-11.7168
▁किस्सा	-11.7169
▁हैंड	-11.7169
▁फेफड़ों	-11.717
▁भो	-11.7171
▁कयास	-11.7171
क्क	-11.7172
▁काबुल	-11.7172
▁ड्राई	-11.7175
▁सीसी	-11.7177
▁प्रजापति	-11.7177
▁खोली	-11.7178
Continue	-11.718
▁April	-11.7181
▁विन	-11.7181
▁बृहस्पति	-11.7181
▁शासनकाल	-11.7184
▁बेसब्री	-11.7185
▁यूथ	-11.7186
▁अनुज	-11.7186
▁.1	-11.7186
▁श्रवण	-11.7186
▁फोटोशूट	-11.7189
ेन्स	-11.719
▁नाता	-11.719
▁रोमांच	-11.7192
▁लीडर	-11.7192
▁याने	-11.7194
▁इकबाल	-11.7198
▁खानपान	-11.7198
खबरें	-11.7199
▁निर	-11.7199
सीएल	-11.7201
वेट	-11.7205
▁मैडम	-11.7207
▁गुम	-11.7207
शर	-11.7208
▁ठहरा	-11.721
▁चुकाने	-11.721
▁टांग	-11.7212
▁//	-11.7212
▁क्रूर	-11.7213
स्ट्र	-11.7214
▁हिसार	-11.7215
कां	-11.7217
▁श्रेयस	-11.7218
▁अध्यात्म	-11.7219
▁बेटों	-11.7219
▁कृत्य	-11.722
▁ख़बरों	-11.7222
▁क्‍योंकि	-11.7223
▁कैलिफोर्निया	-11.7225
▁गवाही	-11.7225
▁डेल्टा	-11.7227
▁चुटकी	-11.7227
▁बैकअप	-11.7228
▁तारे	-11.7228
▁समर्थ	-11.7228
-7	-11.723
र्द	-11.7231
▁सराहनीय	-11.7231
ऑफ	-11.7231
बिट	-11.7234
▁कृषी	-11.7235
ाळ	-11.724
पक्ष	-11.7242
▁बर्न	-11.7242
▁तैमूर	-11.7243
▁समकक्ष	-11.7244
▁आंच	-11.7246
▁लड़ना	-11.7247
▁झाल्या	-11.725
▁गेली	-11.7251
▁August	-11.7252
▁कटे	-11.7252
सही	-11.7253
ुक	-11.7253
▁इज	-11.7255
▁मिर्जा	-11.7255
▁कुश्ती	-11.7256
):	-11.7257
▁गोला	-11.7258
▁बीएसएफ	-11.7259
▁झूठा	-11.726
▁क्षमताओं	-11.7262
▁त्यांचा	-11.7262
▁विवि	-11.7263
▁थप्पड़	-11.7264
▁नरक	-11.7264
▁लिफ्ट	-11.7266
▁रामचंद्र	-11.7266
नीति	-11.7267
ni	-11.7267
▁माहिर	-11.7268
▁याच	-11.7268
▁Apple	-11.727
▁एण्ड	-11.727
िणी	-11.7271
ill	-11.7272
▁कपडे	-11.7273
▁वैल्यू	-11.7275
▁चिप	-11.7279
▁1,000	-11.7282
्ली	-11.7282
▁शंका	-11.7283
बाबा	-11.7283
▁स्ट्रोक	-11.7283
सवाल	-11.7285
▁३०	-11.7285
▁भूटान	-11.7285
धारा	-11.7287
د	-11.729
▁कामे	-11.729
▁यथा	-11.7294
▁स्तरों	-11.7295
ty	-11.7298
▁सुखी	-11.7298
▁चप्पल	-11.73
▁कार्यान्वयन	-11.7302
▁निविदा	-11.7306
एससी	-11.7306
नौ	-11.7308
▁क्रि	-11.7308
बेटी	-11.7309
▁असेल	-11.7311
▁फिल	-11.7312
▁गायन	-11.7313
▁अश्विनी	-11.7314
▁रस्त्यावर	-11.7314
▁आगाज	-11.7315
▁टूटा	-11.7315
▁एड्स	-11.7315
▁स्ट्रीमिंग	-11.7317
▁पुस्तकालय	-11.732
▁ऊँचाई	-11.7321
▁लेखों	-11.7323
सेना	-11.7325
▁व्यवसायों	-11.7326
▁ब्लाग	-11.7326
▁October	-11.7327
▁बुलाने	-11.7328
▁पढने	-11.7331
मूल्य	-11.7331
▁दर्शाया	-11.7332
▁शक्ल	-11.7334
गेट	-11.7335
डन	-11.7336
गम	-11.7338
सान	-11.7338
▁फैसलों	-11.734
▁रस्सी	-11.734
▁Also	-11.7343
▁स्ट्रीम	-11.7343
ष्	-11.7347
▁माग	-11.7348
ीम	-11.7348
▁मसाले	-11.7349
लाई	-11.735
▁140	-11.7351
नव	-11.7352
▁सुधारों	-11.7352
▁ठिकानों	-11.7353
News	-11.7353
द्वारे	-11.7355
ोज	-11.7357
▁समितियों	-11.7357
▁व्यवसायी	-11.7358
▁अलवर	-11.7359
▁सम्पत्ति	-11.736
▁सूखी	-11.7361
▁उत्तराधिकारी	-11.7361
▁पाहिजे	-11.7361
▁दामन	-11.7362
▁शिकस्त	-11.7362
▁छोड	-11.7364
▁गुजरना	-11.7364
▁टॉयलेट	-11.7365
▁मलेरिया	-11.7366
▁ऐन	-11.737
▁कुरैशी	-11.737
▁जॉनसन	-11.7371
▁नाराज़	-11.7373
▁प्रणाम	-11.7374
▁राहु	-11.7375
▁असीम	-11.7376
▁गलतियों	-11.7376
▁भावी	-11.7377
उन्हें	-11.7378
▁निचली	-11.7378
▁उत्सुकता	-11.738
▁अल्मोड़ा	-11.7385
▁बाहुबली	-11.7385
▁दरार	-11.7385
श्र	-11.7385
ba	-11.7386
▁रोहिंग्या	-11.7387
▁लगाती	-11.7387
ीज़	-11.7391
▁लागणार	-11.7391
▁बहुल	-11.7392
स्कर	-11.7393
▁यूएई	-11.7397
▁खर्चा	-11.7397
!!	-11.7399
▁Mi	-11.74
▁कीर्ति	-11.7401
▁लड़ी	-11.7401
▁बर्ताव	-11.7404
▁कलियुग	-11.7404
▁लम्बा	-11.7404
▁मन्त्र	-11.7405
▁सम्भावना	-11.7406
रिन	-11.7407
्ह	-11.7409
▁चन्नी	-11.7409
▁जीवनशैली	-11.7411
▁कॉमन	-11.7412
▁फर्नीचर	-11.7413
ेन्ट	-11.7413
▁माइक्रोसॉफ्ट	-11.7414
बिया	-11.7415
▁स्केल	-11.7416
▁होड़	-11.7416
आवेदन	-11.7417
▁अप्रत्यक्ष	-11.7417
▁असंतोष	-11.7417
▁Jio	-11.7418
▁खुदा	-11.7418
▁ब्रह्मांड	-11.7419
जीबी	-11.742
रै	-11.7421
▁पुतिन	-11.7421
ताना	-11.7423
ka	-11.7426
▁कुटुंब	-11.7427
▁लिखता	-11.7428
▁विमोचन	-11.743
▁तारों	-11.7431
▁लागली	-11.7431
▁उर्जा	-11.7434
डल	-11.7437
ist	-11.7437
्मा	-11.7438
▁अनुकूलित	-11.7439
▁ड्रॉप	-11.744
▁मेज	-11.7441
▁केन्द्रों	-11.7441
▁जैश	-11.7442
▁तबादला	-11.7442
▁संकोच	-11.7444
▁सत्याग्रह	-11.7446
▁चैम्पियनशिप	-11.7447
▁वां	-11.7447
वाया	-11.7449
▁एडवांस	-11.7449
▁केल्या	-11.745
▁प्रसंस्करण	-11.7451
▁लेफ्टिनेंट	-11.7453
▁जीतना	-11.7454
▁सिद्दीकी	-11.7455
▁टंडन	-11.7455
▁जुबान	-11.7456
▁राणे	-11.7457
डिजिटल	-11.746
रिंग	-11.7462
▁विवाहित	-11.7463
केरल	-11.7463
▁दिखाती	-11.7464
▁वॉटर	-11.7465
▁देवर	-11.7467
म्बर	-11.7468
▁शनिवारी	-11.7468
▁घुमा	-11.7468
सिटी	-11.747
▁काबिज	-11.747
.21	-11.7471
▁थाईलैंड	-11.7473
▁पृथ्वीराज	-11.7473
▁एनआईए	-11.7475
युग	-11.7475
सीए	-11.7476
▁चौका	-11.7476
रेस	-11.7477
▁बोट	-11.7481
▁लाये	-11.7481
▁संशयित	-11.7483
▁जसप्रीत	-11.7485
कान	-11.7485
▁ब्रेन	-11.7486
▁भाटिया	-11.7489
▁घुटनों	-11.749
तिया	-11.749
बान	-11.749
▁करोगे	-11.7493
se	-11.7493
डीए	-11.7497
▁.5	-11.7499
▁परफेक्ट	-11.7504
▁101	-11.7506
▁धंधा	-11.7507
हिल	-11.7508
▁पैलेस	-11.7508
▁रूपांतरण	-11.7512
एमएस	-11.7513
▁लाइफस्टाइल	-11.7514
▁फतेहपुर	-11.7514
▁December	-11.7516
मकर	-11.7519
लेबल	-11.7519
▁फ्रिज	-11.752
▁मुखर	-11.752
खुद	-11.7521
▁अविश्वास	-11.7521
▁गर	-11.7522
▁केएल	-11.7523
▁अकाल	-11.7525
ट्ट	-11.7526
भेद	-11.7528
▁इस्पात	-11.7528
▁अनियंत्रित	-11.7529
▁भंसाली	-11.7533
300	-11.7534
▁ब्रि	-11.7535
▁प्रस्थान	-11.7536
▁एथलीट	-11.7537
▁भेजकर	-11.7537
▁बेटियां	-11.7538
у	-11.7538
▁राघव	-11.7539
▁चौबे	-11.7544
ee	-11.7544
▁फ्रेंड	-11.7544
▁अपग्रेड	-11.7545
▁एं	-11.7545
▁सेलेक्ट	-11.7547
▁ख़ुश	-11.7548
▁बांटा	-11.7548
▁सौगात	-11.755
ढी	-11.7553
अच्छा	-11.7556
▁थॉमस	-11.7558
▁June	-11.7563
▁गिरफ़्तार	-11.7564
▁औषधीय	-11.7564
▁मिस्टर	-11.7565
▁लश्कर	-11.7566
▁विलियम	-11.7567
▁विफलता	-11.7569
पीठ	-11.7571
▁सज	-11.7573
▁.4	-11.7575
ाइन	-11.7577
▁धनबाद	-11.7577
▁श्लोक	-11.7578
निर्माण	-11.758
▁१६	-11.758
▁ताइवान	-11.7581
▁मेहंदी	-11.7585
ेस्ट	-11.7591
वू	-11.7591
▁कैरी	-11.7592
▁राजनेताओं	-11.7596
▁कटाई	-11.7598
स्टेट	-11.7598
▁कूल	-11.7599
▁फ़िल्में	-11.7599
प्रसाद	-11.7605
▁उंगलियों	-11.7606
▁बिपिन	-11.7607
▁चुनते	-11.7607
दिया	-11.7607
ांश	-11.7607
▁विकलांग	-11.761
▁इन्टरनेट	-11.7613
▁नित्य	-11.7615
▁घिरे	-11.7615
▁ईशा	-11.7615
लै	-11.7615
▁मंडळ	-11.7617
आपने	-11.7617
▁अस्त	-11.7618
कहीं	-11.7618
▁आजमा	-11.7619
▁दिव्या	-11.7619
▁फौरन	-11.7619
▁रिएक्शन	-11.762
▁फार	-11.7622
▁विदा	-11.7622
▁प्रदूषित	-11.7624
▁मुबारक	-11.7625
▁धारावाहिक	-11.7627
▁अपवाद	-11.7627
▁औषध	-11.7629
ज्ज	-11.763
▁कुणाल	-11.7631
▁जास्त	-11.7634
▁वॉच	-11.7637
▁घंटी	-11.7637
▁टूटी	-11.7638
▁दीवाना	-11.7638
▁बाकि	-11.7639
▁मिळाली	-11.7641
▁सिक्का	-11.7642
▁जमशेदपुर	-11.7642
१९	-11.7643
▁खुदकुशी	-11.7646
▁पहुंचती	-11.7648
▁थाली	-11.765
▁विकिपीडिया	-11.7654
श्य	-11.7654
▁मार्जिन	-11.7654
▁दूषित	-11.7659
▁परिस्थिती	-11.7659
▁बूट	-11.766
मिक	-11.7661
▁जेवर	-11.7661
▁रचित	-11.7662
▁करूँगा	-11.7663
▁हल्ला	-11.7663
▁गायिका	-11.7664
ल्ल	-11.7664
▁कार्यभार	-11.7666
रेशन	-11.7667
▁कौल	-11.7669
▁समझदार	-11.7669
▁पात्रों	-11.7671
▁वैद्य	-11.7671
▁105	-11.7671
▁उखाड़	-11.7672
▁कब्र	-11.7673
▁सम्बोधित	-11.7676
▁पलटवार	-11.7677
▁मची	-11.7679
▁सानिया	-11.768
▁सिखों	-11.768
▁डेमोक्रेटिक	-11.7681
▁डरा	-11.7681
▁दृश्यों	-11.7682
▁आंधी	-11.7684
▁फेडरेशन	-11.7685
▁नाट्य	-11.7685
▁बिंदुओं	-11.7686
▁बेचैनी	-11.7686
ाड	-11.7687
▁MP	-11.7691
▁आनन	-11.7691
▁गर्भपात	-11.7694
▁विवश	-11.7694
▁गेला	-11.7695
▁प्रदाता	-11.7699
ाए	-11.77
वेब	-11.77
▁Pradesh	-11.7703
▁टेलीग्राम	-11.7703
▁पारस	-11.7703
स्पेशल	-11.7704
▁झुका	-11.7705
▁बहाली	-11.7706
ाइट	-11.7707
▁व्याख्यान	-11.7707
▁दयाल	-11.7709
▁अंचल	-11.771
▁अमेज़न	-11.7712
Re	-11.7712
▁इलेक्ट्रॉनिक्स	-11.7715
▁चाइल्ड	-11.7716
पथ	-11.7718
▁भगा	-11.7718
देखील	-11.7718
▁रीवा	-11.7719
▁प्रात	-11.7719
▁आदतों	-11.7721
▁चावला	-11.7721
▁बिकने	-11.7724
▁डायलॉग	-11.7725
▁इनमे	-11.7725
▁निर्भया	-11.7727
िंद	-11.773
▁इर्द	-11.7731
end	-11.7736
लम	-11.7737
▁क्रय	-11.7738
▁जयराम	-11.774
▁1.2	-11.7743
ोलॉजी	-11.7746
▁मुश्किलों	-11.7746
▁फरमान	-11.7751
▁काँग्रेसचे	-11.7751
▁पत्थरों	-11.7751
यत	-11.7752
▁डांसर	-11.7752
▁पुरोहित	-11.7752
▁वाय	-11.7754
▁टिप्पणियों	-11.7755
▁मानचित्र	-11.7757
▁एनपीए	-11.7758
▁सलाद	-11.7761
आर्थिक	-11.7762
▁लुधियाना	-11.7765
▁फोटोग्राफर	-11.7765
▁तिहाई	-11.7768
▁ढा	-11.7771
▁कराएं	-11.7771
त्रि	-11.7772
▁टु	-11.7775
▁एमएम	-11.7777
गौरतलब	-11.7779
जानिए	-11.778
▁कॉमर्स	-11.778
बारी	-11.778
▁दारू	-11.7781
▁दूरदर्शन	-11.7781
.’’	-11.7782
▁क्रूज	-11.7783
▁दिखेगा	-11.7783
▁हरभजन	-11.7783
▁साम	-11.7785
▁September	-11.7785
वाना	-11.7786
ुम	-11.7786
▁कसरत	-11.7786
▁पतंजलि	-11.7788
▁हुनर	-11.7793
▁इको	-11.7794
▁वियतनाम	-11.7796
▁धीमा	-11.7797
कर्क	-11.7797
राई	-11.7798
जाल	-11.7799
▁104	-11.7806
▁तस्कर	-11.7807
▁तास	-11.7808
▁बर्थ	-11.7808
▁de	-11.7811
▁इतिहासकार	-11.7812
▁पिछला	-11.7812
▁यात	-11.7813
▁झाल्यानंतर	-11.7813
पैर	-11.7814
▁सिकंदर	-11.7814
निंग	-11.7814
▁मर्डर	-11.7814
एंड	-11.7816
▁डालता	-11.7818
▁कुएं	-11.7818
▁Click	-11.7823
▁टूटे	-11.7825
रोज़	-11.7833
ण्य	-11.7833
ाइजेशन	-11.7834
▁ग्रेजुएट	-11.7834
▁रॉयल्स	-11.7839
▁गर्दी	-11.784
▁उत्तेजना	-11.784
▁झाड़	-11.7842
▁१७	-11.7843
▁बंगला	-11.7845
िना	-11.7848
फ़ी	-11.7848
▁प्रतिबंधों	-11.7852
▁बिर	-11.7853
खान	-11.7855
▁आपातकालीन	-11.7858
▁संभवत	-11.7861
▁गुरुवारी	-11.7862
मगर	-11.7864
▁वक्ता	-11.7867
फि	-11.7868
▁हमीरपुर	-11.7868
▁क्यूँ	-11.7872
▁ृ	-11.7875
ाकार	-11.7877
▁हराने	-11.7877
▁1970	-11.7879
▁टेंडर	-11.788
▁अमीरात	-11.7881
▁अधूरा	-11.7884
▁दूँ	-11.7884
श्व	-11.7886
▁2020.	-11.7886
ियान	-11.7888
▁टिकैत	-11.7889
▁if	-11.7889
▁उपेंद्र	-11.7891
▁निकायों	-11.7894
▁टिम	-11.7894
ंका	-11.7895
▁काटे	-11.7895
▁प्रचारक	-11.7896
▁भरती	-11.7901
▁ब्रिगेड	-11.7902
ौरा	-11.7902
▁बंगले	-11.7903
▁जिज्ञासा	-11.7905
▁तहलका	-11.7906
बिना	-11.7906
▁बूढ़े	-11.7906
▁समाजसेवी	-11.7907
▁गाइडलाइन	-11.7907
▁सिखाने	-11.7909
▁कुचल	-11.791
▁ब्लॉगिंग	-11.7912
▁मिलाया	-11.7914
.01	-11.7915
▁सुश्री	-11.7916
▁जनजातीय	-11.7916
▁मौसी	-11.7917
▁किस्त	-11.7918
har	-11.792
▁तेलुगु	-11.792
दस	-11.792
▁जनसंपर्क	-11.7922
▁वर्षे	-11.7923
्च	-11.7924
ide	-11.7925
▁घेरा	-11.7926
▁वास्तुकला	-11.7929
▁आवागमन	-11.7932
▁सोचती	-11.7932
▁एयरलाइंस	-11.7934
रूम	-11.7936
चक्र	-11.7938
▁महारानी	-11.7939
▁FIR	-11.794
▁लम्बाई	-11.7941
▁हँस	-11.7941
▁→	-11.7942
▁July	-11.7943
▁सनराइजर्स	-11.7943
इक	-11.7946
▁कोशिशें	-11.7947
▁चालीस	-11.7951
▁सौरव	-11.7952
▁टिका	-11.7953
os	-11.7954
▁अरविन्द	-11.7957
▁बिट	-11.7958
▁एडवोकेट	-11.7958
▁टेलीकॉम	-11.7962
▁श्रॉफ	-11.7965
▁.3	-11.7967
▁बकरी	-11.7968
▁सुलझा	-11.7969
▁परिसरातील	-11.7969
▁घिरा	-11.7969
▁बेचे	-11.797
▁रिटेल	-11.797
▁गुमराह	-11.797
▁वेडिंग	-11.797
▁मुख्यतः	-11.797
▁करावे	-11.7971
▁अनुकूलन	-11.7971
▁असेही	-11.7973
▁हेलिकॉप्टर	-11.7974
▁ज़ी	-11.7976
▁चढ़ने	-11.7976
संपादकीय	-11.7978
िर	-11.7979
▁खुलेआम	-11.7979
▁टीआरपी	-11.798
ंजी	-11.798
▁अंदरूनी	-11.798
▁पीक	-11.798
▁फेंका	-11.7981
▁चिंताओं	-11.7981
▁मेकर्स	-11.7987
▁पीडीएफ	-11.7988
▁भूगोल	-11.7989
▁कालोनी	-11.7989
▁करूँ	-11.799
▁ट्यूटोरियल	-11.7992
д	-11.7993
▁आरके	-11.7994
ग्रह	-11.7997
षण	-11.7998
▁सेनानी	-11.7999
▁जालंधर	-11.7999
▁घुसने	-11.7999
▁भैरव	-11.8001
फानन	-11.8001
▁विधिक	-11.8002
▁शाहीन	-11.8003
▁जलस्तर	-11.8003
▁अनोखी	-11.8006
▁नारंगी	-11.8006
▁बचाना	-11.8006
मोह	-11.8007
▁उतरा	-11.8008
▁मौक़ा	-11.801
ऱ	-11.8011
▁दर्पण	-11.8016
स्थल	-11.8019
हाई	-11.802
सै	-11.8021
▁गंदे	-11.8023
▁कॉरिडोर	-11.8024
▁आवाजाही	-11.8024
▁शैतान	-11.8026
▁डायल	-11.8028
▁गाते	-11.8028
▁रोकता	-11.8028
▁सबने	-11.8029
▁प्रतिष्ठान	-11.8029
▁1977	-11.8029
कप्तान	-11.8031
▁श्र	-11.8032
संत	-11.8034
▁दर्जे	-11.8036
▁चुनौतीपूर्ण	-11.8037
▁ताल्लुक	-11.8038
▁मेडिसिन	-11.8038
▁प्रणब	-11.8039
उदाहरण	-11.8041
▁पत्ता	-11.8042
▁बगीचे	-11.8042
▁घुसा	-11.8043
▁नोडल	-11.8048
▁गुणा	-11.8049
▁अब्राहम	-11.8051
ुल्लाह	-11.8053
▁‍	-11.8054
▁अहवाल	-11.8055
▁हीरे	-11.8056
▁2019-20	-11.8059
▁अरबों	-11.8061
▁चिन्हित	-11.8063
▁प्रभाकर	-11.8063
ीने	-11.8065
▁तब्बल	-11.8065
▁पद्मश्री	-11.8066
▁सरोगेसी	-11.8068
▁जाह्नवी	-11.8069
▁कट्टर	-11.807
mo	-11.8071
▁त्रासदी	-11.8071
▁गीतकार	-11.8072
▁ग़ैर	-11.8074
▁टैटू	-11.8074
▁बकवास	-11.8074
▁हिम	-11.8077
लगभग	-11.8077
▁साउंड	-11.8077
▁ग्ल	-11.8078
vi	-11.8078
▁चौंका	-11.8078
▁.8.	-11.8078
प्यार	-11.8081
▁जामिया	-11.8081
ैंट	-11.8083
▁ढूंढने	-11.8083
ii	-11.8086
▁कुख्यात	-11.8088
▁पन्नों	-11.8088
▁कैब	-11.8088
▁हकदार	-11.8089
▁राजकुमारी	-11.8089
▁पाकिस्‍तान	-11.8089
▁कुंड	-11.809
▁बुद्धिमान	-11.809
ानन्द	-11.8092
▁हिदायत	-11.8092
▁आउटपुट	-11.8093
▁दीपा	-11.8096
ुत	-11.8096
स्टा	-11.8097
▁सती	-11.8097
▁रंजीत	-11.8097
ऑन	-11.8098
उपलब्ध	-11.81
मंद	-11.8104
▁ईशान	-11.8108
▁सप्ताहांत	-11.8108
मुखी	-11.8109
मिथुन	-11.8109
▁बाधाओं	-11.811
-9	-11.811
ऐसी	-11.811
▁टेलर	-11.811
▁जैकलीन	-11.811
▁ख़र्च	-11.8111
▁फै	-11.8111
.5.	-11.8111
▁द्रव	-11.8112
मनी	-11.8114
▁मॉड्यूल	-11.8115
▁एनएच	-11.8116
Search	-11.8119
▁चाणक्य	-11.8119
▁सस्पेंड	-11.812
▁बैठकीत	-11.812
ानंतर	-11.812
त्रा	-11.812
▁अग्र	-11.812
ोत्सव	-11.8121
▁टीजर	-11.8122
अंतर्राष्ट्रीय	-11.8123
▁अफ	-11.8123
▁कुरुक्षेत्र	-11.8124
▁डायमंड	-11.8124
▁प्रतिरोधक	-11.8127
ेकर	-11.813
▁विकासशील	-11.813
▁डुअल	-11.813
▁राठौर	-11.8133
▁निषाद	-11.8133
▁फंक्शन	-11.8134
▁एकदिवसीय	-11.8136
▁करोड	-11.8137
▁ओपी	-11.8137
......	-11.8138
▁use	-11.8138
▁जड़ों	-11.8139
▁औरतें	-11.8141
▁मायके	-11.8141
с	-11.8142
▁गोपनीय	-11.8142
▁होस्टिंग	-11.8143
▁शेड	-11.8143
ाओं	-11.8144
ईमेल	-11.8144
▁उड़ीसा	-11.8145
िफ	-11.8147
val	-11.8147
▁फ़िलहाल	-11.8147
ंसी	-11.8148
▁पथराव	-11.8148
▁\	-11.815
▁शोएब	-11.8152
▁सेगमेंट	-11.8152
▁शुरूआती	-11.8155
▁अ‍ॅड	-11.8155
▁HD	-11.8156
▁उद्यमी	-11.8158
▁शाखाओं	-11.8158
सर्व	-11.8158
▁प्रभार	-11.816
संघ	-11.816
ER	-11.8163
कर्मी	-11.8164
▁स्थानांतरण	-11.8167
रिस	-11.8167
ंव	-11.8168
▁मिल्क	-11.817
▁विचित्र	-11.8172
▁इन्हे	-11.8175
▁(1)	-11.8176
▁आईएस	-11.8177
▁टोकन	-11.8178
▁मनमानी	-11.8179
▁सोनाक्षी	-11.818
कवि	-11.8181
वित	-11.8181
संस्कृति	-11.8184
कस	-11.8185
▁पाउंड	-11.8185
▁प्रधानाचार्य	-11.8185
я	-11.8186
▁टेलीफोन	-11.8189
▁कन्नड़	-11.8189
▁वैधता	-11.8189
▁स्पा	-11.8189
▁ट्रेनें	-11.8191
▁>>	-11.8191
▁ब्राह्मणों	-11.8195
▁मनो	-11.8195
▁फेम	-11.8196
-15	-11.8196
▁महत्वाकांक्षी	-11.8198
▁रेखांकित	-11.8198
▁महापालिका	-11.8198
▁(19	-11.8198
वंश	-11.82
▁शुष्क	-11.8204
ance	-11.8204
▁अंगूर	-11.8205
▁करारा	-11.8206
▁निकालें	-11.8206
सामग्री	-11.8206
▁काश	-11.8207
▁पोज	-11.8207
▁मनोबल	-11.8207
▁रिस्क	-11.8208
चौ	-11.8209
विद	-11.821
▁कागजात	-11.821
▁पक	-11.821
राशिफल	-11.8211
ऊँ	-11.8213
रेड	-11.8218
ंजा	-11.8218
▁गिरीश	-11.8219
ेंड	-11.822
▁लुट	-11.8221
▁लौटते	-11.8223
▁जिनमे	-11.8223
सूत्र	-11.8225
जानकारी	-11.8226
▁k	-11.8227
hi	-11.8228
▁सिखा	-11.8229
▁सेक्रेटरी	-11.823
▁लड्डू	-11.8231
ादि	-11.8233
फो	-11.8235
नया	-11.8236
▁कराता	-11.8244
▁त्रिवेदी	-11.8244
ाते	-11.8248
ल्ली	-11.8249
▁कुंद्रा	-11.8249
क्षक	-11.8252
▁सेनन	-11.8253
पेक्षा	-11.8253
मणि	-11.8255
per	-11.8255
स्को	-11.8256
▁गणपति	-11.8258
जनक	-11.826
▁दुर्	-11.8261
inextlive	-11.8263
वर्स	-11.8263
न्ट	-11.8265
एमसी	-11.8265
▁वाल्मीकि	-11.8266
▁ग्रेजुएशन	-11.8267
▁लाला	-11.8268
▁कोल्ड	-11.8269
▁फार्मा	-11.827
▁व्य	-11.827
▁भतीजे	-11.8271
▁अनीता	-11.8272
▁फिल्टर	-11.8273
▁दृढ़ता	-11.8275
शुल्क	-11.8275
शायद	-11.8276
▁मनपा	-11.8277
▁आंगन	-11.8281
नवंबर	-11.8281
ख्या	-11.8281
▁प्रताड़ित	-11.8281
पेश	-11.8282
▁हेम	-11.8282
▁डू	-11.8282
▁टाइटल	-11.8283
.26	-11.8286
▁इंटेलिजेंस	-11.8286
पृष्ठ	-11.8286
▁शत्रुघ्न	-11.8288
▁कीड़े	-11.8288
▁January	-11.8288
▁बैठकों	-11.8289
▁घटिया	-11.8289
▁वर्गीकरण	-11.8292
▁घिर	-11.8292
▁उमड़	-11.8292
-30	-11.8292
ताज़ा	-11.8292
पीने	-11.8293
▁माली	-11.8293
▁पदोन्नति	-11.8295
▁परदे	-11.8295
▁डॉक्टर्स	-11.8298
pur	-11.8299
विमर्श	-11.83
▁थरूर	-11.83
▁#00	-11.8303
▁पथक	-11.8303
▁प्रशासनाने	-11.8305
▁स्नातकोत्तर	-11.8305
▁संभोग	-11.8305
लय	-11.8306
▁राक्षस	-11.8306
सीआई	-11.8306
▁खीर	-11.8307
▁पच	-11.8308
▁मुख्‍यमंत्री	-11.8308
▁श्वेत	-11.8311
▁ट्रांसपोर्ट	-11.8311
▁महक	-11.8312
▁डेल	-11.8313
थर	-11.8314
▁तीखी	-11.8314
ौं	-11.8315
▁यूएसबी	-11.8317
▁पटकथा	-11.8318
विला	-11.8319
▁बेस्ड	-11.8319
▁स्टैंडर्ड	-11.8324
िओ	-11.8324
▁लगवा	-11.8324
▁विर	-11.8324
▁यहूदी	-11.8324
▁बीए	-11.8325
▁एंव	-11.8325
डीसी	-11.8325
्रो	-11.8325
▁चौड़ाई	-11.8325
▁मीठे	-11.8327
▁हस्तांतरण	-11.8328
▁१४	-11.833
▁जिन्हे	-11.8333
▁थमा	-11.8334
▁संपत्तियों	-11.8338
▁भरें	-11.8338
▁जाईल	-11.8339
▁बेंगलुरू	-11.834
▁लेफ्ट	-11.834
ट्	-11.8341
▁सीएमओ	-11.8343
▁प्रे	-11.8343
▁हरियाली	-11.8347
▁वॉर	-11.835
▁सोचें	-11.835
▁गुंजाइश	-11.8351
▁बुआ	-11.8354
▁मिळणार	-11.8354
▁तरस	-11.8356
▁व्याकरण	-11.8356
्ने	-11.8358
▁पीरियड	-11.8358
▁हमलावरों	-11.8358
मंगल	-11.8358
ंटी	-11.836
▁पुरस्कृत	-11.8361
▁वर्कआउट	-11.8361
ेंसी	-11.8362
▁दंगा	-11.8362
▁थर्ड	-11.8362
▁सवर्ण	-11.8366
▁पहुंचता	-11.8367
▁समझदारी	-11.8367
डाउन	-11.8368
",	-11.8368
▁फेज	-11.837
▁दुसर्‍या	-11.837
▁ग्रोवर	-11.8371
▁कविताएं	-11.8374
▁चोदने	-11.8376
▁अक	-11.8383
बाज़ार	-11.8383
▁शॉप	-11.8383
अमेरिकी	-11.8389
▁सभापती	-11.8389
यार	-11.839
▁फुले	-11.8391
ढ़ा	-11.8392
लक्ष्मी	-11.8394
▁सुधा	-11.8394
▁जवानी	-11.8397
▁उन्ही	-11.8397
▁जयललिता	-11.8398
ङ	-11.8399
▁फ़ि	-11.8401
▁नंद	-11.8405
▁खंडन	-11.8407
}	-11.8407
▁डूबे	-11.8408
▁March	-11.8408
▁यूक्रेन	-11.8408
▁सजाया	-11.8412
▁चाइना	-11.8412
उच्च	-11.8414
▁हिरण	-11.8416
▁ढक	-11.8416
▁हर्षवर्धन	-11.8417
▁विमल	-11.8418
ासह	-11.8418
ाें	-11.8418
▁नसीब	-11.8421
िला	-11.8421
▁फ्रेंचाइजी	-11.8422
▁आदेशों	-11.8423
▁कराये	-11.8425
एसएस	-11.8426
▁त्यावर	-11.8427
▁अदालतों	-11.8428
इयों	-11.8429
▁रूक	-11.8429
▁खदान	-11.843
▁कमरों	-11.843
▁मुक़ाबले	-11.8431
▁बिल्डर	-11.8431
▁असुरक्षित	-11.8432
्वर	-11.8433
▁लौ	-11.8435
▁करवाए	-11.8435
▁पनप	-11.8436
▁आख़िर	-11.8437
▁अनुप्रयोग	-11.8438
▁लगवाने	-11.8438
▁सिने	-11.8439
▁सभापति	-11.8439
▁दीनदयाल	-11.8441
▁ढोल	-11.8441
असम	-11.8441
सत	-11.8442
▁व्यक्‍त	-11.8445
▁बरसों	-11.8445
▁छुट्टियां	-11.8446
▁घु	-11.8446
▁दिलेल्या	-11.8447
▁एक्स्प्रेस	-11.845
ाट	-11.8454
▁पिक्सल	-11.8455
दर्द	-11.8456
▁येणार्‍या	-11.8456
▁सता	-11.8462
़ी	-11.8462
Popular	-11.8465
▁काजोल	-11.8465
op	-11.8465
▁बाह्य	-11.8468
▁वाढत	-11.8468
▁डूबने	-11.847
lu	-11.847
▁साली	-11.8472
▁रखेगा	-11.8474
▁दुष्प्रभाव	-11.8476
▁चाक	-11.8477
▁रियासत	-11.8478
▁अत्याधुनिक	-11.8483
▁नैशनल	-11.8483
▁खाए	-11.8484
शादी	-11.8486
▁करारी	-11.8487
.23	-11.8487
▁कगार	-11.8488
▁रोजमर्रा	-11.8488
▁शाकाहारी	-11.8489
▁धड़कन	-11.849
▁एजेंडे	-11.8493
▁मिलाने	-11.8493
▁चेहरों	-11.8498
▁मान्यताओं	-11.8499
रीन	-11.8499
▁प्रतिस्पर्धी	-11.8499
UP	-11.85
▁हेल्पलाइन	-11.8503
▁ताऊ	-11.8504
ip	-11.8506
▁मिलीं	-11.8509
▁बंट	-11.851
▁नाटकीय	-11.8512
▁सिरसा	-11.8513
▁भूपेंद्र	-11.8514
▁pow	-11.8519
▁10%	-11.8519
टीसी	-11.852
निस	-11.8522
▁पीपुल्स	-11.8522
सूचना	-11.8522
▁बाव	-11.8526
▁इन्होने	-11.8526
▁रोना	-11.8528
▁चूँकि	-11.8529
▁मीठी	-11.853
▁छु	-11.853
▁दोगुनी	-11.8533
▁मूर्तियों	-11.8535
▁कक्षाओं	-11.8537
▁पुनर्विचार	-11.8541
▁काउंटी	-11.8542
जौनपुर	-11.8542
ियस	-11.8543
act	-11.8545
▁ओपनर	-11.8546
▁उठाये	-11.8547
▁मेने	-11.8547
▁इन्ही	-11.8548
टक	-11.8548
्ति	-11.8549
▁इल	-11.8551
▁बिठा	-11.8553
▁वॉट्सऐप	-11.8555
▁मशरूम	-11.8555
ीची	-11.8558
▁बटोर	-11.8558
▁टॉपिक	-11.856
▁राजभवन	-11.8561
्रि	-11.8561
▁उर्वरक	-11.8566
▁संजू	-11.8567
▁१३	-11.8567
पहला	-11.8568
▁इब्राहिम	-11.8569
▁प्रख्यात	-11.8569
▁कबड्डी	-11.857
▁जिम्मा	-11.857
▁निशुल्क	-11.857
▁पिया	-11.8572
▁विश्वसनीयता	-11.8576
▁थानों	-11.8584
▁गल	-11.8584
कब	-11.8585
पुस्तक	-11.8585
▁वन्य	-11.8586
ne	-11.8586
▁असफलता	-11.8587
▁उछल	-11.8587
▁गोरे	-11.8588
▁ऑलराउंडर	-11.8588
मण्डल	-11.859
▁मटर	-11.859
ॅन	-11.859
▁स्वाभिमान	-11.8591
▁US	-11.8591
▁मचाया	-11.8592
▁मांगते	-11.8592
▁जण	-11.8593
राजनीतिक	-11.8593
▁शंकराचार्य	-11.8594
सेक्स	-11.8594
▁1960	-11.8596
▁फिसल	-11.8598
▁नवभारतटाइम्स	-11.8598
▁रगड़	-11.86
▁नौजवानों	-11.8603
▁जागृत	-11.8606
▁नरसंहार	-11.8608
▁बंदोबस्त	-11.8608
▁आपात	-11.8608
▁कल्चर	-11.8608
▁राहणार	-11.8609
▁खाती	-11.861
▁निपट	-11.8611
▁अनलॉक	-11.8613
▁झुलस	-11.8613
▁मौकों	-11.8613
▁लेप	-11.8614
▁परंपराओं	-11.8615
-18	-11.8616
धार्मिक	-11.8616
▁दाएं	-11.8622
▁अध्‍यक्ष	-11.8622
▁जिंक	-11.8623
▁लेडी	-11.8623
ायन	-11.8623
▁भ्रमित	-11.8625
▁जिस्म	-11.8626
▁यान	-11.8626
▁महज़	-11.8627
▁उज्ज्वल	-11.8627
▁रेन	-11.8631
▁खींचा	-11.8632
▁वाच	-11.8636
डीह	-11.8636
▁प्रचलन	-11.8637
▁1:	-11.8637
बॉक्स	-11.864
दत्त	-11.8641
▁रोष	-11.8641
▁धीरज	-11.8642
▁दंपति	-11.8642
तरा	-11.8645
▁सामंजस्य	-11.8646
▁जोड़ता	-11.8647
é	-11.8649
ट्रो	-11.865
▁नु	-11.865
AM	-11.8651
▁चाहूंगा	-11.8652
▁पहाड़ियों	-11.8654
▁झुक	-11.8655
▁अपकमिंग	-11.8656
▁गंतव्य	-11.8656
▁शातिर	-11.8656
रियों	-11.8659
गरीब	-11.8662
.24	-11.8663
▁पाले	-11.8665
▁कराची	-11.8665
ताजा	-11.8665
▁.'	-11.8666
▁बढ़ाए	-11.867
▁धंधे	-11.8671
वर्क	-11.8672
ळ्या	-11.8672
▁छान	-11.8672
▁नेम	-11.8675
सुख	-11.8676
▁ट्र	-11.8677
▁в	-11.8678
▁अज	-11.8683
.27	-11.8685
▁खुशियां	-11.8685
▁मोरे	-11.8685
▁पूछता	-11.8687
▁रसूल	-11.8688
केवल	-11.869
.28	-11.8693
▁पड़ोसियों	-11.8693
धो	-11.8695
▁रीढ़	-11.8696
सोल	-11.8696
▁नगरीय	-11.8696
▁पैदावार	-11.8699
्सन	-11.8702
▁पढ़ता	-11.8704
▁गाथा	-11.8705
साइट	-11.8706
▁रितेश	-11.8706
▁रिटायर्ड	-11.8709
सत्ता	-11.8711
▁सकने	-11.8711
रोन	-11.8712
▁सुनाने	-11.8714
▁आईपीसी	-11.8715
▁०	-11.8717
ानु	-11.8719
पोल	-11.8719
▁संक्रांति	-11.8719
▁हटाना	-11.872
प्रदान	-11.872
IS	-11.8721
▁चिट	-11.8722
.2021	-11.8722
▁इंचार्ज	-11.8724
▁विक्रमी	-11.8724
▁केदार	-11.8724
▁मुख्यधारा	-11.8727
▁उलझ	-11.8728
▁मालदीव	-11.8728
▁हाइवे	-11.8728
▁लाखो	-11.873
▁स्ट	-11.873
▁झोंक	-11.8731
▁लक्षित	-11.8731
▁पिला	-11.8735
▁गहने	-11.8737
▁विभागाने	-11.8738
▁जुड़ाव	-11.8739
▁पहुंचेंगे	-11.8741
▁गांधीजी	-11.8741
▁न्यायालयात	-11.8741
हाउस	-11.8741
▁खतरों	-11.8744
▁गर्भाशय	-11.8754
▁शराबबंदी	-11.8754
▁112	-11.8755
▁अनन्या	-11.8755
ावरून	-11.8758
▁अफेयर	-11.8759
सीमा	-11.876
▁डिस	-11.8761
▁टाक	-11.8765
▁एम्	-11.8766
▁गम्भीर	-11.8768
▁रूबरू	-11.8768
▁मैगजीन	-11.8768
बंध	-11.8768
▁रजिस्टर्ड	-11.8769
▁मानहानि	-11.8772
▁पोत	-11.8775
▁लंका	-11.8776
▁क्रैश	-11.8778
नेशनल	-11.8778
▁दबाकर	-11.8781
याद	-11.8781
▁वैष्णव	-11.8782
आईपीएल	-11.8782
▁नुस्खे	-11.8782
▁बाक़ी	-11.8783
▁आकांक्षा	-11.8783
▁धारक	-11.8783
▁साधक	-11.8783
म्भ	-11.8785
▁हब	-11.8789
▁1962	-11.8791
▁सनसनीखेज	-11.8792
लीन	-11.8793
▁मसूद	-11.8793
▁दरोगा	-11.8797
▁पौ	-11.8798
▁अच्छाई	-11.88
▁निर्दिष्ट	-11.8801
▁लौह	-11.8802
▁चटर्जी	-11.8802
▁सोया	-11.8803
न्द्र	-11.8805
▁दंगल	-11.8805
▁बसंत	-11.8805
कहा	-11.8805
▁मुंडे	-11.8806
▁गलियों	-11.8806
hu	-11.8807
▁संतुष्टि	-11.8807
्वी	-11.8809
▁मादा	-11.8809
▁आफिस	-11.8811
्यूट	-11.8811
▁गिरते	-11.8811
ुल्ला	-11.8812
▁तबके	-11.8813
▁नोकिया	-11.8813
खास	-11.8814
▁उत्पादित	-11.8819
▁दुकानदारों	-11.8821
▁हंगामे	-11.8821
▁चिन्ता	-11.8822
प्प	-11.8824
▁अल्ट्रा	-11.8826
▁छोड़े	-11.883
▁2-	-11.883
पिंग	-11.883
м	-11.883
▁सूचनाओं	-11.8831
▁येदियुरप्पा	-11.8831
▁सर्कल	-11.8832
ub	-11.8834
▁प्लेस	-11.8835
▁खजाने	-11.8836
▁कत्ल	-11.8837
▁शोरूम	-11.8837
ाइ	-11.8837
▁आभारी	-11.8839
सूर्य	-11.884
▁जीरा	-11.8841
▁मालिनी	-11.8843
▁मंजू	-11.8847
वर्ड	-11.8848
▁संगीता	-11.8848
▁एट	-11.885
▁लण्ड	-11.885
▁प्रतिभाशाली	-11.8851
▁ढ़	-11.8852
▁मेटल	-11.8853
कार्यक्रम	-11.8854
पावर	-11.8854
▁Ar	-11.8855
फील्ड	-11.8855
▁blog	-11.8856
▁सरोज	-11.8857
▁फ़ा	-11.8862
▁कुम्भ	-11.8862
▁रस्ता	-11.8865
▁मज़ाक	-11.8865
▁लागला	-11.8867
▁भूलें	-11.8868
▁चो	-11.8868
▁1987	-11.887
▁कंस	-11.887
▁अनुष्ठान	-11.8871
▁संप्रदाय	-11.8871
▁हायर	-11.8872
▁एबी	-11.8872
▁सुस्त	-11.8872
पाद	-11.8874
▁नवाजा	-11.8876
▁तयारी	-11.8876
▁r	-11.8879
▁जलवा	-11.888
▁सेनाओं	-11.888
▁चेकिंग	-11.8882
▁खुर	-11.8884
▁आठवें	-11.8885
▁राजस्थानी	-11.8886
▁पंचमी	-11.8886
▁धा	-11.8887
▁सिफारिशों	-11.8887
▁सिद्धि	-11.8888
▁डिटेल्स	-11.8889
टिन	-11.8889
▁तात्पर्य	-11.8891
▁Vi	-11.8891
▁तंत्रिका	-11.8891
दारों	-11.8892
▁कैंपेन	-11.8893
▁सोयाबीन	-11.8894
▁ग्रसित	-11.8896
▁रक्कम	-11.8897
जयपुर	-11.8899
▁स्वीडन	-11.89
▁ओळख	-11.89
▁कुपोषण	-11.8901
फॉर्म	-11.8901
▁कारगिल	-11.8901
▁प्रेग्नेंसी	-11.8902
वरी	-11.8903
▁मिटाने	-11.8908
▁दोहराया	-11.8908
बरी	-11.8908
▁लाभान्वित	-11.891
▁अवस्थी	-11.891
▁इंफेक्शन	-11.891
नुमा	-11.8917
▁कारतूस	-11.892
▁जींस	-11.8921
पै	-11.8923
▁जोड़ते	-11.8925
ंदी	-11.8926
▁कुकीज़	-11.8927
▁एआई	-11.8928
▁टिकी	-11.8929
▁पशुपालन	-11.8935
▁ड्रिंक	-11.8935
▁मिजोरम	-11.8937
▁छः	-11.8937
जिंग	-11.8938
▁सॉफ़्टवेयर	-11.894
▁बिन्दु	-11.8941
▁गधे	-11.8942
▁उथल	-11.8942
▁खबरे	-11.8942
▁विनायक	-11.8943
इये	-11.8946
▁परिपूर्ण	-11.8947
▁लाभों	-11.8948
▁किसका	-11.8948
▁हवाओं	-11.895
▁नेटफ्लिक्स	-11.8951
▁मोहल्ला	-11.8951
ell	-11.8951
▁फ़ाइलों	-11.8953
▁सेमिनार	-11.8955
▁सुनाते	-11.8959
▁सॉस	-11.8963
▁रेगिस्तान	-11.8965
▁गोर	-11.8965
▁मंद	-11.8966
पोषण	-11.8966
▁बीजों	-11.8969
▁हसीन	-11.897
▁अजिंक्य	-11.897
▁पटाखों	-11.897
वादियों	-11.897
▁सूर्योदय	-11.8971
▁महाराणा	-11.8975
▁मिळाले	-11.8978
आन्ध्र	-11.8978
▁रुपयों	-11.8981
▁राजभर	-11.8981
लियों	-11.8981
▁विलंब	-11.8984
▁भूखे	-11.8984
▁बडे	-11.8987
▁भिलाई	-11.8987
▁पहेली	-11.899
▁गालियां	-11.8991
▁साईट	-11.8991
बसपा	-11.8994
▁प्रमुखता	-11.8994
इट	-11.8998
▁जुर्म	-11.9
▁मुआवजे	-11.9
▁निपटा	-11.9
▁फेयर	-11.9001
▁अस्वीकार	-11.9001
▁बांधकर	-11.9003
रवा	-11.9003
▁पतंग	-11.9003
▁पहिया	-11.9004
▁तरीक़े	-11.9005
▁कराती	-11.9005
▁हेनरी	-11.9006
ध्या	-11.9007
ेरे	-11.9009
्थ	-11.9009
▁नाश्ते	-11.901
▁रिक्शा	-11.901
▁स्थितियां	-11.9011
▁सूचनाएं	-11.9012
▁रक्तदान	-11.9012
▁स्‍वास्‍थ्‍य	-11.9013
▁Co	-11.9014
▁एकेडमी	-11.9015
▁त्याने	-11.9016
▁शिर	-11.9018
▁खाद्यान्न	-11.902
▁टेस्‍ट	-11.9021
▁ब्रज	-11.9021
टिप्पणी	-11.9023
▁दोहरे	-11.9024
ेटेड	-11.9025
▁कथाओं	-11.9025
▁आन	-11.9026
▁पंड्या	-11.9027
▁क्रिस्टल	-11.9028
परा	-11.9028
▁थ्री	-11.9034
▁पुरस्कारों	-11.9036
▁चोटिल	-11.9039
▁बूंद	-11.904
▁छाई	-11.904
▁अन्तिम	-11.9041
▁खामोश	-11.9041
▁पौड़ी	-11.9043
▁खाल	-11.9044
▁चना	-11.9044
▁अंतर्	-11.9044
▁आंदोलनों	-11.9045
ac	-11.9046
▁गुज़र	-11.9046
▁विक्री	-11.9047
▁दब	-11.9047
लिम	-11.9049
▁मादक	-11.905
▁एंडरसन	-11.905
▁डेटाबेस	-11.9051
▁मिजाज	-11.9051
▁चमोली	-11.9052
▁लिप	-11.9052
ोनी	-11.9053
▁आठवीं	-11.9053
▁1986	-11.9054
▁पितृ	-11.9055
▁बड़ौदा	-11.9055
िद	-11.9057
▁मनीषा	-11.9057
▁अयोग्य	-11.9057
▁चने	-11.9057
▁पकड़ी	-11.9057
▁मलबे	-11.9058
▁आमजन	-11.9058
▁वोडाफोन	-11.9059
▁अनावरण	-11.906
▁उड़ाने	-11.9063
▁बेगूसराय	-11.9065
▁मेघ	-11.9068
▁खोकर	-11.9069
▁बचाता	-11.9069
ंदर	-11.9069
▁ठिकाने	-11.907
▁रम	-11.9071
सपा	-11.9071
▁वयस्कों	-11.9072
.22	-11.9072
िंक	-11.9073
mm	-11.9075
▁मैरिज	-11.9075
▁मागील	-11.9076
<	-11.9076
क्की	-11.9078
ैड	-11.908
▁सहेली	-11.9081
▁थानाध्यक्ष	-11.9081
▁वस्तुएं	-11.9087
शाही	-11.9087
▁मिलें	-11.9088
▁मप्र	-11.9089
▁अंडा	-11.9089
▁कूड़ा	-11.9091
▁दरगाह	-11.9092
▁मारते	-11.9094
▁डीलर	-11.9096
▁संवेदनशीलता	-11.9097
▁मच्छर	-11.9097
▁देवरिया	-11.9099
उसे	-11.9099
इंड	-11.91
▁चैंपियंस	-11.9101
▁सिब्बल	-11.9101
▁ओलिंपिक	-11.9106
▁असहज	-11.9106
▁चन्द्रमा	-11.9107
बच्चे	-11.911
▁बिखर	-11.9111
▁थेरेपी	-11.9112
▁पायेंगे	-11.9114
▁चन्द	-11.9115
▁खिलौने	-11.9116
तुला	-11.9116
म्स	-11.9118
▁वृषभ	-11.9121
▁विलास	-11.9121
▁ब्ल	-11.9122
▁ताक	-11.9123
▁सराहा	-11.9124
वण्यात	-11.9125
▁टॉवर	-11.9126
▁वश	-11.9126
▁छिड़काव	-11.9126
▁निखार	-11.9128
च्च	-11.9131
▁Apps	-11.9132
▁हुक्म	-11.9132
▁102	-11.9134
सूर	-11.9134
पूरी	-11.9134
AN	-11.9134
▁नावे	-11.9136
▁भीमराव	-11.9137
▁अधूरी	-11.9137
▁बैठता	-11.9137
▁ख़तरा	-11.9142
▁वरीयता	-11.9142
▁कुमारस्वामी	-11.9143
▁झाल्याचे	-11.9143
▁सजग	-11.9145
ड़ियों	-11.9145
▁आंगनबाड़ी	-11.9146
▁संवेदी	-11.9146
▁पराली	-11.9147
तों	-11.9149
▁क्रिप्टोकरेंसी	-11.915
▁ड्राफ्ट	-11.9151
▁मूल्यवान	-11.9152
▁एडिशन	-11.9153
ड्स	-11.9154
▁पीढ़ियों	-11.9156
▁माध्यमों	-11.9156
о	-11.9157
▁अनुशंसा	-11.9161
▁कन्नौज	-11.9162
▁पहचानने	-11.9162
▁अन्	-11.9163
ع	-11.9163
▁एडी	-11.9163
▁वेदों	-11.9165
▁छप	-11.9166
▁इतालवी	-11.9167
▁चलाकर	-11.9167
▁स्टोन	-11.9169
▁संक्षेप	-11.9169
▁प्लग	-11.917
▁चर्चाओं	-11.9171
▁जलने	-11.9171
▁!!	-11.9171
▁नंगे	-11.9172
.75	-11.9172
▁घुल	-11.9172
▁वज़न	-11.9173
▁राजनयिक	-11.9175
वुड	-11.9175
po	-11.9176
▁नुक़सान	-11.9177
▁वॉयस	-11.9177
▁चट्टान	-11.9177
▁स्टारर	-11.9179
▁पाटीदार	-11.9182
▁मैनुअल	-11.9182
▁खुशहाल	-11.9182
▁लोकेश	-11.9183
▁भावनाएं	-11.9184
▁क्रोम	-11.9184
ik	-11.9185
पूजा	-11.9187
▁मार्किट	-11.9187
▁नग्न	-11.9188
सौ	-11.919
▁हैप्पी	-11.9192
▁एसएससी	-11.9193
▁निवड	-11.9194
विवाद	-11.9194
▁शरणार्थियों	-11.9197
▁असल्याचा	-11.9198
▁सोमनाथ	-11.9198
й	-11.92
▁तिर	-11.9201
लॉग	-11.9201
▁दंत	-11.9201
▁बुर	-11.9202
आईएस	-11.9204
▁याचिकाकर्ता	-11.9205
▁नाखून	-11.9207
▁आरा	-11.9207
▁एलपीजी	-11.9207
मद	-11.9208
इंट	-11.9208
▁बेचना	-11.9208
▁2:	-11.921
▁the	-11.9211
▁लड़े	-11.9211
▁रूपरेखा	-11.9213
▁ठप	-11.9214
▁उठती	-11.9214
▁मालवीय	-11.9217
▁एमएसपी	-11.9219
AT	-11.9221
▁सीए	-11.9222
▁दीक्षा	-11.9222
▁जलाकर	-11.9222
▁एह	-11.9224
▁आईसीआईसीआई	-11.9225
▁शहा	-11.9227
▁सोडा	-11.9228
▁वॉल्यूम	-11.9229
▁आसिफ	-11.923
गुरू	-11.923
▁खोया	-11.9232
▁माउस	-11.9232
▁गाँवों	-11.9232
be	-11.9232
▁ब्रेस्ट	-11.9233
▁करुणा	-11.9233
▁900	-11.9233
विषय	-11.9235
▁स्किल	-11.9235
▁परिषद्	-11.9235
जाना	-11.9238
▁स्टॉप	-11.9239
▁निस्तारण	-11.9243
▁टोन	-11.9245
▁बहोत	-11.9248
▁मशक्कत	-11.9248
▁भूरे	-11.9248
▁Pro	-11.9249
▁मुर्गा	-11.9249
ish	-11.925
▁भागातील	-11.925
▁1985	-11.9252
▁अपमानित	-11.9258
▁खजाना	-11.9259
ऊं	-11.926
▁नस	-11.926
आइए	-11.9261
iv	-11.9262
▁ज़िंदा	-11.9264
वर्ती	-11.9266
ाश	-11.9267
मास	-11.9272
▁गोवर्धन	-11.9274
▁टेंशन	-11.9275
ोई	-11.9276
▁जाएँगे	-11.9276
ेटर	-11.9278
▁कॉर्पोरेशन	-11.9279
ल्यानंतर	-11.9281
▁२५	-11.9281
▁भेड़	-11.9284
▁एयरलाइन	-11.9285
हाथ	-11.9286
▁पीवी	-11.9287
उत्पाद	-11.9288
▁सीताराम	-11.9289
▁उर	-11.9292
▁नोट्स	-11.9294
ue	-11.9295
▁दिवशी	-11.9295
▁शीत	-11.9295
युद्ध	-11.9295
ب	-11.9296
ायी	-11.9299
लोकप्रिय	-11.9299
▁भयभीत	-11.9299
▁लॉन्ग	-11.9302
▁तंबाकू	-11.9302
▁करनेवाले	-11.9304
▁छात्रावास	-11.9304
▁कॉरपोरेशन	-11.9305
▁न्यूरो	-11.9305
▁लात	-11.9306
▁किसकी	-11.9307
ापासून	-11.9307
▁स्प्रे	-11.9307
able	-11.9308
ाग	-11.9308
एमपी	-11.9308
▁विनम्र	-11.9309
फ़र	-11.931
▁संस्मरण	-11.9312
▁निकालते	-11.9317
ड्ढ	-11.9318
▁लाइनों	-11.9319
▁स्‍थान	-11.932
▁साह	-11.9321
▁छिपी	-11.9321
▁अंधविश्वास	-11.9322
िंग्स	-11.9323
जहाँ	-11.9323
▁समझी	-11.9324
▁रिज़र्व	-11.9325
▁चढ़ाई	-11.9327
▁बसें	-11.9327
फ्ल	-11.9327
▁शिक	-11.9329
ंडर	-11.933
▁दुश्मनों	-11.933
▁आड़े	-11.9331
स्टिक	-11.9333
▁दायरा	-11.9335
मिशन	-11.9336
रहित	-11.9338
▁फीड	-11.934
▁कल्याणकारी	-11.9343
▁5,000	-11.9346
▁प्रतापगढ़	-11.9346
▁प्रोफ़ाइल	-11.9346
▁टेली	-11.9347
▁ख़रीद	-11.9348
▁बांदा	-11.9349
▁छिपाने	-11.9351
अगले	-11.9352
▁Singh	-11.9355
▁समेट	-11.9355
▁रूह	-11.9355
▁बताइए	-11.9355
▁आलोचकों	-11.9356
▁चिन	-11.9357
▁पानीपत	-11.9358
▁अर्थशास्त्री	-11.9359
▁सबमिट	-11.936
अभि	-11.936
▁रिमांड	-11.9362
▁रिमोट	-11.9362
ay	-11.9364
▁राधिका	-11.9364
▁सहेज	-11.9366
▁ऊस	-11.9367
в	-11.9367
▁राष्ट्रमंडल	-11.9368
▁लड़ेंगे	-11.9369
▁वैकेंसी	-11.9372
▁छुट	-11.9372
▁कूट	-11.9373
▁खयाल	-11.9373
▁February	-11.9373
परीक्षा	-11.9374
▁1983	-11.9375
▁पूछें	-11.9377
इंडियन	-11.9377
▁मांड	-11.938
▁वाइन	-11.9381
▁लेक	-11.9383
▁देहात	-11.9385
▁यंदा	-11.9385
▁of	-11.9386
▁बचाए	-11.9386
ai	-11.9387
▁लेबर	-11.9388
▁प्रेरक	-11.9389
▁बाराबंकी	-11.939
▁ट्रैवल	-11.9393
गुप्त	-11.9393
▁जप्त	-11.9395
▁पाट	-11.9396
▁झु	-11.9399
▁रातों	-11.9399
▁निश्‍चित	-11.9403
▁मेगावाट	-11.9403
.29	-11.9405
▁अनजाने	-11.9406
▁नायर	-11.9406
▁आयेगा	-11.9407
▁पोलिसांना	-11.9408
▁विश्वकप	-11.941
▁बीटा	-11.941
▁मशीनें	-11.9414
▁बिखेर	-11.9415
▁फिक्स	-11.9418
▁ओके	-11.9419
▁गैरकानूनी	-11.9419
▁चालकों	-11.9419
▁उद्धरण	-11.942
▁भली	-11.9421
▁Online	-11.9422
▁समूचे	-11.9424
▁अदाकारा	-11.9424
▁सना	-11.9425
▁माफ़ी	-11.9426
▁हटकर	-11.9426
go	-11.9427
▁चैक	-11.9427
ah	-11.9429
ट्र	-11.9429
गिर्द	-11.943
mi	-11.943
▁चैलेंजर्स	-11.943
फिन	-11.9431
खेड़ा	-11.9433
▁मूवमेंट	-11.9441
▁शौकीन	-11.9444
View	-11.9445
▁बाजू	-11.9448
▁बेचकर	-11.9448
कारक	-11.9448
▁टाइट	-11.9449
▁दिलाता	-11.945
▁कमाना	-11.945
▁रैकेट	-11.9451
▁डेड	-11.9451
हद	-11.9451
▁कच्ची	-11.9453
▁चित्रकूट	-11.9454
▁वाक	-11.9454
्ला	-11.9455
▁एल्	-11.9457
▁कारखाना	-11.9458
▁कलात्मक	-11.9459
Recent	-11.9461
▁बैठना	-11.9462
▁रायगढ़	-11.9463
▁भरते	-11.9463
जोर	-11.9463
बोल	-11.9463
▁भीख	-11.9464
दोष	-11.9465
▁जद	-11.9466
▁इट	-11.9467
▁बल्लेबाज़	-11.9469
▁एसटीएफ	-11.947
▁अनगिनत	-11.9471
▁पन	-11.9472
६	-11.9473
रेखा	-11.9475
▁कटरीना	-11.9476
▁नियंत्रक	-11.9476
▁स्क्रीनशॉट	-11.9477
▁पंचायती	-11.948
AL	-11.9481
ci	-11.9481
▁पांचवीं	-11.9482
▁दुर्भाग्यपूर्ण	-11.9482
▁गिरिराज	-11.9483
▁संपदा	-11.9484
ोरी	-11.9485
▁शक्तियां	-11.9486
▁हेलमेट	-11.9487
▁विश्लेषक	-11.9488
▁कोशिका	-11.9488
▁शौर्य	-11.9489
▁कमाया	-11.9492
▁अनुपस्थिति	-11.9493
▁वीरता	-11.9494
प्रेस	-11.9495
▁अवध	-11.9496
▁श्राद्ध	-11.9496
▁आणखी	-11.9497
▁बेवजह	-11.9497
▁पीएच	-11.9498
▁ऊँची	-11.9498
▁सादगी	-11.9498
▁मतदारसंघ	-11.9499
▁रुकावट	-11.9501
▁टिकाऊ	-11.9505
▁प्रदर्शनों	-11.9505
▁मिलनी	-11.9505
-21	-11.9505
▁सरलता	-11.9506
▁नतीजतन	-11.9507
▁क्लाउड	-11.9507
▁स्तनपान	-11.9508
निर्	-11.9511
▁जासूस	-11.9511
▁जुड़ें	-11.9513
▁कैमरों	-11.9513
▁चिपका	-11.9515
▁भागे	-11.9516
▁स्‍व	-11.9516
▁1975	-11.9518
▁ट्यूमर	-11.9518
▁गड्ढे	-11.9518
▁18.	-11.952
▁सिंड्रोम	-11.9524
▁An	-11.9524
सोमवार	-11.9525
▁कहो	-11.9526
▁इंसाफ	-11.9528
▁मुला	-11.9528
▁नेटवर्किंग	-11.9529
no	-11.953
▁सीखें	-11.9532
नन	-11.9532
▁पीडीपी	-11.9533
▁राब	-11.9534
▁सुलझ	-11.9534
▁हुकूमत	-11.9534
▁दुर्व्यवहार	-11.9534
रुप	-11.9534
विविध	-11.9535
▁बंधे	-11.9537
▁मुर	-11.9537
▁टिप्पणियां	-11.9539
▁दवाइयों	-11.954
▁सोलह	-11.954
ुओं	-11.954
wa	-11.9541
-14	-11.9541
▁रुका	-11.9541
▁कैंट	-11.9543
एगा	-11.9544
▁यूपीएससी	-11.9544
▁पीकर	-11.9544
हून	-11.9545
▁प्रतिज्ञा	-11.9549
▁नीतियां	-11.9549
ॉय	-11.9549
▁सुचारू	-11.955
एजुकेशन	-11.9551
▁चतुर्थ	-11.9554
क्रिया	-11.9555
▁प्रोमो	-11.9558
▁मुख्यपृष्ठ	-11.9559
▁थियेटर	-11.9561
▁जानकारियों	-11.9561
▁निकाह	-11.9561
तेज	-11.9562
▁सापेक्ष	-11.9563
▁उद्योगपति	-11.9563
श्च	-11.9563
▁योगा	-11.9564
ढ़ी	-11.9565
▁पूज्य	-11.9566
जाम	-11.9567
▁क्रे	-11.9567
वाड	-11.9568
▁साइट्स	-11.957
▁हरकतों	-11.9573
▁संस्थागत	-11.9574
▁कलह	-11.9576
▁मानदंड	-11.9576
▁बेळगाव	-11.9577
▁संकाय	-11.9577
▁पिंड	-11.9577
▁हरेक	-11.9579
▁डांट	-11.958
ुवा	-11.958
▁बोल्ट	-11.9582
▁भूस्खलन	-11.9582
▁टैगोर	-11.9582
धु	-11.9582
मिस	-11.9583
▁बाली	-11.9587
▁५७	-11.9587
▁रामविलास	-11.9588
▁अजहर	-11.9589
शासन	-11.9589
▁सैटेलाइट	-11.959
▁अनाथ	-11.959
▁सरोकार	-11.9591
▁नेचुरल	-11.9591
▁राधे	-11.9591
▁3-4	-11.9592
▁प्रोफ़ेसर	-11.9592
▁स्टोक्स	-11.9592
इंटरव्यू	-11.9593
▁जबर्दस्त	-11.9598
योजना	-11.9598
▁सुनहरा	-11.9599
▁निखिल	-11.9599
▁आईपीओ	-11.9599
प्रत्येक	-11.9601
खु	-11.9602
▁पर्दाफाश	-11.9603
Loading	-11.9604
▁वादों	-11.9605
▁मेक	-11.9605
▁गियर	-11.9607
▁राजकोषीय	-11.9608
▁हाजी	-11.9611
गली	-11.9611
क्रो	-11.9612
पत्रिका	-11.9612
▁अंगूठी	-11.9614
▁सहकारिता	-11.9614
▁जयप्रकाश	-11.9615
▁पका	-11.9615
▁माओवादियों	-11.9619
ट्रा	-11.962
▁जाऊंगा	-11.9622
▁बहुसंख्यक	-11.9623
जिया	-11.9624
▁करनाल	-11.9624
▁जर्सी	-11.9624
▁स्लाइड	-11.9628
िनो	-11.963
▁एम्बुलेंस	-11.963
▁कार्यकर्ते	-11.9631
शर्ट	-11.9634
▁ज्योतिरादित्य	-11.9635
▁निराशाजनक	-11.9635
▁बुलंदशहर	-11.9635
▁समज	-11.9639
▁बराक	-11.964
▁बल्ब	-11.9641
▁मारना	-11.9645
▁चुनौतियां	-11.9651
शान	-11.9651
▁पसन्द	-11.9651
▁डाई	-11.9655
▁पत्रिकाओं	-11.9655
ite	-11.9656
हरे	-11.9658
▁याप्रकरणी	-11.9659
पट्टी	-11.966
▁दौड़ा	-11.966
र्इ	-11.966
▁असमानता	-11.9661
कृति	-11.9661
SC	-11.9662
▁मिडकैप	-11.9662
▁अस्थमा	-11.9662
▁अखेर	-11.9663
▁1988	-11.9665
▁करी	-11.9666
▁अच्‍छा	-11.9667
▁इम	-11.9668
▁राइडर्स	-11.9669
▁गिराने	-11.967
▁रोहन	-11.967
▁प्रूफ	-11.9671
रोजगार	-11.9673
▁स्पेक्ट्रम	-11.9673
▁हॉ	-11.9677
नीचे	-11.9678
▁चार्ल्स	-11.9678
▁मदर	-11.968
▁फ्रेश	-11.9681
▁नक्शा	-11.9683
▁पूर्वजों	-11.9683
▁इनेलो	-11.9684
▁अग्रसर	-11.9684
रक	-11.9684
बीसी	-11.9686
▁हाथियों	-11.9689
ाकडून	-11.969
प्रधान	-11.9692
▁Free	-11.9693
▁तापसी	-11.9693
कृपया	-11.9695
▁क्वा	-11.9695
▁पथरी	-11.9696
▁50,000	-11.9696
ंगर	-11.9696
▁बड	-11.9696
गि	-11.9696
▁खर्चों	-11.9697
▁क्रूड	-11.9698
▁आबकारी	-11.9699
▁नवाचार	-11.9699
▁वाहक	-11.97
माई	-11.97
लिस्ट	-11.9701
एयर	-11.9702
▁NEWS	-11.9703
ईसी	-11.9704
▁वैशाली	-11.9705
मौसम	-11.9705
▁काबिल	-11.9707
▁आख़िरी	-11.9708
बीएसई	-11.9708
▁बिगड़ने	-11.9708
▁हिस्ट्री	-11.9715
▁गोले	-11.9717
किसानों	-11.9718
▁परिपक्व	-11.9718
▁चित्रा	-11.9718
ेटिव	-11.9719
सच	-11.9719
ie	-11.972
ताई	-11.9721
▁गुजार	-11.9724
सपने	-11.9725
▁गोरी	-11.9725
▁कॉपीराइट	-11.9726
▁चिंताजनक	-11.9727
▁चिपक	-11.9728
ana	-11.9728
▁कॉर्नर	-11.9731
▁दुष्ट	-11.9732
दाता	-11.9733
▁विजन	-11.9734
▁अभिन्न	-11.9735
रायपुर	-11.9735
▁लूटने	-11.9738
▁स्वा	-11.974
est	-11.9741
ाप	-11.9742
▁परमार	-11.9742
▁बटालियन	-11.9742
▁मोटापे	-11.9743
▁नेगी	-11.9745
▁खिसक	-11.9747
बॉल	-11.9747
IC	-11.9749
▁बॉबी	-11.975
▁ब्रो	-11.9751
▁नारद	-11.9751
▁आत्मकथा	-11.9753
▁भागीदार	-11.9754
बेन	-11.9756
▁चौड़ा	-11.9756
▁लिप्त	-11.9759
▁बनानी	-11.976
▁वित्तमंत्री	-11.9762
▁संधी	-11.9762
सदस्यता	-11.9763
▁उठाएं	-11.9764
पारा	-11.9765
▁गांठ	-11.9769
tra	-11.977
▁माओवादी	-11.9773
▁छाए	-11.9773
▁कैप्चर	-11.9775
▁रास्तों	-11.9775
Get	-11.9775
▁सिडनी	-11.9775
▁एडम	-11.9777
ावत	-11.9778
▁ख्वाब	-11.978
िशन	-11.9782
दवा	-11.9783
▁रस्ते	-11.9786
पर्यावरण	-11.9787
▁इस्‍तीफा	-11.9791
▁कुलकर्णी	-11.9791
साफ	-11.9791
▁चित	-11.9794
▁ग्रिड	-11.9795
ल्लू	-11.9796
▁गुरुद्वारा	-11.9797
▁दोहरी	-11.9799
▁भव	-11.9799
इन्	-11.98
▁(0.	-11.9801
▁षड्यंत्र	-11.9801
▁वोल्टेज	-11.9805
दों	-11.9807
▁मशीनरी	-11.9807
▁सद	-11.9807
▁रघुवर	-11.9808
▁रिपब्लिकन	-11.9809
▁खर्चे	-11.9809
ल्हा	-11.981
▁कंडोम	-11.9812
▁गलतियां	-11.9816
▁पृथक	-11.9819
▁दिल्या	-11.9819
व्रत	-11.9819
▁.10	-11.9819
▁शॉ	-11.9819
दूसरा	-11.982
▁टॉक	-11.982
बत	-11.9823
▁हफ़्ते	-11.9823
▁अंध	-11.9823
▁तत्पर	-11.9824
▁ओझा	-11.9826
▁रहस्यमय	-11.9828
▁समझती	-11.9828
▁स्कॉटलैंड	-11.9829
▁अह	-11.983
▁छि	-11.9831
▁महामार्ग	-11.9832
▁मैदानी	-11.9832
▁लिवर	-11.9835
देना	-11.9837
▁पोप	-11.9838
▁शृंखला	-11.9839
▁ध्‍यान	-11.9839
▁1200	-11.984
क्ल	-11.9842
▁डीन	-11.9843
▁0.5	-11.9843
वद	-11.9846
▁कस्टमर	-11.9847
▁मलयालम	-11.9848
▁मार्गों	-11.9849
▁ड़	-11.985
▁3-	-11.985
शरीर	-11.9851
▁एकाग्रता	-11.9852
▁कारनामा	-11.9853
▁लख	-11.9853
▁करवाते	-11.9856
▁पछाड़	-11.9857
▁घडली	-11.9857
पीट	-11.9859
▁विचलित	-11.9861
▁ज्वालामुखी	-11.9861
▁1948	-11.9863
▁हाफिज	-11.9863
▁घिस	-11.9864
▁बिजी	-11.9865
▁अगवा	-11.9865
ोम	-11.9866
▁लाईन	-11.9866
▁नामकरण	-11.9866
ाइज़	-11.9867
मीटर	-11.9869
मोहम्मद	-11.9869
-2018	-11.9869
▁मूंगफली	-11.9872
port	-11.9873
▁साधने	-11.9873
वृश्चिक	-11.9874
▁गइल	-11.9874
▁वाकिफ	-11.9875
▁बालाजी	-11.9877
ुअल	-11.9878
ेश्वरी	-11.9879
▁मिलीमीटर	-11.988
▁अपराह्न	-11.9883
▁पत्ती	-11.9883
कमल	-11.9886
ावल	-11.9886
▁भूमिकाओं	-11.9888
▁परिकल्पना	-11.9889
▁सेफ्टी	-11.9889
▁सुराग	-11.989
▁बरती	-11.9891
गैर	-11.9891
▁गगन	-11.9892
▁मित्रता	-11.9892
▁नजरें	-11.9893
▁खोद	-11.9893
▁अंकिता	-11.9894
सभा	-11.9894
▁समता	-11.9894
ग्रे	-11.9894
▁साहा	-11.9894
▁शिवम	-11.9896
शोर	-11.9897
▁पहुंचीं	-11.9898
▁त्याचे	-11.9899
▁कुशीनगर	-11.9901
रार	-11.9903
▁बदलावों	-11.9904
पंच	-11.9905
▁संविदा	-11.9905
▁तपासणी	-11.9905
▁इंक	-11.9909
▁मुख्यमंत्रियों	-11.991
▁शहनाज	-11.9911
सिम	-11.9911
▁आईपी	-11.9913
▁पढ़ाया	-11.9915
▁एचआईवी	-11.9916
▁नायिका	-11.9919
2014	-11.9919
चालक	-11.9919
▁खोलना	-11.992
▁रौनक	-11.9921
▁फिगर	-11.9922
▁गवर्नमेंट	-11.9925
▁विमानन	-11.9927
▁सामर्थ्य	-11.9927
▁रुद्राक्ष	-11.9927
▁Computer	-11.9927
▁नीयत	-11.9928
▁450	-11.9931
▁बेचैन	-11.9932
▁आत्मघाती	-11.9932
न्‍न	-11.9933
▁केन्द्रित	-11.9934
ru	-11.9934
▁फैक्टर	-11.9935
ैत	-11.9936
वाडा	-11.9937
▁दबदबा	-11.9938
`	-11.9938
नस	-11.994
जगत	-11.9941
▁ठग	-11.9941
▁लाग	-11.9941
गुल	-11.9942
▁वासियों	-11.9943
▁दीर्घकालिक	-11.9943
▁पटवारी	-11.9944
▁येते	-11.9944
▁निभाता	-11.9948
▁एकतरफा	-11.9948
▁माथुर	-11.9949
NC	-11.995
▁अनुप्रयोगों	-11.9952
▁मिडिल	-11.9955
दिसम्बर	-11.9957
प्रकार	-11.9957
▁दुष्यंत	-11.9957
▁ख्याति	-11.9957
▁आँसू	-11.996
▁केसरी	-11.996
ज़न	-11.9961
नायक	-11.9962
▁सामानों	-11.9962
▁बडा	-11.9963
▁लैंडिंग	-11.9964
करियर	-11.9964
▁प्रणालियों	-11.9965
Advertisement	-11.9966
▁विशेषज्ञता	-11.9968
पेन	-11.9971
▁फिजिकल	-11.9971
▁ओटीटी	-11.9971
▁क्यो	-11.9973
▁पराग	-11.9975
▁अफ़ग़ानिस्तान	-11.9975
ोदय	-11.9975
▁अनुयायी	-11.9976
▁फ़िल्टर	-11.9976
▁माफ़	-11.9976
▁उद	-11.9979
▁खेलकर	-11.9979
▁पैंट्री	-11.9982
जमा	-11.9983
▁नीच	-11.9985
▁Kumar	-11.9985
▁दीवाने	-11.9985
▁चढ	-11.9985
नाल	-11.999
नक	-11.9991
▁संवर्धन	-11.9993
▁हंसते	-11.9994
▁अंदाज़ा	-11.9996
▁रेस्क्यू	-11.9998
▁इलायची	-11.9998
▁जावे	-12.0001
विवाह	-12.0003
▁खेळ	-12.0003
ेट्स	-12.0003
▁स़िर्फ	-12.0004
▁आर्टिस्ट	-12.0004
▁खंडपीठ	-12.0004
▁ट्रिप	-12.0005
▁वीक	-12.0005
der	-12.0006
वृत्त	-12.0009
▁मुनाफे	-12.001
▁मौद्रिक	-12.001
▁सुई	-12.001
▁खेमे	-12.001
▁साहसिक	-12.001
▁कालीन	-12.001
▁बौ	-12.001
▁ब्रे	-12.0014
▁मैनेज	-12.0015
.80	-12.0016
प्रशासन	-12.0018
▁ग्रा	-12.002
▁निर्वहन	-12.0021
▁ग़	-12.0022
▁तक्रारी	-12.0024
माना	-12.0025
भिन्न	-12.0027
▁नंदा	-12.0027
▁बाण	-12.0027
गान	-12.0027
▁तांबे	-12.0029
बेहतर	-12.0029
ोड	-12.0029
▁आर्ट्स	-12.003
▁परिप्रेक्ष्य	-12.0032
▁सभ्य	-12.0032
▁बढा	-12.0035
गूगल	-12.0035
▁न्यायालयाने	-12.0036
▁गार	-12.0038
उनका	-12.0038
▁स्टेप्स	-12.004
▁झांक	-12.004
मोन	-12.0041
▁आधारभूत	-12.0042
▁गायकवाड	-12.0043
▁चंचल	-12.0043
▁मज़ेदार	-12.0043
▁स्टिंग	-12.0043
▁शिवपुरी	-12.0046
▁तबियत	-12.0046
▁पुरातत्व	-12.0048
▁धरातल	-12.0048
▁प्रसिद्धि	-12.0051
▁टाई	-12.0054
मिनी	-12.0055
▁बायोपिक	-12.0055
▁करीम	-12.0055
▁उघड	-12.0057
इया	-12.0057
▁Next	-12.0058
▁बास	-12.0058
▁क्षत्रिय	-12.0058
our	-12.006
▁सेल्फ	-12.0062
▁कारें	-12.0064
▁भावों	-12.0064
▁अक्षम	-12.0064
▁आभास	-12.0066
▁जिहाद	-12.0068
.60	-12.007
▁पोजीशन	-12.0071
▁पुनर्निर्माण	-12.0071
्चर	-12.0072
▁वर्षगांठ	-12.0072
▁हिन्द	-12.0074
▁पालकमंत्री	-12.0077
▁घोड़ा	-12.0077
▁घटनास्थळी	-12.0077
रविवार	-12.008
▁बेक	-12.0081
▁खजूर	-12.0082
▁गुनाह	-12.0082
▁हनी	-12.0083
▁ID	-12.0084
जेन	-12.0085
▁यात्राओं	-12.0085
▁करेंट	-12.0087
▁इच्छाओं	-12.009
▁निकटतम	-12.0092
ैक्स	-12.0093
▁ऑस्कर	-12.0093
काशी	-12.0094
▁सिंध	-12.0094
▁99.	-12.0094
▁बयानबाजी	-12.0097
▁जवाबी	-12.0097
थि	-12.0099
▁जानेवारी	-12.01
▁समन	-12.01
ज्	-12.0102
▁लौंग	-12.0102
▁Us	-12.0102
▁दूत	-12.0107
टोन	-12.0107
▁होंठों	-12.0109
ंडल	-12.0111
▁विधिवत	-12.0111
▁चीर	-12.0112
▁टोक	-12.0112
.65	-12.0116
▁पतले	-12.0116
▁करायी	-12.0116
▁360	-12.0118
▁झड़ने	-12.0119
सिक	-12.012
▁आल्याने	-12.012
▁गुदा	-12.012
▁तातडीने	-12.0121
▁चारो	-12.0123
▁रचने	-12.0123
धनु	-12.0126
▁सघन	-12.0126
सुपर	-12.0126
कर्ण	-12.0127
▁SEO	-12.0128
अस	-12.0129
विंदर	-12.013
▁मापदंड	-12.0131
▁चर्बी	-12.0132
▁साव	-12.0134
▁सहभागिता	-12.0138
ंन	-12.0138
▁2014-15	-12.0139
▁गद्दी	-12.0139
▁ताकतों	-12.014
▁नोक	-12.014
▁कवच	-12.0142
▁जाओगे	-12.0143
▁प्राध्यापक	-12.0143
▁ब्र	-12.0144
▁रूटीन	-12.0144
▁हाउसिंग	-12.0144
मित	-12.0145
▁पाव	-12.0147
▁गांजा	-12.015
▁क्लाइंट	-12.015
गिरि	-12.0152
▁जोसेफ	-12.0158
▁एकीकरण	-12.0159
▁Account	-12.016
▁नसीहत	-12.016
▁घबराहट	-12.016
▁सेलेब्स	-12.0161
▁मुकुल	-12.0163
▁रबी	-12.0163
▁जड़ें	-12.0164
सन्	-12.0164
▁ज़रिये	-12.0166
▁मनोरंजक	-12.0166
▁मुख्तार	-12.0166
▁सामग्रियों	-12.0166
▁तत्त्व	-12.0167
▁थेट	-12.0169
▁चार्जर	-12.0169
▁थ्रो	-12.017
▁पहनते	-12.017
▁Gallery	-12.0171
▁जिओ	-12.0173
चो	-12.0173
घट	-12.0174
ग्रामीण	-12.0175
▁शेन	-12.0175
?"	-12.0176
▁टै	-12.0176
▁कतर	-12.0176
▁हाइड्रोजन	-12.0177
▁दिल्लीः	-12.0179
प्	-12.0179
▁प्रिंटर	-12.0182
अव	-12.0183
▁ऑडिट	-12.0185
▁हवेली	-12.019
▁1972	-12.0192
▁एनटीपीसी	-12.0194
डेंट	-12.0194
ंकी	-12.0195
sc	-12.0196
चंडीगढ़	-12.0198
दीपक	-12.0199
▁कठिनाइयों	-12.02
▁गुजरते	-12.02
▁बढ़ाएं	-12.02
▁प्लेइंग	-12.02
बाड़ी	-12.0204
▁गंदा	-12.0204
▁उर्वशी	-12.0205
▁रोहिणी	-12.0205
▁किनारों	-12.0205
▁सीक्रेट	-12.0207
लेले	-12.0208
▁अव्वल	-12.0211
▁बीपी	-12.0211
▁तारीफ़	-12.0213
▁रामा	-12.0213
PS	-12.0213
िकी	-12.0213
▁लक्षात	-12.0214
▁पहुँचाने	-12.0214
▁अना	-12.0215
▁अखाड़ा	-12.0216
▁रेपो	-12.0217
▁कीबोर्ड	-12.0218
▁मज	-12.0218
▁झड़	-12.0219
गति	-12.022
वार्ता	-12.022
व्यवसाय	-12.022
▁आवृत्ति	-12.0222
▁प्राणियों	-12.0223
▁ढाका	-12.0224
ांसह	-12.0226
▁उत्‍तर	-12.0228
▁बेवकूफ	-12.0228
▁कैडर	-12.0228
▁एमए	-12.0229
▁हीरोइन	-12.0231
▁आम्रपाली	-12.0233
▁खरीफ	-12.0234
सेवक	-12.0236
▁भेजते	-12.0236
▁कार्यस्थल	-12.0237
▁रची	-12.0239
▁पंक्तियों	-12.024
▁अर्जेंटीना	-12.0241
▁मियां	-12.0241
▁सुनता	-12.0244
▁कळ	-12.0245
▁भाप	-12.0249
खण्ड	-12.025
▁कंधों	-12.025
▁हथेली	-12.025
▁कोलंबिया	-12.025
▁कुशलता	-12.0252
मूर्ति	-12.0254
वाड़ी	-12.0256
▁नानी	-12.0257
▁सहाय	-12.0257
▁आभासी	-12.0258
▁स्वास्थ	-12.0258
ापुर	-12.026
▁रखो	-12.0261
▁करण्यास	-12.0262
▁दरकिनार	-12.0262
▁विश्वकर्मा	-12.0262
▁मीट्रिक	-12.0262
▁बुवाई	-12.0262
▁झूम	-12.0263
▁बांग्ला	-12.0265
पेपर	-12.0266
▁अभिनेत्रियों	-12.0267
▁खिलवाड़	-12.0267
▁गैंगस्टर	-12.0268
हेड	-12.0269
▁पढ	-12.0271
ت	-12.0273
▁कीट	-12.0273
परक	-12.0273
▁सुरेन्द्र	-12.0274
▁बेरहमी	-12.0275
▁उनमे	-12.0275
शुक्रवार	-12.0278
▁सौन्दर्य	-12.0278
लाइव	-12.0279
▁मुट्ठी	-12.0279
▁व्यवसायिक	-12.0279
▁ठेका	-12.0279
▁अग	-12.028
▁परशुराम	-12.0282
टिया	-12.0284
▁मॉड	-12.0284
▁छेड़खानी	-12.0284
▁ठिकाना	-12.0284
▁107	-12.0285
if	-12.0285
▁आगंतुकों	-12.0286
▁असणार्‍या	-12.0288
▁जोड	-12.0288
राष्ट्रपति	-12.029
▁सुजुकी	-12.029
▁सिं	-12.029
घटना	-12.029
▁रणजी	-12.0293
▁सत्यापित	-12.0293
▁इजराइल	-12.0294
्दी	-12.0295
▁अपन	-12.0296
▁सरोवर	-12.0297
ूस	-12.0297
▁देण्यासाठी	-12.0298
▁बाब	-12.0299
▁सम्बंध	-12.0301
▁बोलत	-12.0303
2000	-12.0303
▁पंचम	-12.0307
ेक्शन	-12.0307
▁दूल्हे	-12.0307
sk	-12.031
▁एवज	-12.0311
▁सितारा	-12.0313
▁रावल	-12.0313
गोल	-12.0314
▁मानदंडों	-12.0315
ाउट	-12.0315
▁जरिया	-12.0315
▁कांप	-12.0317
▁.15	-12.0317
▁अनूठी	-12.0319
▁गठजोड़	-12.0319
▁निराकरण	-12.0319
दायी	-12.0319
विधान	-12.0319
▁अराजकता	-12.0322
▁मोनो	-12.0322
▁ऊँचा	-12.0322
▁दंग	-12.0323
▁एमबीए	-12.0323
▁अंधे	-12.0323
▁आयत	-12.0324
.–	-12.0324
▁हवन	-12.0324
▁बीयर	-12.0324
ावे	-12.0325
▁दिक्कतों	-12.0332
▁नामी	-12.0333
▁एटीएस	-12.0333
▁लपेट	-12.0336
▁उद्	-12.0338
▁सिवाय	-12.0339
अगला	-12.0341
▁नुस्खा	-12.0341
▁अस्मिता	-12.0341
▁संगोष्ठी	-12.0341
▁ऑनलाईन	-12.0342
co	-12.0342
म्बा	-12.0344
▁बंधा	-12.0344
▁खरी	-12.0345
▁सैक्स	-12.0345
▁नेगेटिव	-12.0348
▁अम्ल	-12.0349
इयां	-12.0351
▁भस्म	-12.0351
सलमान	-12.0351
न्य	-12.0352
बाय	-12.0352
▁प्राप्‍त	-12.0353
▁साय	-12.0356
किशोर	-12.0356
ga	-12.0357
▁खादी	-12.0357
अर्थ	-12.0357
ैस	-12.0358
▁अड	-12.0359
▁हौ	-12.0359
rk	-12.0359
▁Windows	-12.0361
▁मेथी	-12.0362
▁अष्ट	-12.0362
[...]
