<unk>	0
<s>	0
</s>	0
▁के	-3.46559
.	-3.52019
▁में	-3.75764
▁है	-3.78362
,	-3.91178
।	-3.97252
▁की	-4.00638
▁से	-4.27261
▁को	-4.27706
▁और	-4.36405
▁का	-4.4852
▁हैं	-4.7075
▁पर	-4.77479
▁ने	-4.80905
▁कि	-5.00671
▁.	-5.01278
▁भी	-5.05883
▁एक	-5.10867
▁लिए	-5.20664
▁	-5.28427
-	-5.30742
▁नहीं	-5.37496
▁कर	-5.41119
▁इस	-5.44153
▁ही	-5.51687
▁हो	-5.61092
▁तो	-5.63224
▁किया	-5.6707
▁था	-5.71045
▁यह	-5.73371
▁करने	-5.7896
▁साथ	-5.85727
▁गया	-5.86675
▁अपने	-6.06204
▁कहा	-6.11146
▁बाद	-6.13853
▁जो	-6.16749
▁रहे	-6.27102
▁तक	-6.27304
ी	-6.27506
▁या	-6.28996
▁दिया	-6.29172
▁आप	-6.29511
ों	-6.34522
▁थी	-6.35617
▁रहा	-6.36414
▁हुए	-6.39585
▁कुछ	-6.42099
▁जा	-6.43083
▁थे	-6.43368
▁लेकिन	-6.45238
:	-6.48579
▁वह	-6.50602
▁न	-6.50681
▁रही	-6.52378
▁पहले	-6.56537
▁करते	-6.59633
▁गई	-6.6033
▁ये	-6.61546
▁अपनी	-6.64058
▁कोई	-6.64319
▁किसी	-6.69102
▁अब	-6.69679
▁भारत	-6.69837
▁होने	-6.70624
▁सरकार	-6.70637
▁व	-6.71748
▁उन्होंने	-6.71835
ा	-6.72737
▁वाले	-6.72883
▁जाता	-6.73294
▁लोगों	-6.74485
▁बात	-6.75142
▁रूप	-6.77677
▁होता	-6.77797
▁गए	-6.78244
▁तरह	-6.78541
▁इसके	-6.78892
▁सकते	-6.79511
▁समय	-6.80617
▁:	-6.81251
▁बहुत	-6.83478
▁-	-6.84288
▁जब	-6.85355
▁हम	-6.86722
▁करें	-6.8697
▁हुआ	-6.88278
▁(	-6.89131
▁कई	-6.89606
▁साल	-6.89929
)	-6.90853
▁दी	-6.91278
▁करना	-6.91813
▁काम	-6.92425
▁आपको	-6.92444
▁द्वारा	-6.92705
▁।	-6.93002
▁सकता	-6.93131
▁आज	-6.93912
▁उनके	-6.94375
न	-6.94571
▁दिन	-6.96392
▁देश	-6.9699
▁आ	-6.97293
▁बार	-6.98097
▁सभी	-6.98508
▁वे	-6.99381
▁फिर	-6.99721
▁क्या	-7.00222
▁मैं	-7.02525
▁दो	-7.03136
▁सबसे	-7.03626
▁‘	-7.03813
र	-7.04741
▁हुई	-7.06124
▁इन	-7.0619
▁लोग	-7.06406
▁उन्हें	-7.0676
▁क	-7.0738
▁लेकर	-7.07872
े	-7.08928
▁होगा	-7.09057
▁सिंह	-7.09783
▁नाम	-7.10023
▁पुलिस	-7.10861
▁वो	-7.13078
?	-7.13625
▁र	-7.15029
▁कम	-7.16483
’	-7.16989
▁जाने	-7.20842
▁'	-7.22108
▁होती	-7.22179
▁उस	-7.23159
▁करता	-7.24409
▁चाहिए	-7.25363
ता	-7.25456
▁घर	-7.25765
▁हर	-7.27306
▁अधिक	-7.27345
्स	-7.27639
▁उसके	-7.29108
▁बताया	-7.2961
▁प्रदेश	-7.29687
▁पास	-7.30012
▁ा	-7.3033
▁उसे	-7.31697
स	-7.32007
क	-7.32068
▁बारे	-7.32118
▁दिल्ली	-7.32197
▁कारण	-7.32792
▁फिल्म	-7.3288
▁बीच	-7.33371
▁एवं	-7.34144
▁स	-7.34217
▁लिया	-7.34595
▁उनकी	-7.34733
▁अगर	-7.35135
▁दौरान	-7.35695
ं	-7.36018
▁शुरू	-7.36523
ने	-7.36747
'	-7.37611
▁वाली	-7.37612
▁राज्य	-7.39106
ो	-7.40469
▁दोनों	-7.40728
ना	-7.40904
▁भारतीय	-7.41636
▁ऐसे	-7.41702
▁,	-7.41798
ल	-7.43492
▁जैसे	-7.46232
▁आपके	-7.4644
▁अपना	-7.46756
▁जी	-7.46825
▁होते	-7.46864
▁"	-7.47762
म	-7.47923
▁टीम	-7.48367
त	-7.48478
▁ज्यादा	-7.4902
▁...	-7.49789
▁यहां	-7.49837
▁ऐसा	-7.50066
▁अन्य	-7.50603
▁इसे	-7.5152
▁ले	-7.51787
▁कांग्रेस	-7.51896
▁–	-7.53006
▁दे	-7.53185
▁पार्टी	-7.53386
▁तथा	-7.53726
▁आहे	-7.53828
▁क्षेत्र	-7.5434
▁मुझे	-7.57624
▁शामिल	-7.57974
▁म	-7.58152
▁देने	-7.587
▁े	-7.58722
▁मामले	-7.59176
▁जानकारी	-7.60163
▁जाती	-7.60843
▁....	-7.60907
▁चुनाव	-7.61035
▁वर्ष	-7.61588
▁तीन	-7.6174
▁मोदी	-7.62334
▁क्योंकि	-7.65548
▁काफी	-7.66308
▁लगा	-7.67042
▁पूर्व	-7.67611
▁रुपये	-7.68043
▁सकती	-7.69747
▁किए	-7.6984
कर	-7.70483
▁प	-7.70841
▁ओर	-7.71513
▁इससे	-7.71897
▁जारी	-7.72367
▁पूरी	-7.72773
▁डॉ	-7.73029
▁सामने	-7.73861
▁इसलिए	-7.74879
▁अनुसार	-7.7492
▁जीवन	-7.75028
▁वहीं	-7.7514
▁लाख	-7.76061
▁करोड़	-7.76195
▁जाएगा	-7.76252
▁मंत्री	-7.76521
▁कभी	-7.77065
▁इसी	-7.77421
▁होगी	-7.77514
▁2	-7.77665
▁अभी	-7.78677
▁खिलाफ	-7.78871
▁कैसे	-7.79371
▁हमारे	-7.79393
▁बना	-7.79852
▁ह	-7.80001
▁अ	-7.81365
▁्	-7.81637
▁अलग	-7.81782
▁ल	-7.81914
▁10	-7.8216
ला	-7.82199
▁मे	-7.8252
▁सब	-7.82745
▁5	-7.82856
▁जाते	-7.82965
▁कुमार	-7.83169
▁तब	-7.83645
ते	-7.83693
▁आने	-7.83976
▁बड़ी	-7.84022
▁इसका	-7.84093
▁त	-7.84477
▁जिसमें	-7.85073
▁मेरे	-7.85122
▁बनाने	-7.85532
▁“	-7.85596
▁दुनिया	-7.86116
▁मीडिया	-7.86331
▁नई	-7.86515
▁इसमें	-7.86582
▁दें	-7.86648
▁पिछले	-7.86682
▁मिल	-7.86989
▁3	-7.87386
▁प्रकार	-7.8747
▁आगे	-7.876
▁पता	-7.87712
▁उनका	-7.88036
▁महिला	-7.88123
▁उन	-7.88274
ए	-7.88705
▁ए	-7.88875
▁कंपनी	-7.89073
▁ि	-7.90306
▁विकास	-7.91112
▁उसकी	-7.91196
▁ब	-7.9128
▁उपयोग	-7.91403
▁करती	-7.92165
▁मुख्यमंत्री	-7.92495
▁प्राप्त	-7.92557
▁ी	-7.92676
▁हूं	-7.92787
▁अलावा	-7.92882
▁उत्तर	-7.93322
▁पानी	-7.93458
▁वीडियो	-7.93573
िंग	-7.93642
ई	-7.93677
▁परिवार	-7.93744
ती	-7.9388
▁ना	-7.9396
▁वाला	-7.9397
च	-7.9417
▁जबकि	-7.94764
▁आई	-7.94895
▁रंग	-7.95183
▁प्रति	-7.9528
▁बन	-7.95653
▁1	-7.9594
▁यदि	-7.96038
▁जहां	-7.96216
▁बाहर	-7.97014
▁योजना	-7.97113
▁करके	-7.97301
▁मदद	-7.97341
ज	-7.97351
/	-7.97489
▁द	-7.97789
▁बड़े	-7.98078
▁दूसरे	-7.98143
▁व्यक्ति	-7.99797
▁भाजपा	-8.00526
▁केवल	-8.01277
▁कार्य	-8.01454
▁वजह	-8.02388
▁मैंने	-8.0272
!	-8.02957
▁हालांकि	-8.03026
▁अध्यक्ष	-8.03148
जी	-8.04401
▁4	-8.04437
▁दिनों	-8.04743
▁पूरा	-8.05132
▁मुख्य	-8.05186
▁दिए	-8.05384
▁प्रधानमंत्री	-8.057
▁बड़ा	-8.05883
▁खुद	-8.06016
▁ज	-8.06108
▁नए	-8.06152
▁चार	-8.06789
▁बंद	-8.06842
▁ं	-8.07305
▁बता	-8.07878
▁जांच	-8.08709
▁विभाग	-8.0878
▁जाए	-8.09374
▁पहली	-8.09375
▁देते	-8.0956
प	-8.09741
▁श्री	-8.10317
▁अच्छा	-8.10363
▁जाना	-8.10883
▁जगह	-8.11322
▁जिस	-8.1159
▁हमें	-8.11592
▁नेता	-8.11691
ब	-8.11888
▁चल	-8.12014
ट	-8.1235
▁सी	-8.12642
▁सिर्फ	-8.12713
▁शहर	-8.12782
▁उसने	-8.13199
▁आया	-8.13528
▁करीब	-8.13568
▁चाहते	-8.13862
s	-8.14046
▁बैंक	-8.14083
▁ध्यान	-8.14195
▁जिसके	-8.15304
▁ऐसी	-8.15489
▁मन	-8.15616
▁इसकी	-8.15868
▁होना	-8.15999
▁ग	-8.16007
"	-8.16067
▁रहने	-8.16102
▁तैयार	-8.16782
▁लगभग	-8.16859
▁खान	-8.16924
▁6	-8.1775
▁करेंगे	-8.17939
▁य	-8.17988
▁मेरी	-8.18066
▁केंद्र	-8.18113
▁दूर	-8.18194
सी	-8.18332
▁कोर्ट	-8.1877
▁स्थिति	-8.18817
▁गांव	-8.18828
व	-8.19019
इस	-8.19225
ियों	-8.19332
▁राष्ट्रीय	-8.19441
▁पाकिस्तान	-8.19522
▁जिले	-8.19523
▁कहते	-8.19525
▁समाज	-8.19657
▁लेने	-8.19675
▁संख्या	-8.19853
▁आपकी	-8.20103
▁दर्ज	-8.20135
▁रात	-8.20521
▁वहां	-8.21292
नी	-8.21473
▁कुल	-8.21552
▁इस्तेमाल	-8.21555
▁प्रतिशत	-8.21622
▁बस	-8.21693
▁भर	-8.2201
▁स्थान	-8.2208
ें	-8.22131
▁बच्चों	-8.22739
▁अधिकारी	-8.22884
▁बिना	-8.22909
द	-8.22952
▁विशेष	-8.23012
▁हजार	-8.23056
▁आधार	-8.23376
▁गांधी	-8.23493
▁मौत	-8.23963
▁मैच	-8.2422
▁कार्यक्रम	-8.24269
▁आए	-8.24297
ले	-8.24484
▁मुताबिक	-8.24722
▁आदि	-8.2486
री	-8.24902
▁प्रमुख	-8.24946
▁12	-8.24953
ली	-8.25243
▁तहत	-8.25316
▁स्थित	-8.25398
▁देखा	-8.26429
▁जिससे	-8.26442
▁15	-8.26656
▁आरोप	-8.26695
▁महीने	-8.2679
▁पूरे	-8.26918
▁तरफ	-8.27314
▁उसका	-8.27331
▁हाथ	-8.2739
▁ली	-8.27531
▁सही	-8.27556
▁मिला	-8.27694
▁कोशिश	-8.27987
▁बीजेपी	-8.28559
▁निर्माण	-8.28564
▁देख	-8.28852
▁जिसे	-8.28999
▁जनता	-8.29228
▁लगता	-8.29324
▁गयी	-8.29541
▁नजर	-8.29618
▁कहना	-8.29655
▁रिपोर्ट	-8.29841
▁तौर	-8.30103
▁?	-8.30147
▁इंडिया	-8.30481
रा	-8.30751
▁लिये	-8.3088
▁शादी	-8.31219
▁क्यों	-8.31339
▁मंदिर	-8.31723
▁20	-8.31829
▁ई	-8.32112
▁आम	-8.3219
▁देखने	-8.32267
▁राम	-8.32749
▁घटना	-8.32804
▁खेल	-8.3286
▁यही	-8.32889
▁स्तर	-8.32975
ड	-8.331
▁अच्छी	-8.33847
▁हूँ	-8.34017
▁बजे	-8.34018
▁लगे	-8.34112
▁स्वास्थ्य	-8.34385
▁शिक्षा	-8.34798
▁सुरक्षा	-8.35229
▁सवाल	-8.35598
के	-8.35983
▁यादव	-8.36206
▁मांग	-8.36239
▁ठीक	-8.36351
▁पांच	-8.36625
▁कोरोना	-8.36635
▁शेयर	-8.3669
▁विश्व	-8.36758
▁सुबह	-8.36767
▁दूसरी	-8.36863
▁रह	-8.37258
▁ो	-8.37467
▁होंगे	-8.37742
▁8	-8.37774
▁थीं	-8.37781
▁जिला	-8.37783
▁जीत	-8.38181
▁रखा	-8.38561
▁मिली	-8.38689
▁बल्कि	-8.38705
▁सेवा	-8.39067
▁रन	-8.39139
▁देता	-8.39309
▁बनाया	-8.39463
▁7	-8.39475
▁माध्यम	-8.39686
ग	-8.39807
▁चुके	-8.40035
▁लाभ	-8.40062
▁मुंबई	-8.40186
▁बिहार	-8.40617
▁बच्चे	-8.40645
▁परीक्षा	-8.40797
वा	-8.41218
▁शरीर	-8.41322
▁डा	-8.41339
का	-8.41959
एक	-8.42073
▁हाल	-8.42276
▁लिखा	-8.42297
▁शर्मा	-8.42391
▁फोन	-8.42992
▁महत्वपूर्ण	-8.44179
▁यात्रा	-8.44603
▁लगातार	-8.44797
▁धर्म	-8.4484
ित	-8.44869
”	-8.44959
▁रखने	-8.45266
ही	-8.4582
या	-8.4604
;	-8.4624
यह	-8.46633
▁हिंदी	-8.46645
▁रुपए	-8.46657
▁पद	-8.46706
▁ऊपर	-8.46884
▁नीचे	-8.4721
▁भाग	-8.47331
▁बैठक	-8.47476
▁विधानसभा	-8.47529
▁विभिन्न	-8.47647
▁जाएगी	-8.4765
▁फीसदी	-8.47931
▁स्कूल	-8.48028
▁हमारी	-8.48033
पुर	-8.48133
ि	-8.48139
...	-8.48142
▁पसंद	-8.48245
▁माना	-8.48755
▁खबर	-8.48805
▁विचार	-8.4929
▁यहाँ	-8.49372
▁नही	-8.49442
▁प्रदान	-8.49722
▁राशि	-8.49967
▁लगी	-8.49984
▁18	-8.50095
मा	-8.50149
▁नगर	-8.50338
ओ	-8.50402
▁महिलाओं	-8.50614
▁प्रदर्शन	-8.50761
▁आपका	-8.50871
▁बेहतर	-8.51044
▁सोशल	-8.51064
▁समस्या	-8.51707
▁बाजार	-8.52069
▁1.	-8.52091
▁11	-8.52121
▁उपलब्ध	-8.52153
▁पोस्ट	-8.52452
▁ऑफ	-8.52573
▁पीछे	-8.5263
▁हमेशा	-8.53045
▁सा	-8.53451
▁पत्र	-8.53527
▁जवाब	-8.53558
▁आता	-8.53804
▁पिता	-8.53928
़	-8.5397
▁बढ़	-8.54154
▁लाल	-8.54303
▁नंबर	-8.5432
▁चर्चा	-8.54387
▁30	-8.54521
डी	-8.54648
▁कहीं	-8.54675
▁चला	-8.54688
▁रहते	-8.55109
▁9	-8.5517
▁मेरा	-8.55323
वी	-8.55364
▁सरकारी	-8.55445
▁ट	-8.55858
▁लग	-8.56271
्	-8.56331
िया	-8.56407
▁चुकी	-8.56874
▁वेबसाइट	-8.57273
▁शुरुआत	-8.57602
▁किसानों	-8.57873
▁क्रिकेट	-8.5817
च्या	-8.58368
▁भाई	-8.58384
▁अस्पताल	-8.58574
▁पी	-8.59111
▁लगाया	-8.59147
▁पैसे	-8.59164
▁नया	-8.59165
▁&	-8.59379
0	-8.59914
ात	-8.601
▁इतना	-8.60351
▁विरोध	-8.60355
▁टी	-8.60394
▁दर	-8.60669
▁सके	-8.60763
▁पहुंच	-8.61117
▁मौजूद	-8.61254
ह	-8.6136
▁जन्म	-8.61402
ये	-8.61484
▁राहुल	-8.6154
श	-8.6159
▁देना	-8.61599
ू	-8.61615
▁हे	-8.62241
चे	-8.62426
▁मां	-8.62504
▁चीन	-8.62628
▁#	-8.62656
▁मिलने	-8.62659
▁एस	-8.62769
▁कहानी	-8.62943
▁वापस	-8.63055
िक	-8.63062
▁पत्नी	-8.63284
▁उसी	-8.6331
▁बने	-8.63476
▁कीमत	-8.64096
सा	-8.64141
▁याद	-8.64244
▁किसान	-8.6428
▁जरूरत	-8.64401
▁लें	-8.64412
▁अमेरिका	-8.64548
▁टेस्ट	-8.64727
▁कमी	-8.64912
ओं	-8.65264
य	-8.65462
▁च	-8.65481
▁मामला	-8.65625
▁आदेश	-8.66097
▁कह	-8.66332
▁चलते	-8.66378
▁आवेदन	-8.6651
▁कौन	-8.66589
टी	-8.6673
▁ऑनलाइन	-8.6676
▁गये	-8.66837
▁पा	-8.67025
▁सूचना	-8.67158
▁2021	-8.67569
▁ताकि	-8.67618
▁आर्थिक	-8.67646
▁बयान	-8.67706
▁हत्या	-8.6783
▁जल	-8.67833
▁फैसला	-8.67851
▁यानी	-8.67978
▁राज	-8.67984
▁दिल	-8.68068
▁कानून	-8.68137
▁25	-8.68168
▁करे	-8.68183
▁भाषा	-8.68258
▁बनाए	-8.68451
▁प्रक्रिया	-8.68539
▁देशों	-8.68629
▁वालों	-8.68716
▁जान	-8.69034
▁प्यार	-8.69217
▁चुका	-8.69381
▁संबंध	-8.69524
▁नवंबर	-8.69587
▁देखते	-8.69606
▁हासिल	-8.70259
▁अंदर	-8.70515
▁बी	-8.70591
▁सेना	-8.70777
चा	-8.70823
▁होकर	-8.71129
▁24	-8.71136
ण	-8.71485
▁हिस्सा	-8.71574
▁जानते	-8.71595
▁घंटे	-8.71619
▁प्रयास	-8.71709
▁कार्ड	-8.71996
▁श	-8.72008
▁किस	-8.72076
▁फोटो	-8.72104
▁मोबाइल	-8.72208
▁व्यवस्था	-8.72284
▁तरीके	-8.72419
▁कार	-8.72995
▁पढ़ें	-8.73017
▁उम्र	-8.73075
फ	-8.73207
बी	-8.73339
▁भगवान	-8.73571
▁प्रयोग	-8.73839
▁उच्च	-8.73927
▁रहता	-8.73972
▁आयोजित	-8.74012
▁छोटे	-8.74139
▁इ	-8.74247
▁शो	-8.74352
वे	-8.74386
▁पहला	-8.74796
अ	-8.75067
▁14	-8.75187
▁मौके	-8.75284
▁हमने	-8.7535
▁2.	-8.7536
▁नरेंद्र	-8.75376
▁पति	-8.7545
▁मार्च	-8.75495
▁आवश्यकता	-8.75718
▁मिले	-8.75787
▁विधायक	-8.75855
▁तुम	-8.75888
▁दिखाई	-8.75964
▁समझ	-8.75999
▁अवसर	-8.76483
▁पड़ा	-8.765
▁अधिकारियों	-8.76539
▁घोषणा	-8.76835
▁अच्छे	-8.76935
एं	-8.77013
▁सदस्य	-8.7708
▁सहित	-8.77161
▁आते	-8.77276
▁बोर्ड	-8.77279
▁विषय	-8.77701
▁गिरफ्तार	-8.7776
▁छोड़	-8.77995
▁इतिहास	-8.78005
▁वक्त	-8.78259
▁बेहद	-8.78279
▁जुड़े	-8.78472
▁देर	-8.78643
▁मध्य	-8.78719
▁खास	-8.78903
पी	-8.78952
▁उससे	-8.79236
▁राजनीतिक	-8.79256
▁सारे	-8.79515
▁राजनीति	-8.79836
ंग	-8.79963
▁उ	-8.80122
▁सु	-8.8028
▁16	-8.80297
▁पूजा	-8.80517
▁ड	-8.80551
▁लड़की	-8.8117
▁समर्थन	-8.81225
▁डी	-8.81332
▁पक्ष	-8.81338
▁भूमिका	-8.81341
▁50	-8.81442
▁/	-8.81461
▁साफ	-8.81477
▁संबंधित	-8.81607
▁संघ	-8.81643
▁सीमा	-8.81845
▁दिवस	-8.81872
▁शाम	-8.82072
▁दल	-8.82572
▁पहचान	-8.82716
▁शायद	-8.82831
▁तय	-8.82909
ची	-8.82926
▁आहेत	-8.8309
▁बदल	-8.83162
▁तेल	-8.837
▁मिनट	-8.83845
▁रहती	-8.83879
▁जून	-8.83898
▁जैसी	-8.83941
▁कल	-8.84136
वर	-8.84145
से	-8.84259
▁सामान्य	-8.84463
▁कार्रवाई	-8.84484
▁आदमी	-8.84546
▁बॉलीवुड	-8.84805
▁जरूरी	-8.84881
▁केंद्रीय	-8.85137
▁राष्ट्रपति	-8.85706
▁अगले	-8.85759
▁19	-8.85818
▁लेते	-8.85943
▁अंतिम	-8.86144
▁लोकसभा	-8.86145
▁देखें	-8.86165
▁.►	-8.86259
▁तेज	-8.865
▁उम्मीद	-8.86517
▁आयोग	-8.86576
▁पेश	-8.86651
▁विकेट	-8.86661
▁बनी	-8.86694
▁अगस्त	-8.86769
▁जल्द	-8.86823
▁सामाजिक	-8.86868
▁लागू	-8.86907
▁अक्टूबर	-8.87213
▁जिसका	-8.87232
▁करेगा	-8.87415
▁भारी	-8.87526
▁पीएम	-8.87749
▁पाया	-8.87791
▁सोमवार	-8.87969
▁नुकसान	-8.88116
▁गंभीर	-8.88319
▁वर्ग	-8.88382
▁यांनी	-8.8843
▁2018	-8.88499
▁लगाने	-8.88582
की	-8.8886
▁दक्षिण	-8.88936
▁बाल	-8.88955
▁कदम	-8.89058
▁जनवरी	-8.89153
▁13	-8.89266
गा	-8.89388
▁शब्द	-8.89417
▁धन	-8.8952
▁पंजाब	-8.89707
▁अभियान	-8.8974
▁आंदोलन	-8.90499
▁प्रभाव	-8.90603
▁दिसंबर	-8.90641
▁रहेगा	-8.90648
▁निर्णय	-8.90709
▁कृषि	-8.90974
▁भर्ती	-8.9099
▁ग्राम	-8.9125
▁जैसा	-8.91494
▁राजस्थान	-8.91531
▁आवश्यक	-8.91619
▁अनुभव	-8.91764
▁17	-8.91814
▁किये	-8.91819
▁आती	-8.92365
▁वही	-8.92391
▁एम	-8.92433
▁शुक्रवार	-8.92522
▁मतलब	-8.92605
▁नेताओं	-8.92821
▁बनने	-8.92842
को	-8.92882
▁प्रभावित	-8.92953
▁मई	-8.92977
▁संगठन	-8.93109
▁खत्म	-8.93221
▁2019	-8.93239
रे	-8.93332
....	-8.93592
▁21	-8.93687
▁प्रशासन	-8.93709
▁रख	-8.93787
▁मात्र	-8.9392
▁आसान	-8.93984
▁जेल	-8.94045
▁अप्रैल	-8.94055
▁पैदा	-8.94133
▁सात	-8.94134
▁भ	-8.94145
▁जुलाई	-8.94347
▁क्लिक	-8.94422
▁प्रेम	-8.94467
▁खाने	-8.94797
▁आर	-8.94943
▁अधिकार	-8.95016
▁प्र	-8.95048
▁!	-8.95244
▁माता	-8.95279
▁बिजली	-8.95357
▁तेजी	-8.95545
▁पहुंचे	-8.95632
▁जाकर	-8.95696
▁ओ	-8.9584
▁आयोजन	-8.95924
ज़	-8.95993
▁जमा	-8.96034
▁मंत्रालय	-8.96069
▁आरोपी	-8.96112
ख	-8.96243
▁सड़क	-8.96314
▁ख	-8.96336
▁अंक	-8.96381
▁पड़	-8.96448
▁मार	-8.96508
▁आपने	-8.96528
▁जाएंगे	-8.96788
▁नदी	-8.96789
▁पूर्ण	-8.96868
और	-8.96909
▁सुप्रीम	-8.96978
▁राज्यों	-8.97638
▁उप	-8.97784
▁अनेक	-8.97798
▁चाहता	-8.97806
ीय	-8.97929
▁लोक	-8.97962
▁उनसे	-8.98098
▁समाचार	-8.98218
▁बुधवार	-8.98324
▁आणि	-8.98423
▁युवा	-8.98722
▁देती	-8.98745
▁बावजूद	-8.98759
▁कप	-8.99036
▁बेटी	-8.99084
▁प्रो	-8.99187
▁वरिष्ठ	-8.99216
▁मूल	-8.99242
▁टीवी	-8.9939
▁हों	-8.99508
▁नौकरी	-8.99636
वीं	-8.99769
▁मजबूत	-8.99832
▁स्थानीय	-8.99836
▁इलाज	-8.99858
▁वैसे	-8.99866
दा	-8.99926
▁शाह	-8.99952
▁नि	-8.99978
▁प्रत्येक	-9.00047
▁मिलता	-9.0013
▁मंगलवार	-9.00159
▁;	-9.00427
▁मिलेगा	-9.00672
▁वर्तमान	-9.00738
▁खर्च	-9.00749
▁दावा	-9.00781
:.	-9.00805
▁राय	-9.00873
▁महसूस	-9.00957
साथ	-9.00994
▁सचिव	-9.01129
▁’	-9.01137
▁प्रवेश	-9.01518
▁100	-9.01531
▁फ	-9.01573
1	-9.01868
▁पड़ता	-9.01952
▁शिकायत	-9.0205
▁सम्मान	-9.02059
▁सीट	-9.02118
▁संयुक्त	-9.02123
▁तुलना	-9.02267
▁डाउनलोड	-9.02346
▁रेलवे	-9.02468
▁वृद्धि	-9.02589
▁सोच	-9.02799
▁प्रकाश	-9.02939
जा	-9.03019
▁जमीन	-9.03147
▁3.	-9.03159
▁अर्थ	-9.03172
▁कश्मीर	-9.03404
▁भाव	-9.03406
▁छात्र	-9.03461
▁डिग्री	-9.03462
▁वित्त	-9.03629
▁समिति	-9.03654
▁रविवार	-9.03654
▁22	-9.03697
▁सांसद	-9.03835
▁खिलाड़ी	-9.03863
▁गलत	-9.0437
▁स्पष्ट	-9.0442
▁थाना	-9.04633
▁सितंबर	-9.04657
अलग	-9.04725
्य	-9.04818
▁सुधार	-9.04825
▁महाराष्ट्र	-9.04872
▁कॉलेज	-9.0509
र्स	-9.05169
▁बदलाव	-9.05354
▁यूपी	-9.05475
▁अंत	-9.05645
▁दर्द	-9.05669
▁राजा	-9.05931
▁मगर	-9.06067
▁ज्ञान	-9.06202
▁शक्ति	-9.06206
▁दोस्तों	-9.0628
▁बातचीत	-9.06344
▁हार	-9.06431
▁बातें	-9.0682
▁दूसरा	-9.0684
▁डॉक्टर	-9.06857
▁सामना	-9.06916
▁आग	-9.07014
▁‘‘	-9.07422
ु	-9.07534
▁मात्रा	-9.07553
▁समान	-9.07724
▁अक्सर	-9.07762
▁छह	-9.07799
▁दरअसल	-9.07842
▁शनिवार	-9.0801
▁निर्देश	-9.08261
▁वर्षों	-9.08324
▁>	-9.08488
▁पार	-9.08625
▁साबित	-9.08682
▁एंड	-9.08756
▁हमारा	-9.08785
▁बारिश	-9.08818
आ	-9.08884
▁कपूर	-9.09158
▁परिणाम	-9.09184
▁दिशा	-9.09253
▁जरूर	-9.0931
▁सफलता	-9.09328
▁डॉलर	-9.09371
▁विश्वविद्यालय	-9.09468
▁छात्रों	-9.0949
▁क्षमता	-9.09514
▁आनंद	-9.09607
▁वि	-9.0964
मैं	-9.09664
▁मुश्किल	-9.09672
▁ै	-9.09724
▁सफल	-9.0975
▁जिन	-9.09989
▁लेख	-9.10292
▁मामलों	-9.10315
▁लेना	-9.10477
▁क्षेत्रों	-9.10485
▁स्थापित	-9.10513
▁रखते	-9.1084
▁कराया	-9.10841
▁”	-9.1085
▁बेटे	-9.10859
▁जन	-9.10863
▁विश्वास	-9.10878
थ	-9.10992
▁मौसम	-9.11081
▁गुजरात	-9.11193
▁देवी	-9.11209
▁समूह	-9.11479
▁युद्ध	-9.11485
▁उत्पादन	-9.11579
▁सूची	-9.1162
▁आसानी	-9.11829
▁लखनऊ	-9.11952
▁ट्वीट	-9.11983
▁अतिरिक्त	-9.11992
▁सत्ता	-9.12036
▁भविष्य	-9.12101
2	-9.12117
▁पत्रकार	-9.12119
▁नेतृत्व	-9.12204
▁जिसकी	-9.12312
20	-9.12549
▁समेत	-9.12578
गी	-9.12695
▁23	-9.12903
▁रखें	-9.13021
▁मान	-9.1303
▁उम्मीदवार	-9.1305
▁शिव	-9.13204
वें	-9.13355
भारत	-9.13453
मी	-9.13456
▁तभी	-9.13479
▁इतनी	-9.13534
▁26	-9.13918
▁रिकॉर्ड	-9.14006
▁ु	-9.14189
▁निजी	-9.14202
▁शानदार	-9.14248
▁राष्ट्र	-9.14256
▁खराब	-9.14362
▁हिन्दी	-9.1444
क्या	-9.14458
▁अदालत	-9.14479
▁बताते	-9.14631
▁काल	-9.14675
▁स्वयं	-9.14706
▁हरियाणा	-9.14766
▁विकल्प	-9.14776
▁हा	-9.14896
▁ऐप	-9.14984
4	-9.15012
देश	-9.15074
▁बल	-9.15084
▁देकर	-9.15143
▁विजय	-9.15257
▁सप्ताह	-9.15348
▁रोक	-9.15379
▁लक्ष्य	-9.1539
▁मॉडल	-9.15425
▁जरिए	-9.15537
▁इनमें	-9.15607
▁देव	-9.15719
▁छोटी	-9.1596
▁कराने	-9.16188
▁योग	-9.16296
▁सहायता	-9.16296
▁एन	-9.16607
▁उसमें	-9.16678
▁संपर्क	-9.1668
▁पैसा	-9.17105
▁भीतर	-9.17304
▁कार्यालय	-9.17412
▁सो	-9.17448
▁सुविधा	-9.17496
▁सुरक्षित	-9.17602
▁करण्यात	-9.17647
एस	-9.1768
▁माँ	-9.17858
▁राजधानी	-9.17877
▁हमला	-9.1792
▁सारी	-9.1802
आर	-9.18295
▁इलाके	-9.18356
वि	-9.18475
▁प्रसाद	-9.18496
▁असर	-9.1858
▁तस्वीर	-9.18772
▁40	-9.18826
▁युवक	-9.18904
▁पाने	-9.19064
▁योगी	-9.19116
▁2017	-9.1916
▁खाना	-9.19163
ियां	-9.19457
हम	-9.19479
▁पेट्रोल	-9.19505
▁देखकर	-9.19542
▁28	-9.19698
▁अनुमति	-9.19736
▁तैयारी	-9.19771
▁निवेश	-9.19912
पर	-9.20091
▁गाँव	-9.20136
▁हेतु	-9.20439
बा	-9.20688
▁शासन	-9.20691
▁गुरुवार	-9.2081
▁भोजन	-9.20929
▁मत	-9.21022
▁रक्षा	-9.21103
राज	-9.21311
▁इनके	-9.21326
▁रिलीज	-9.218
▁मार्ग	-9.21842
▁करनी	-9.21843
▁जे	-9.21908
▁सिर	-9.21983
▁आठ	-9.22061
▁विवाद	-9.22147
▁कंपनियों	-9.22167
▁मौका	-9.22263
▁संभावना	-9.22365
▁भुगतान	-9.22384
▁सीएम	-9.22428
▁सहयोग	-9.22457
▁मुस्लिम	-9.22724
▁व्यापार	-9.22792
▁मुकाबले	-9.22802
ाने	-9.22819
▁माह	-9.22838
▁पे	-9.22855
▁न्यूज़	-9.22926
▁बढ़ाने	-9.22936
▁थोड़ा	-9.22947
▁दौर	-9.22982
▁सर	-9.23147
उत्तर	-9.23188
▁चैनल	-9.23284
▁स्वीकार	-9.23329
▁$	-9.23443
ः	-9.2348
दार	-9.23499
▁चले	-9.23862
▁बंगाल	-9.23899
▁आधिकारिक	-9.23913
▁अमेरिकी	-9.23943
▁हमले	-9.23947
▁नीति	-9.23983
3	-9.24026
▁मैदान	-9.24206
▁समाप्त	-9.24276
▁वोट	-9.24326
▁धीरे	-9.24336
▁4.	-9.24504
▁परेशान	-9.24512
▁वन	-9.24548
▁मानव	-9.24831
▁पंचायत	-9.24872
▁पुरस्कार	-9.24955
▁2020	-9.25074
▁कप्तान	-9.2525
▁सच	-9.25353
▁दूध	-9.25358
राम	-9.25555
▁सेक्स	-9.25566
▁स्टेशन	-9.25633
▁S	-9.2572
▁27	-9.25745
▁चाहे	-9.25835
▁ला	-9.25872
▁रखना	-9.25943
प्र	-9.26298
▁सीरीज	-9.26396
▁ते	-9.26471
▁जिन्हें	-9.26518
▁राहत	-9.26702
▁फिल्मों	-9.26748
▁निकल	-9.26913
▁बिल	-9.26932
▁जुड़ी	-9.2697
▁बढ़ा	-9.26987
▁वायरल	-9.27071
▁पूछा	-9.27104
▁विज्ञान	-9.27122
▁सलाह	-9.27143
▁जल्दी	-9.27192
▁ग्रामीण	-9.27409
▁चरण	-9.27756
▁डर	-9.27778
▁साहित्य	-9.27944
▁अवधि	-9.28021
नि	-9.28088
डा	-9.28092
▁मूल्य	-9.28102
▁सामग्री	-9.28134
▁जहाँ	-9.28343
▁संजय	-9.28379
▁कही	-9.28406
▁उनको	-9.28434
▁खुश	-9.2852
▁)	-9.28729
▁फल	-9.28804
इन	-9.28874
▁उदाहरण	-9.29008
▁*	-9.29088
▁ध	-9.29225
ून	-9.29229
▁लंबे	-9.29247
▁आधारित	-9.2927
▁प्रश्न	-9.29376
▁फैसले	-9.29448
रो	-9.29537
▁सभा	-9.29538
▁31	-9.29741
▁पाए	-9.29805
▁वास्तव	-9.29846
ड़	-9.29898
▁A	-9.29915
▁जिंदगी	-9.29993
▁अध्ययन	-9.30024
▁रोग	-9.3007
▁बजट	-9.3021
▁छत्तीसगढ़	-9.30275
कार	-9.30315
▁फरवरी	-9.30415
▁घायल	-9.30486
▁परिवर्तन	-9.30617
▁पारी	-9.30626
▁डे	-9.30665
▁देंगे	-9.30818
▁ओवर	-9.309
▁2014	-9.30924
▁कितना	-9.31016
▁कला	-9.31058
▁महा	-9.31162
▁चाहती	-9.31283
▁अमित	-9.31323
),	-9.31355
▁निवासी	-9.31449
▁बैठे	-9.31514
▁ट्रेन	-9.31614
▁डाल	-9.31765
▁मुद्दे	-9.31883
▁ब्लॉग	-9.31897
▁बाकी	-9.32069
▁विस्तार	-9.32119
▁जम्मू	-9.32413
▁केली	-9.32426
▁विदेश	-9.32526
▁मिलती	-9.32572
▁हाई	-9.32663
▁2016	-9.32723
▁पालन	-9.32874
▁अरब	-9.32907
▁सेवन	-9.32935
▁बनाई	-9.33038
▁दस	-9.33051
▁0.	-9.33053
c	-9.3325
▁प्रस्ताव	-9.33359
▁सलमान	-9.33444
▁पुराने	-9.33488
उ	-9.33502
▁जिन्होंने	-9.33506
हा	-9.33521
▁चिंता	-9.33594
▁संभव	-9.33741
▁खूब	-9.34195
▁लिंक	-9.34235
▁तमाम	-9.34241
▁नाही	-9.34312
▁विकसित	-9.34349
▁करेगी	-9.3438
ळ	-9.3444
▁वायरस	-9.34568
▁=	-9.34577
▁घोषित	-9.34593
▁कोहली	-9.34595
जब	-9.34746
▁रोड	-9.35027
▁चेहरे	-9.35164
▁बनाकर	-9.352
▁पश्चिम	-9.35262
▁उठा	-9.3542
▁आय	-9.35435
▁चयन	-9.35519
▁पुरुष	-9.35647
आप	-9.35724
▁मिलकर	-9.35733
▁प्रथम	-9.35752
▁गैर	-9.35757
▁खा	-9.35772
▁खड़े	-9.35788
▁तर	-9.35968
▁सिस्टम	-9.36006
▁वाहन	-9.36013
ाच्या	-9.36026
▁गुरु	-9.36213
▁पुत्र	-9.36216
▁शराब	-9.36367
▁गृह	-9.36518
▁C	-9.36587
▁विदेशी	-9.36629
▁सुनिश्चित	-9.36802
▁हिंदू	-9.36832
▁गो	-9.3693
▁तुरंत	-9.36973
बार	-9.37009
▁बाबा	-9.37029
A	-9.37193
▁29	-9.37225
▁कु	-9.37229
▁सं	-9.37236
▁ऊर्जा	-9.37268
▁प्रकाशित	-9.37386
▁पेट	-9.37441
▁अचानक	-9.37491
▁समारोह	-9.37531
▁नियंत्रण	-9.37551
▁भूमि	-9.37553
▁उनमें	-9.37553
▁अली	-9.37562
▁लॉन्च	-9.3763
▁मो	-9.37645
▁बीमारी	-9.37672
▁वी	-9.38086
▁प्रसिद्ध	-9.38123
▁कब	-9.38153
अब	-9.38165
▁नज़र	-9.38179
▁सालों	-9.38521
▁इंटरनेट	-9.38541
▁नियम	-9.38627
▁निकाल	-9.38816
▁उद्देश्य	-9.38894
▁पदों	-9.38903
▁स्क्रीन	-9.3892
▁खाते	-9.3897
▁ज़्यादा	-9.38985
▁दोस्त	-9.39027
▁B	-9.3908
▁नागरिक	-9.39194
▁फायदा	-9.39239
r	-9.39464
▁परिषद	-9.39508
▁जाति	-9.39641
▁प्रधान	-9.39763
▁फेसबुक	-9.39787
▁जिनमें	-9.39829
▁इतने	-9.39919
▁स्थापना	-9.40054
▁सौ	-9.40094
ंड	-9.40162
▁सजा	-9.40437
d	-9.40551
▁सीधे	-9.40661
▁फिलहाल	-9.40671
▁कर्मचारियों	-9.40755
मन	-9.4081
5	-9.40955
ड़ा	-9.41094
▁केस	-9.41118
▁सार्वजनिक	-9.41118
▁संसद	-9.41348
नगर	-9.41397
▁रखी	-9.41457
▁इन्हें	-9.41502
a	-9.41614
▁दबाव	-9.41615
▁भेज	-9.41661
एँ	-9.41677
▁5.	-9.41726
▁चलता	-9.41783
▁खरीद	-9.41807
▁उपस्थित	-9.41822
▁बे	-9.41949
▁न्यूज	-9.41998
▁चली	-9.42032
पा	-9.42076
7	-9.42359
▁सुनवाई	-9.42418
▁निर्धारित	-9.4255
▁लो	-9.42616
▁कोविड	-9.42761
▁विराट	-9.42784
▁मु	-9.42819
▁प्रचार	-9.4285
▁लाइन	-9.429
्ड	-9.42929
▁मेडिकल	-9.4314
यू	-9.43227
▁लागत	-9.43287
▁सुंदर	-9.43374
e	-9.43469
▁अहम	-9.43515
▁उपचार	-9.43536
▁खोज	-9.4354
▁सर्व	-9.43564
▁उद्योग	-9.43577
▁अंतर्गत	-9.43638
▁संस्कृति	-9.43699
▁वहाँ	-9.43785
▁सत्र	-9.43851
▁लगाए	-9.43866
▁गति	-9.43963
▁किलोमीटर	-9.43988
▁कर्मचारी	-9.44151
आज	-9.44193
▁आसपास	-9.44212
▁शुभ	-9.44243
▁लाने	-9.44278
▁संगीत	-9.443
▁संक्रमण	-9.44362
▁मुलाकात	-9.44368
▁खड़ा	-9.44378
▁हिंसा	-9.44443
▁शीर्ष	-9.44457
▁निश्चित	-9.4461
▁इंग्लैंड	-9.44626
▁रि	-9.44729
▁मिलेगी	-9.44735
इ	-9.44803
▁आवाज	-9.44849
▁घरेलू	-9.4487
▁ग्रुप	-9.44925
▁कंप्यूटर	-9.45055
▁दर्शन	-9.45074
▁शुल्क	-9.45101
▁न्यायालय	-9.45127
▁संघर्ष	-9.45197
▁जोर	-9.45286
▁बढ़कर	-9.45323
▁पटेल	-9.45333
▁कारोबार	-9.45397
तो	-9.45458
िका	-9.45474
▁आये	-9.45571
▁रहें	-9.45615
▁मुक्त	-9.45762
▁सीटों	-9.45765
▁अंतरराष्ट्रीय	-9.45809
▁मै	-9.45873
▁तरीका	-9.45897
जन	-9.45924
▁आकार	-9.45961
▁देखना	-9.45968
▁आले	-9.46091
▁हाथों	-9.46197
▁बोले	-9.46221
▁रहेंगे	-9.46303
▁संविधान	-9.46409
▁खबरें	-9.46415
▁टिकट	-9.46438
▁मतदान	-9.46499
▁भेजा	-9.4656
▁मंच	-9.46625
▁हवा	-9.4666
▁चीनी	-9.46799
▁कोड	-9.46951
▁स्व	-9.46956
जो	-9.47
डे	-9.47014
▁निगम	-9.47036
▁मीटर	-9.47067
▁महत्व	-9.47099
▁समुदाय	-9.47119
▁मा	-9.4722
▁बोल	-9.47252
▁धार्मिक	-9.47304
▁प्रबंधन	-9.474
▁केले	-9.47474
▁स्वागत	-9.47627
B	-9.47882
▁अंतर	-9.47893
▁सदस्यों	-9.47963
▁लेखक	-9.48102
▁संकट	-9.48201
जे	-9.48283
9	-9.48302
▁विवाह	-9.4839
▁रहना	-9.48432
▁लड़ाई	-9.48445
▁पहुंचा	-9.48632
▁लोकप्रिय	-9.48729
▁यू	-9.4878
लाल	-9.48792
▁बनाना	-9.4885
▁तापमान	-9.48875
पन	-9.48878
▁साझा	-9.4894
▁करियर	-9.49088
▁कविता	-9.49139
S	-9.49205
एल	-9.49215
▁शांति	-9.49252
▁गिरावट	-9.49344
▁चलने	-9.49411
▁एल	-9.49519
▁स्टार	-9.49543
▁रेल	-9.49644
▁तलाश	-9.4974
ेश	-9.49807
▁तीसरे	-9.49824
▁संस्थान	-9.49851
▁रु	-9.49865
ियाँ	-9.49969
▁बीते	-9.4999
▁6.	-9.50052
▁भीड़	-9.501
▁व्यवहार	-9.50292
▁जायेगा	-9.50361
▁नेशनल	-9.50368
▁''	-9.50542
वाद	-9.5057
▁|	-9.50626
हर	-9.50628
▁शव	-9.50706
▁स्थल	-9.50754
▁आखिरी	-9.50771
▁मृत्यु	-9.50904
▁शिक्षक	-9.5093
▁संकेत	-9.50959
▁देगा	-9.51098
▁त्वचा	-9.51127
▁डेटा	-9.51131
यों	-9.51153
▁गैस	-9.51453
▁दोपहर	-9.51461
▁समाधान	-9.51471
▁उत्पाद	-9.51546
▁कृष्ण	-9.51648
▁रहेगी	-9.51783
▁जिसने	-9.518
▁महान	-9.51813
▁सहायक	-9.51902
▁टिप्पणी	-9.5193
▁याचिका	-9.52001
▁60	-9.52024
िन	-9.52041
▁कितने	-9.52044
अगर	-9.52104
▁नौ	-9.52163
▁अथवा	-9.52369
▁शिकार	-9.524
ठ	-9.52489
▁हालत	-9.5252
ाला	-9.5253
▁थोड़ी	-9.52621
▁करा	-9.52621
▁समीक्षा	-9.52746
▁पटना	-9.52793
▁धारा	-9.52982
▁योगदान	-9.53014
▁दिख	-9.53026
▁भले	-9.53027
▁वर्षीय	-9.5313
▁चौधरी	-9.53158
▁पढ़ाई	-9.5317
▁बहन	-9.53228
ँ	-9.53251
▁बजाय	-9.53354
▁अमर	-9.53527
▁पड़े	-9.53714
▁गीत	-9.53756
ावर	-9.53791
▁खिलाड़ियों	-9.53959
▁अपराध	-9.54041
▁वजन	-9.54077
▁संस्था	-9.54401
मान	-9.54426
▁लोगो	-9.54679
▁उत्तराखंड	-9.54682
▁गेंद	-9.54773
▁जय	-9.54816
▁रोकने	-9.55092
b	-9.5514
y	-9.55175
▁निदेशक	-9.55213
▁खुशी	-9.55289
▁तनाव	-9.55304
▁सूर्य	-9.5532
▁कड़ी	-9.55381
6	-9.55468
नाथ	-9.55528
▁पड़ी	-9.55574
▁गंगा	-9.55623
▁जाएं	-9.55698
▁बिल्कुल	-9.55798
▁सह	-9.55819
▁छूट	-9.55828
▁रोजगार	-9.56105
▁असून	-9.56179
▁चिकित्सा	-9.56261
▁संदेश	-9.5632
▁होनी	-9.56336
▁आकर	-9.5643
▁•	-9.56509
▁सुख	-9.56518
▁पकड़	-9.56605
%	-9.56622
▁अपील	-9.56744
▁कहने	-9.56894
▁अपडेट	-9.56945
▁प्रणाली	-9.56985
▁अंग्रेजी	-9.57005
ाची	-9.57113
▁उपाय	-9.57134
एन	-9.57257
▁सक्षम	-9.57263
▁तीनों	-9.57427
▁अभिनेता	-9.57586
▁थ	-9.57588
▁उत्तराखण्ड	-9.57601
▁गेम	-9.57609
(	-9.57613
▁कितनी	-9.5762
▁जानें	-9.57742
▁बिक्री	-9.57743
▁व्यक्त	-9.57759
Read	-9.57832
▁कमरे	-9.57846
▁परेशानी	-9.57966
▁प्रेस	-9.58043
▁मौजूदा	-9.58107
▁बोला	-9.58223
ाचे	-9.58235
गो	-9.58314
आई	-9.58446
▁प्रियंका	-9.58698
अपने	-9.58706
▁कार्यों	-9.5877
▁सक्रिय	-9.58795
▁स्मार्टफोन	-9.58806
▁पहुंची	-9.58829
D	-9.5888
भ	-9.589
▁सोने	-9.59058
▁छोटा	-9.59158
▁हिसाब	-9.5919
▁प्रस्तुत	-9.59207
▁केजरीवाल	-9.59207
C	-9.59212
▁रास्ते	-9.59215
▁ट्विटर	-9.59294
▁नोट	-9.59375
▁मनाया	-9.59413
▁बढ़ने	-9.59471
ति	-9.5966
▁न्याय	-9.5967
▁खो	-9.59747
फ़	-9.59772
▁मेहनत	-9.59786
▁मानना	-9.59818
सर	-9.59822
▁योग्य	-9.59822
▁मना	-9.59824
▁पाई	-9.59832
▁असे	-9.59995
▁इनकी	-9.60045
▁गाड़ी	-9.60065
▁गोली	-9.60084
▁दूरी	-9.60096
▁आखिर	-9.60149
▁रोज	-9.60232
▁दशक	-9.60351
एम	-9.604
▁ऑफिस	-9.60402
▁बातों	-9.60503
मो	-9.60617
▁गर्म	-9.60869
▁उचित	-9.60968
▁प्राचीन	-9.61067
▁ऑस्ट्रेलिया	-9.61182
▁पेज	-9.61183
▁शोध	-9.61472
▁नीतीश	-9.61528
▁करो	-9.61548
▁सामान	-9.61575
बे	-9.61596
8	-9.61642
▁समस्याओं	-9.6166
▁डिजिटल	-9.61712
▁कल्याण	-9.61904
▁अकाउंट	-9.61957
-19	-9.62035
i	-9.62079
▁कॉल	-9.62093
▁किताब	-9.62128
▁छ	-9.62298
▁फ़िल्म	-9.62302
▁गाने	-9.62357
लो	-9.62357
▁कर्नाटक	-9.62365
▁अशोक	-9.62765
▁2015	-9.62798
ेशन	-9.62846
▁सकें	-9.62855
ांना	-9.62972
▁जिनके	-9.62972
▁एजेंसी	-9.62983
्र	-9.63026
▁कपड़े	-9.63087
▁लंड	-9.63102
▁चीज	-9.63122
▁बालों	-9.63124
▁खाली	-9.63217
▁+	-9.63222
▁परीक्षण	-9.63281
▁चुनौती	-9.63342
▁सेक्सी	-9.63471
▁ज्यादातर	-9.63632
▁विरोधी	-9.63721
▁गईं	-9.63815
▁35	-9.6391
▁7.	-9.63995
▁त्यामुळे	-9.63995
▁साहब	-9.64089
▁P	-9.64104
▁बचाने	-9.64176
▁सारा	-9.64318
▁पुरानी	-9.64334
▁साइट	-9.64338
▁अधिकांश	-9.64354
▁हरा	-9.64404
▁मिलते	-9.6445
▁”.	-9.64451
▁हिन्दू	-9.64483
▁दवा	-9.64617
▁रे	-9.64642
▁गठबंधन	-9.64648
▁संपत्ति	-9.64648
▁वर्ल्ड	-9.64649
रू	-9.64801
▁झारखंड	-9.64838
▁विधि	-9.64886
er	-9.6498
▁इंसान	-9.64998
▁लगती	-9.65002
▁दिखाया	-9.65032
▁गुप्ता	-9.65042
▁औसत	-9.65109
▁इंडियन	-9.65293
▁जानने	-9.65304
▁भवन	-9.6531
▁लिस्ट	-9.65318
ियो	-9.6537
▁पीड़ित	-9.65436
▁कैंसर	-9.65491
▁अनुमान	-9.6552
▁मैचों	-9.65533
▁जाये	-9.65659
गे	-9.65673
▁व्यवसाय	-9.65747
▁मनुष्य	-9.65787
मे	-9.65792
▁बाइक	-9.658
▁होटल	-9.65858
▁इच्छा	-9.65894
यदि	-9.6592
▁बेहतरीन	-9.65958
k	-9.66004
▁लड़कियों	-9.66149
▁गरीब	-9.66179
▁भूल	-9.66345
▁प्रभारी	-9.66413
▁एक्ट्रेस	-9.66419
▁खुलासा	-9.66442
▁बढ़ती	-9.66516
्या	-9.66583
▁चुनें	-9.66663
▁सुरू	-9.66685
▁मुफ्त	-9.6675
दर	-9.66759
▁तस्वीरें	-9.66826
शा	-9.66837
▁मंडल	-9.66913
▁सेंटर	-9.67003
ाचा	-9.67047
सं	-9.67125
▁हिस्से	-9.67197
▁महिलाएं	-9.6726
▁फूल	-9.67323
▁आउट	-9.67371
▁विमान	-9.67377
▁तिथि	-9.67477
▁रखे	-9.67495
▁मुंह	-9.67507
▁T	-9.67578
▁पोलिस	-9.67583
▁सपना	-9.67589
▁वित्तीय	-9.67664
▁मानते	-9.67759
▁उम्मीदवारों	-9.67886
▁सुना	-9.67894
G	-9.67953
▁हां	-9.68018
▁कार्यकर्ताओं	-9.68068
▁प्लान	-9.68073
ाई	-9.68116
▁नेटवर्क	-9.68129
▁नियमित	-9.68136
दी	-9.68218
▁सूत्रों	-9.68271
▁हल	-9.68273
▁हफ्ते	-9.68291
▁पड़ेगा	-9.68315
▁डीजल	-9.68318
▁लगने	-9.68325
▁भ्रष्टाचार	-9.68334
▁तारीख	-9.68341
▁}	-9.68353
▁शब्दों	-9.68398
▁चाय	-9.6842
▁जिम्मेदारी	-9.68426
▁मालिक	-9.68546
K	-9.68628
▁दलित	-9.68821
▁विज्ञापन	-9.68876
▁आबादी	-9.69005
▁मित्र	-9.69005
टा	-9.69014
ांनी	-9.69038
▁प्रतिक्रिया	-9.69056
मु	-9.69081
▁हालात	-9.69217
शी	-9.69402
▁ठाकुर	-9.69515
▁मिश्रा	-9.69535
▁पर्याप्त	-9.69565
▁दुकान	-9.69571
नो	-9.69582
▁बताने	-9.69596
▁पढ़ने	-9.69682
णी	-9.69742
▁रोहित	-9.69764
सु	-9.69847
▁श्रेणी	-9.69854
▁लीटर	-9.69896
▁माहौल	-9.69926
al	-9.69931
▁रास्ता	-9.69996
▁दम	-9.70009
▁इंतजार	-9.7004
▁गिर	-9.70104
▁उसको	-9.70193
▁विशाल	-9.70239
▁जमकर	-9.70256
▁.....	-9.70262
खा	-9.70294
▁किरदार	-9.70304
P	-9.70419
▁स्वामी	-9.70444
▁फाइनल	-9.70502
इसके	-9.70514
▁कमजोर	-9.70649
▁कमाई	-9.70664
▁कहती	-9.70682
▁नामक	-9.70785
▁मूवी	-9.70823
▁मारे	-9.70843
देव	-9.70892
▁अनिल	-9.71048
▁खेती	-9.71055
▁चोरी	-9.71095
▁जैन	-9.71133
▁दिखा	-9.71205
▁मोहम्मद	-9.71212
▁पर्यावरण	-9.71331
ध	-9.71408
▁जिलों	-9.71508
▁बोली	-9.71682
▁अवैध	-9.71921
▁संबोधित	-9.7197
▁उत्पन्न	-9.71976
▁सीबीआई	-9.72029
.1	-9.72184
▁भोपाल	-9.72195
▁सत्य	-9.72248
▁स्वतंत्रता	-9.72305
▁जितना	-9.72307
▁लगाई	-9.72344
ंट	-9.7237
▁आराम	-9.72385
▁चूत	-9.72448
▁तिमाही	-9.72508
▁मशीन	-9.72573
▁परियोजना	-9.72577
▁70	-9.72584
▁आवास	-9.72611
स्ट	-9.72883
▁यूनिवर्सिटी	-9.73029
▁तिवारी	-9.73066
▁डि	-9.73177
▁ईमेल	-9.73182
▁खूबसूरत	-9.73305
▁धोनी	-9.73331
▁भरा	-9.73358
ीकरण	-9.73362
f	-9.73388
▁पेड़	-9.73391
सिंह	-9.73433
▁संबंधी	-9.73456
▁मिलाकर	-9.73523
▁पार्क	-9.73579
▁कहां	-9.7361
▁युवाओं	-9.73617
ing	-9.73692
वन	-9.73764
▁शहरों	-9.73852
▁बा	-9.73977
▁अप	-9.74001
मेंट	-9.74003
▁माल	-9.74022
▁सम्मेलन	-9.74024
वादी	-9.74061
▁पैर	-9.74094
▁अभिनेत्री	-9.74236
▁हटा	-9.74265
▁—	-9.74293
▁मान्यता	-9.743
▁गूगल	-9.7432
▁प्रमाण	-9.74342
▁पुस्तक	-9.74345
रिया	-9.74446
▁आना	-9.74462
ड़ी	-9.74515
▁ू	-9.74622
▁दैनिक	-9.7464
▁मानसिक	-9.74674
▁फ्री	-9.74686
▁अफ्रीका	-9.74687
▁वापसी	-9.74739
▁दाम	-9.74789
▁खतरा	-9.74842
—	-9.74874
▁रस	-9.75038
▁घरों	-9.75078
▁केला	-9.75188
▁अखिलेश	-9.75196
▁अल	-9.7533
▁कथित	-9.75425
दो	-9.75538
▁आली	-9.75581
▁हाउस	-9.75616
▁à	-9.75678
▁गुणवत्ता	-9.75749
▁दलों	-9.75764
▁प्रशिक्षण	-9.75769
▁होम	-9.75774
▁साथी	-9.75791
▁निधन	-9.75792
▁वेब	-9.7583
▁सपा	-9.75856
▁विपक्ष	-9.75859
▁लि	-9.75867
▁व्यक्तिगत	-9.75887
▁खेलने	-9.75971
▁खाद्य	-9.76001
▁चुनावों	-9.76015
▁अजय	-9.76054
▁आस	-9.7607
▁सुपर	-9.76099
▁स्वस्थ	-9.76152
▁चेक	-9.76169
▁परंतु	-9.76264
▁बि	-9.76331
▁आला	-9.76368
▁सेट	-9.76382
ेड	-9.76393
▁प्रकृति	-9.76399
▁बॉक्स	-9.76448
▁पहुंचने	-9.76483
▁टैक्स	-9.76521
▁प्राकृतिक	-9.76562
वां	-9.76581
▁आधुनिक	-9.76594
▁विवरण	-9.766
▁ग्राहकों	-9.76738
▁कार्यकर्ता	-9.76746
▁अर्थव्यवस्था	-9.76836
सन्दर्भ	-9.76975
▁ऐतिहासिक	-9.7698
▁छोड़कर	-9.77043
▁परिसर	-9.77178
▁दौरे	-9.77293
▁दृष्टि	-9.77317
▁लुक	-9.77347
▁तकनीक	-9.77368
पिता	-9.77408
▁चीजों	-9.77502
▁स्कोर	-9.77554
▁महामारी	-9.7756
मध्ये	-9.77567
▁ताजा	-9.7767
n	-9.77899
E	-9.77929
▁जगत	-9.77948
▁चारों	-9.77981
▁इलाकों	-9.77997
▁प्रदूषण	-9.78006
▁लौट	-9.78066
▁दु	-9.78126
▁सपने	-9.7814
रि	-9.7819
▁कोलकाता	-9.782
▁वर्मा	-9.78214
▁लंबी	-9.78301
▁जनरल	-9.78482
▁वेतन	-9.78557
▁पाते	-9.78633
▁हवाई	-9.78683
▁घ	-9.78688
▁शारीरिक	-9.78754
▁आयु	-9.78763
▁केन्द्र	-9.78764
▁पल	-9.78999
▁भावना	-9.79027
▁कक्षा	-9.79096
▁बचा	-9.79106
▁व्रत	-9.79176
▁चित्र	-9.79332
▁माने	-9.79351
▁इनका	-9.79416
▁आतंकी	-9.79668
गढ़	-9.7975
▁झाले	-9.79771
▁जीतने	-9.79835
▁मर	-9.79844
▁गौरतलब	-9.79848
दूसरे	-9.79885
▁सफाई	-9.79998
ास	-9.80024
▁जानिए	-9.80149
▁थाने	-9.80197
▁मरीजों	-9.80222
▁पुष्टि	-9.80336
▁सि	-9.80337
▁कैमरा	-9.80367
▁80	-9.80408
▁सम्मानित	-9.80516
▁News	-9.80568
▁लगते	-9.80588
t	-9.80718
▁बचाव	-9.8074
▁यांच्या	-9.80744
▁पोर्टल	-9.80808
T	-9.80865
▁नये	-9.80866
▁सीजन	-9.80899
▁व्यापक	-9.81073
▁एयर	-9.81097
▁लेता	-9.811
▁मरीज	-9.81183
▁मुद्रा	-9.81206
▁कवि	-9.8153
▁मिशन	-9.81556
▁गुण	-9.81585
▁लिख	-9.8159
▁जवान	-9.81626
उन्होंने	-9.81651
▁मशहूर	-9.81671
▁फायदे	-9.81704
▁प्रवक्ता	-9.81766
▁एक्स	-9.81826
▁लाखों	-9.81896
▁काही	-9.8199
ेज	-9.82047
▁उठाया	-9.82064
_	-9.82153
वार	-9.82177
▁भरोसा	-9.82194
▁केरल	-9.82242
▁वैश्विक	-9.82445
▁निशाना	-9.82462
▁वैज्ञानिक	-9.82565
▁ऐ	-9.82602
.2	-9.82632
▁F	-9.82653
▁गोल	-9.8272
िल	-9.82759
▁रद्द	-9.82842
▁कठिन	-9.8292
▁ग्रहण	-9.83068
▁रोल	-9.8307
०	-9.83177
▁बदलने	-9.83193
▁पाठ	-9.83211
▁परिजनों	-9.83218
पूर्ण	-9.83269
▁दीपक	-9.83324
ातील	-9.8336
ंस	-9.83375
सन	-9.83471
▁औ	-9.83495
ै	-9.83511
▁समझा	-9.83527
–	-9.83648
▁पि	-9.8365
▁आरक्षण	-9.83676
▁संस्करण	-9.83771
▁पाटील	-9.83812
▁शांत	-9.83846
▁ऋण	-9.83911
▁कर्ज	-9.83935
कल	-9.83956
▁सन	-9.83997
▁करून	-9.84047
गंज	-9.84053
▁बो	-9.8411
▁योजनाओं	-9.84223
▁लगाकर	-9.84258
▁तोड़	-9.8428
▁रैली	-9.84362
कभी	-9.84372
▁पृथ्वी	-9.84446
▁पूछताछ	-9.84544
पाल	-9.84694
▁मुद्दों	-9.84714
▁उपकरण	-9.84753
▁रो	-9.84807
▁फसल	-9.84812
▁8.	-9.84925
▁200	-9.84974
▁फॉर्म	-9.85047
▁झाली	-9.85106
▁डाला	-9.85139
कश्मीर	-9.8517
▁पर्यटन	-9.85197
▁वनडे	-9.85399
M	-9.85426
ेस	-9.85479
▁I	-9.85523
▁बढ़ावा	-9.85557
▁काले	-9.85681
▁स्वतंत्र	-9.85724
▁Hom	-9.85864
▁वास्तविक	-9.85897
▁बच्चा	-9.86005
▁2013	-9.86018
▁आशा	-9.86062
▁खून	-9.86142
▁बैठ	-9.86175
▁पीने	-9.86206
▁बिजनेस	-9.8623
टर	-9.86247
▁ऐलान	-9.86249
▁पुल	-9.86282
▁32	-9.86337
▁पत्रकारों	-9.86339
▁सुन	-9.86446
▁बांग्लादेश	-9.8645
▁D	-9.86503
टे	-9.86565
▁कमेटी	-9.86607
▁लड़के	-9.86639
▁रहीं	-9.86656
▁श्रृंखला	-9.86764
▁बरामद	-9.86846
▁रा	-9.86958
▁पदक	-9.8699
▁बाढ़	-9.87024
▁राज्यपाल	-9.8722
▁अखबार	-9.87402
▁दिमाग	-9.87423
▁टॉप	-9.87515
हि	-9.87648
▁फुल	-9.8766
▁जयपुर	-9.87766
▁समझने	-9.87814
▁यानि	-9.87833
00	-9.87884
▁आईपीएल	-9.8798
▁पावर	-9.87982
▁करवा	-9.88034
▁यौन	-9.88056
िश	-9.88179
▁रूस	-9.8821
▁शूटिंग	-9.88232
▁डिजाइन	-9.88319
▁पीठ	-9.88319
▁खरीदने	-9.88332
▁रिश्ते	-9.88348
▁गठन	-9.88363
▁दर्शकों	-9.88371
▁लिखी	-9.88453
▁दिये	-9.88614
विज्ञापन	-9.88713
▁चलाने	-9.88835
▁45	-9.88943
▁500	-9.88955
▁रिसर्च	-9.89003
▁आगामी	-9.89023
▁बल्लेबाज	-9.89108
▁%	-9.89146
▁लक्षण	-9.89169
▁रखता	-9.89198
▁रनों	-9.89219
▁चुनावी	-9.89288
▁इंजन	-9.89371
▁फैंस	-9.8945
लेकिन	-9.89505
▁सरल	-9.89553
▁संरक्षण	-9.89622
▁बनाते	-9.89705
▁खेले	-9.89724
धीरे	-9.89755
ांच्या	-9.8982
▁हाईकोर्ट	-9.89838
▁सीमित	-9.89879
▁तहसील	-9.89902
▁लोन	-9.89981
▁वकील	-9.89995
▁नियमों	-9.90064
▁चौहान	-9.90071
▁तैनात	-9.90203
▁मी	-9.90212
▁›	-9.90324
▁किनारे	-9.90331
▁ग्राहक	-9.90343
▁दास	-9.90507
▁आरोपियों	-9.90517
▁सेवाओं	-9.90616
हे	-9.9065
▁पढ़	-9.90678
▁अग्रवाल	-9.90803
▁एक्सप्रेस	-9.90837
▁समुद्र	-9.90876
▁मजबूर	-9.90989
▁अधिनियम	-9.91134
ांची	-9.91147
▁महीनों	-9.91165
▁वैक्सीन	-9.91234
श्री	-9.91309
▁चंद्र	-9.91483
दिल्ली	-9.91487
▁आंखों	-9.91509
▁लालू	-9.91535
िस	-9.91613
▁कथा	-9.91637
▁स्त्री	-9.91661
▁स्थानों	-9.91675
▁मेल	-9.91698
▁चोट	-9.91718
▁हिमाचल	-9.91745
▁जंगल	-9.91768
क्ष	-9.91777
▁सिटी	-9.918
▁निर्भर	-9.91862
▁शक	-9.9187
▁महाराज	-9.91898
▁चीजें	-9.91956
▁सवार	-9.92077
बल	-9.92079
▁विद्यालय	-9.92135
m	-9.92221
▁उतार	-9.92231
▁रचना	-9.92516
▁कहता	-9.92557
▁न्यूनतम	-9.92654
▁गा	-9.92726
▁भू	-9.92873
▁क्लास	-9.93156
▁दान	-9.93162
ार	-9.93195
N	-9.93386
ंद	-9.93389
▁शख्स	-9.93423
▁कौशल	-9.93429
▁बुरी	-9.93482
ेश्वर	-9.93493
▁लाइफ	-9.93518
इसे	-9.93525
▁हजारों	-9.93621
▁ममता	-9.93641
p	-9.93661
▁वितरण	-9.93676
▁खोल	-9.93686
▁रेखा	-9.93841
▁आमतौर	-9.9387
▁बधाई	-9.93871
▁बहस	-9.9393
▁मिलियन	-9.93962
▁बढ़ते	-9.94
▁सागर	-9.94035
▁राजीव	-9.94054
▁अधिकतम	-9.94226
▁तथ्य	-9.94285
▁निर्माता	-9.94393
चर	-9.9443
▁90	-9.9444
▁अक्षय	-9.94444
घर	-9.94473
▁मि	-9.9451
▁कराई	-9.94516
▁गु	-9.94621
▁हादसे	-9.94624
▁आजादी	-9.94683
▁जीता	-9.94696
कुछ	-9.94757
▁बराबर	-9.94761
▁अकेले	-9.94812
▁इसीलिए	-9.94838
▁मिट्टी	-9.94875
▁ढंग	-9.94884
▁सोचा	-9.94884
▁श्रीलंका	-9.94884
▁रक्त	-9.9489
▁आदर्श	-9.94965
ां	-9.94977
▁लिमिटेड	-9.95
▁नोटिस	-9.95024
▁टाइम	-9.95096
▁बीज	-9.9512
▁विशिष्ट	-9.95177
काल	-9.95228
▁अनु	-9.95266
▁झ	-9.95269
क्स	-9.95283
▁मुझसे	-9.95292
▁टन	-9.953
▁ईसा	-9.95386
▁ताकत	-9.95408
▁अभ्यास	-9.95413
▁नींद	-9.95429
▁बिग	-9.95496
▁सकेंगे	-9.95502
▁बुरा	-9.95575
▁पाकिस्तानी	-9.95594
▁सकारात्मक	-9.95615
स्	-9.95622
ेगा	-9.95731
▁आंकड़ों	-9.95804
▁बचपन	-9.95806
▁राह	-9.95885
छ	-9.95936
ेंगे	-9.95944
▁तीसरी	-9.95971
ेट	-9.95978
▁सफेद	-9.95997
▁लीग	-9.96064
▁भाषण	-9.96093
▁M	-9.9616
▁संत	-9.96173
▁चेन्नई	-9.96308
▁रानी	-9.96316
▁मार्केट	-9.96343
▁पेपर	-9.96347
मैन	-9.9637
▁दौड़	-9.96492
▁बैंकों	-9.96514
▁अंग	-9.96544
▁वायु	-9.96545
▁छवि	-9.96594
in	-9.96673
▁वातावरण	-9.9674
▁अशी	-9.96815
शहर	-9.9685
▁प्रतियोगिता	-9.96912
▁टूट	-9.96935
▁खड़ी	-9.96947
▁सुनील	-9.97102
▁खबरों	-9.9721
▁पुरुषों	-9.97211
▁दूसरों	-9.97248
▁नारायण	-9.9725
▁इसको	-9.97337
▁सका	-9.97388
▁सर्वश्रेष्ठ	-9.97394
▁युग	-9.97414
▁More	-9.97455
▁देखी	-9.97474
▁गणेश	-9.97485
▁बॉस	-9.97491
▁0	-9.97492
▁वर्ण	-9.97616
▁कार्यवाही	-9.97782
▁किमी	-9.97784
▁संशोधन	-9.97815
▁विचारों	-9.97828
▁शहीद	-9.97862
▁R	-9.97883
▁हाँ	-9.97892
▁मध्यप्रदेश	-9.97935
▁यात्रियों	-9.98025
F	-9.98029
▁मोड	-9.98044
▁सुझाव	-9.98079
▁2012	-9.98099
▁उत्पादों	-9.98115
कि	-9.9812
खेल	-9.98128
▁ज़रूरत	-9.9818
▁लड़	-9.98255
▁क्रम	-9.98283
वो	-9.98371
वाला	-9.98414
▁बांध	-9.98435
▁परिवारों	-9.98444
▁चालू	-9.98483
▁इं	-9.98493
▁लेंगे	-9.98496
▁हटाने	-9.98505
▁आदित्यनाथ	-9.98523
शन	-9.98563
▁समाजवादी	-9.98703
▁झाला	-9.98717
▁पाएंगे	-9.98739
▁मुद्दा	-9.98885
▁सचिन	-9.98915
▁परन्तु	-9.98934
▁संग्रह	-9.99124
▁लाया	-9.99162
▁पहल	-9.99194
▁बदले	-9.99205
▁पूर्वी	-9.99227
▁क्लब	-9.99317
▁महज	-9.99319
▁एसपी	-9.99327
▁प्रभावी	-9.99358
▁लाइव	-9.99423
▁स्कूलों	-9.99468
▁संचालन	-9.99496
▁अयोध्या	-9.99625
▁गलती	-9.99783
▁शुरुआती	-9.998
▁एशिया	-9.9983
-20	-9.99845
▁मकान	-9.99913
▁धन्यवाद	-9.99933
▁उल्लेख	-9.99934
▁टूर्नामेंट	-9.99942
▁असली	-9.99952
▁स्टोर	-9.99975
▁मुख्यालय	-9.99978
▁भरी	-9.99989
▁असम	-9.99999
▁किलो	-10.0001
▁धमकी	-10.002
H	-10.0023
▁प्रेरित	-10.0028
▁येथील	-10.0035
▁झा	-10.0039
▁H	-10.004
▁त्या	-10.0046
▁मंजूरी	-10.0049
▁नागरिकों	-10.0072
▁आएगा	-10.0073
▁अरविंद	-10.0085
▁कड़ियाँ	-10.009
▁जस्टिस	-10.0093
▁घटनाओं	-10.0095
▁कलाकार	-10.0095
▁आयुक्त	-10.0098
h	-10.0101
▁जाहिर	-10.0102
▁2011	-10.0103
बाहरी	-10.0106
▁इंस्टाग्राम	-10.0112
▁बेटा	-10.0118
▁खेला	-10.0121
▁उठाने	-10.0123
▁नीला	-10.0124
10	-10.0127
ौ	-10.0131
▁चुना	-10.0135
टो	-10.0142
▁सेक्टर	-10.0145
▁पदार्थ	-10.0156
▁लोकतंत्र	-10.016
▁तू	-10.0167
▁शिवसेना	-10.0179
▁बीमा	-10.0189
▁शैली	-10.0192
▁हृदय	-10.0194
▁अति	-10.02
▁हैदराबाद	-10.0203
▁लिखे	-10.0203
▁कोच	-10.0207
▁पो	-10.0207
▁अंदाज	-10.0207
▁अधीक्षक	-10.0211
म्	-10.0213
u	-10.0216
▁पश्चिमी	-10.0221
▁कीमतों	-10.0223
▁आलोचना	-10.0224
▁बच्ची	-10.0233
▁जोखिम	-10.0242
▁हद	-10.0248
▁दिला	-10.0248
▁उद्घाटन	-10.0253
▁डांस	-10.0261
▁पर्व	-10.0266
▁ऑफ़	-10.0275
▁ट्रंप	-10.0281
▁आपूर्ति	-10.0284
ण्ड	-10.0287
▁भा	-10.0292
मुझे	-10.0293
▁दोबारा	-10.031
तील	-10.0315
▁भरपूर	-10.0319
▁आजकल	-10.0319
▁प्रोजेक्ट	-10.0321
▁अरुण	-10.0323
.3	-10.033
▁जुड़ा	-10.0336
▁सीटें	-10.0337
▁आंध्र	-10.0337
▁बनाये	-10.0341
▁रूपये	-10.0341
▁देखे	-10.0344
▁बच्चन	-10.0348
▁बचने	-10.0348
कु	-10.0349
▁सड़कों	-10.0353
▁माहिती	-10.0353
▁प्रतिबंध	-10.0355
स्त	-10.0355
साठी	-10.0357
▁पत्थर	-10.0363
▁होंगी	-10.0363
▁स्टॉक	-10.0371
▁बटन	-10.0371
▁दृश्य	-10.0375
▁अंतर्राष्ट्रीय	-10.0378
▁खाता	-10.0388
▁ब्रिटेन	-10.0388
▁ब्रिटिश	-10.0389
▁जिनकी	-10.0406
▁@	-10.0407
▁कानूनी	-10.042
▁जोड़ी	-10.042
▁सेहत	-10.042
▁त्यांनी	-10.0433
▁जिम्मेदार	-10.0443
,000	-10.045
▁न्यूजीलैंड	-10.0452
▁G	-10.0454
▁कल्पना	-10.0455
▁पवार	-10.0462
ॅ	-10.0464
▁मण्डल	-10.0472
फा	-10.0474
▁जिनका	-10.0475
▁प्रतीक	-10.0476
▁संगठनों	-10.0476
▁उतर	-10.048
▁रणनीति	-10.049
▁अनिवार्य	-10.0493
▁शुद्ध	-10.0499
▁अहमद	-10.0508
▁हथियार	-10.0511
▁राव	-10.0512
▁काट	-10.0515
▁निकाला	-10.0516
▁नियुक्त	-10.0516
▁ष	-10.0517
▁संदर्भ	-10.0517
ाना	-10.0519
▁उतना	-10.0535
िये	-10.0559
▁जानी	-10.0559
▁चेतावनी	-10.0563
▁मुकाबला	-10.0564
▁नव	-10.0567
▁फंड	-10.0569
▁स्वरूप	-10.0571
▁कहाँ	-10.0571
▁¤	-10.0582
▁ब्याज	-10.0585
▁पहुँच	-10.0592
▁जिसमे	-10.0594
▁अन	-10.061
▁लिखने	-10.0621
▁E	-10.0624
▁असा	-10.0626
▁सिनेमा	-10.0626
▁प्राथमिक	-10.0628
▁बल्लेबाजी	-10.0628
V	-10.063
▁ब्रांड	-10.0631
▁विशेषज्ञ	-10.0631
▁36	-10.0635
यो	-10.0637
▁लक्ष्मी	-10.0644
▁तत्व	-10.0645
▁चाल	-10.0646
▁उधर	-10.065
▁सन्	-10.065
▁दौरा	-10.0657
ीत	-10.0663
▁जापान	-10.067
यें	-10.0681
▁विपरीत	-10.0686
▁डिवाइस	-10.0686
▁मोहन	-10.0689
वान	-10.0697
▁मंगल	-10.0698
अप	-10.0698
▁रावत	-10.0704
वाल	-10.0706
▁लगाते	-10.071
▁न्यू	-10.0719
▁गतिविधियों	-10.0722
▁पत्रकारिता	-10.0723
▁ईश्वर	-10.073
राज्य	-10.0732
▁मनोज	-10.0736
▁गले	-10.0747
▁एच	-10.0749
▁संचालित	-10.0749
▁राज्यसभा	-10.0763
|	-10.077
+	-10.077
▁१९	-10.0774
नई	-10.0778
▁हुये	-10.0784
▁ग्रह	-10.0786
▁खुले	-10.0786
▁ट्रक	-10.0787
▁दोषी	-10.0802
▁ठ	-10.0803
▁डेस्क	-10.0809
▁मुसलमानों	-10.0814
▁तकनीकी	-10.0816
▁जु	-10.0819
▁गर्मी	-10.0826
▁कट	-10.0827
राव	-10.0832
▁पुणे	-10.0834
▁जगहों	-10.0835
धर्म	-10.0848
▁तसेच	-10.0848
▁संवत	-10.0848
▁9.	-10.0857
▁N	-10.0858
▁जात	-10.086
▁हु	-10.0868
ेल	-10.0878
▁विविध	-10.0882
▁चेहरा	-10.0885
▁हित	-10.0897
▁रुप	-10.0899
-1	-10.0907
▁वा	-10.0909
णा	-10.091
▁लड़ने	-10.0912
▁आत्महत्या	-10.0914
▁2009	-10.0916
▁शपथ	-10.0923
▁धरती	-10.0924
▁सम	-10.0929
▁प्रत्याशी	-10.0931
▁आत्मा	-10.0933
▁अध्यक्षता	-10.0936
▁दिखाने	-10.0936
x	-10.0938
▁विटामिन	-10.0944
▁मध्यम	-10.0946
▁सिन्हा	-10.0953
▁शुरु	-10.0956
▁आवाज़	-10.0957
▁बच	-10.0967
िए	-10.0968
▁फिल्में	-10.0973
▁मोर्चा	-10.0975
बर	-10.0977
▁33	-10.0994
▁वीर	-10.0998
▁दिली	-10.1007
▁कैबिनेट	-10.1007
दे	-10.1007
▁देगी	-10.1017
▁उपाध्यक्ष	-10.1021
▁किशोर	-10.1024
▁मंत्र	-10.1027
▁विधान	-10.1028
▁अनुमानित	-10.103
▁पढ़े	-10.1037
रु	-10.1043
ड़े	-10.1046
▁सफर	-10.1046
l	-10.1048
▁तत्काल	-10.1051
▁नेहरू	-10.1056
▁अंजाम	-10.1056
▁आइए	-10.1059
▁संवाद	-10.1059
▁लूट	-10.1075
▁असल्याचे	-10.1075
▁प्रोग्राम	-10.1076
▁सुनने	-10.1077
▁राशिफल	-10.1084
▁होत	-10.1091
▁इंच	-10.1094
गु	-10.1103
▁जन्मदिन	-10.1105
▁निकलने	-10.1114
मनोरंजन	-10.1116
ष	-10.1118
▁ब्लॉक	-10.1118
▁ता	-10.1125
▁चालक	-10.1127
▁नयी	-10.113
▁करार	-10.1131
▁व्यक्तियों	-10.1133
▁स्टेट	-10.1144
▁पत्रिका	-10.1144
▁निकालने	-10.1144
होम	-10.1153
▁सांस	-10.1156
g	-10.1159
▁एफ	-10.1172
▁K	-10.1172
▁कपिल	-10.1173
▁संक्रमित	-10.1186
▁दोन	-10.1189
▁नेपाल	-10.1192
▁भरे	-10.1194
▁खेत	-10.1199
▁शेर	-10.1199
▁ऑटो	-10.1205
▁अगली	-10.1214
▁प्रदर्शित	-10.1214
▁जि	-10.1215
▁परिवहन	-10.1218
W	-10.1226
▁स्मार्ट	-10.123
▁जानना	-10.1231
▁पवित्र	-10.1231
▁2010	-10.1233
R	-10.1239
▁स्पेशल	-10.1241
an	-10.1241
हार	-10.1242
▁नवम्बर	-10.1242
▁असल	-10.1244
▁रेट	-10.1251
▁बनाता	-10.1253
▁आपसे	-10.1255
▁देखभाल	-10.1257
ाव	-10.1263
▁दि	-10.1264
वह	-10.1269
िट	-10.1274
▁रवि	-10.1276
▁परंपरा	-10.1276
▁सुनकर	-10.128
फिर	-10.1296
▁महासचिव	-10.1304
▁कानपुर	-10.1312
▁सिद्ध	-10.1316
▁निर्वाचन	-10.132
▁अवश्य	-10.1323
▁जानता	-10.1325
▁वार	-10.1338
▁इनकार	-10.1341
▁पड़ती	-10.1341
यां	-10.1348
.5	-10.1349
▁पाता	-10.135
▁सबको	-10.1353
▁आशंका	-10.1353
▁सर्वाधिक	-10.1354
▁अमिताभ	-10.1355
ानी	-10.1365
.4	-10.137
ूर	-10.1372
-2	-10.1372
▁मस्जिद	-10.1374
▁येथे	-10.1376
▁लेती	-10.1376
पे	-10.1377
▁एयरपोर्ट	-10.1377
▁PM	-10.1379
U	-10.1382
▁वाहनों	-10.1393
▁इंटरव्यू	-10.1394
50	-10.1395
▁कर्म	-10.14
▁तंत्र	-10.1405
▁सेल	-10.1413
पत्र	-10.1416
▁जताई	-10.1426
▁बलात्कार	-10.1428
▁बुक	-10.1432
▁चम्मच	-10.1433
▁एकदम	-10.1434
▁वार्ड	-10.1435
▁गाय	-10.1447
▁तुम्हें	-10.1449
तर	-10.145
ात्मक	-10.1455
ed	-10.1456
▁बनकर	-10.1463
गर	-10.1471
‍	-10.1473
▁दाखिल	-10.1473
▁सर्विस	-10.1482
दान	-10.1485
▁बढ़त	-10.1493
▁राजेश	-10.1497
▁बैटरी	-10.15
▁प्रोफेसर	-10.1507
▁खतरनाक	-10.1519
▁सोना	-10.1522
▁मालूम	-10.1523
▁रिजल्ट	-10.1524
▁सहमति	-10.1525
▁खेलों	-10.1528
▁गोवा	-10.1529
▁प्रताप	-10.1531
▁कै	-10.1532
▁48	-10.1533
▁मनोरंजन	-10.1534
▁दिवाली	-10.1536
▁कंट्रोल	-10.1543
▁लंदन	-10.1547
▁मारने	-10.1547
▁सैन्य	-10.1549
▁तुम्हारे	-10.155
▁संपादक	-10.1551
ढ	-10.1553
▁घाट	-10.1559
पास	-10.1561
▁पृष्ठ	-10.1561
▁जोशी	-10.1567
▁कैसा	-10.1569
▁दुख	-10.157
णे	-10.1572
▁सहारा	-10.1574
▁इधर	-10.1576
▁प्रकट	-10.1581
▁लहर	-10.1582
वल	-10.1585
▁१	-10.159
▁तरंग	-10.1593
▁34	-10.1593
▁रूम	-10.1598
▁कारणों	-10.1598
▁आर्टिकल	-10.16
▁आएंगे	-10.1603
▁प्रेरणा	-10.1604
ंक	-10.1605
▁सीधा	-10.1607
▁जीव	-10.1607
▁बुलाया	-10.1616
▁75	-10.1618
▁इस्तीफा	-10.1621
▁ब्लैक	-10.1629
▁इस्लाम	-10.1632
▁कृपया	-10.1635
▁बढ़ोतरी	-10.1636
▁आदिवासी	-10.164
▁ऑपरेशन	-10.1642
▁चौक	-10.1649
त्व	-10.1665
25	-10.1665
▁विधायकों	-10.1667
▁सांस्कृतिक	-10.1667
▁शंकर	-10.1692
▁रेड	-10.1695
▁विस्तृत	-10.1696
▁इंडस्ट्री	-10.1697
▁डायरेक्टर	-10.1697
में	-10.1699
▁कार्यकाल	-10.17
▁स्टेडियम	-10.1703
▁उठ	-10.171
▁बताई	-10.1715
रों	-10.1719
जर	-10.1721
▁शेष	-10.1723
▁गांवों	-10.1729
▁जाय	-10.1736
सह	-10.174
▁चक्र	-10.1762
▁अर्जुन	-10.1765
.6	-10.1767
▁भरने	-10.1779
डो	-10.1781
▁s	-10.1787
60	-10.1787
▁2021.	-10.1789
▁कायम	-10.1791
सो	-10.1793
भारतीय	-10.1793
▁ओपन	-10.1796
▁इंदौर	-10.18
▁तर्क	-10.1825
▁दाखल	-10.1827
▁तारीफ	-10.1832
▁सूत्र	-10.1835
▁दिनांक	-10.184
▁एंटी	-10.184
▁जमानत	-10.1842
▁यात्री	-10.1844
▁अफगानिस्तान	-10.1844
18	-10.1848
▁जरिये	-10.1849
▁राजस्व	-10.1856
▁संचार	-10.1866
कारी	-10.1868
▁घंटों	-10.1872
▁एक्टर	-10.1873
▁पंडित	-10.1877
▁गाना	-10.1888
▁विपक्षी	-10.1895
▁जिक्र	-10.1896
ंज	-10.1905
▁स्रोत	-10.1909
▁प्राइवेट	-10.1909
▁नष्ट	-10.1912
▁वस्तु	-10.1912
▁2008	-10.1912
बिहार	-10.1916
▁पात्र	-10.192
▁शतक	-10.1929
▁सबके	-10.1933
▁सोनिया	-10.1934
ील	-10.1935
▁कोरिया	-10.1939
▁विश्लेषण	-10.1944
▁इंटरनेशनल	-10.1949
▁आकर्षित	-10.1952
▁लॉकडाउन	-10.1954
▁तत्कालीन	-10.1958
▁हिरासत	-10.196
▁भाभी	-10.1961
▁छोड़ने	-10.1962
▁साउथ	-10.1966
▁बाहरी	-10.197
▁शा	-10.1973
24	-10.1984
▁फ़ोन	-10.199
▁ईरान	-10.199
▁पु	-10.1998
▁निगरानी	-10.1999
▁उल्लंघन	-10.2
भर	-10.2009
▁सर्वे	-10.2014
▁संस्कार	-10.2015
26	-10.2022
▁सख्त	-10.2023
▁लव	-10.2024
▁अनुरोध	-10.2026
▁सॉफ्टवेयर	-10.2039
▁फ्रांस	-10.204
▁लगेगा	-10.204
▁स्मृति	-10.2042
▁संकल्प	-10.2045
▁कवर	-10.2045
▁राकेश	-10.2051
▁गिरफ्तारी	-10.2055
▁बढ़ता	-10.2064
▁टू	-10.2066
▁जितनी	-10.207
▁शाहरुख	-10.207
्‍	-10.2082
▁तलाक	-10.2085
▁उजाला	-10.2087
▁कमा	-10.2092
▁चाहिये	-10.2095
▁टीकाकरण	-10.2097
▁अनुसंधान	-10.21
▁किन्तु	-10.2106
▁खारिज	-10.2111
▁विद्युत	-10.2111
▁नियुक्ति	-10.2112
ar	-10.2113
▁जनपद	-10.2115
▁नमक	-10.2117
▁हैरान	-10.2127
▁खुल	-10.2128
भा	-10.2128
ंडा	-10.2133
▁सुनाई	-10.2137
▁ग्रामीणों	-10.2139
▁निर्मित	-10.2142
▁निर्यात	-10.2143
19	-10.2143
▁»	-10.2146
▁आधा	-10.2148
गांव	-10.2149
▁री	-10.2154
▁न्यायाधीश	-10.216
▁पिछली	-10.2162
▁आंकड़े	-10.2165
L	-10.2165
▁अद्भुत	-10.2167
र्	-10.2172
▁घाटी	-10.2173
▁चीफ	-10.2176
▁पं	-10.2178
▁नवीन	-10.2182
ेंद्र	-10.2184
▁भारती	-10.2184
▁वक़्त	-10.2185
▁़	-10.219
I	-10.219
▁जोड़	-10.219
▁ख़ास	-10.2206
ासाठी	-10.221
▁मूर्ति	-10.2222
▁दायर	-10.2225
▁रायपुर	-10.2226
▁कनेक्शन	-10.223
करण	-10.2231
▁बसपा	-10.2235
कोरोना	-10.2235
▁पशु	-10.2236
ंच	-10.2236
▁परिचय	-10.2244
▁तमिलनाडु	-10.2247
or	-10.2253
29	-10.2254
▁हि	-10.2259
▁बोलने	-10.2259
▁हिस्सों	-10.2262
▁उत्साह	-10.2267
▁बदला	-10.2283
हमारे	-10.2285
▁शिक्षकों	-10.229
▁विष्णु	-10.2291
वत	-10.2292
▁पाठक	-10.2308
रूप	-10.2309
▁उपस्थिति	-10.2314
पो	-10.2332
▁टाटा	-10.2336
▁आहार	-10.2339
िम	-10.2343
सू	-10.2346
▁निर्देशक	-10.235
▁मारा	-10.2352
▁सेंसेक्स	-10.2354
▁शिक्षण	-10.2355
▁चौथे	-10.2357
हो	-10.2364
▁पैमाने	-10.2372
▁फ़	-10.2377
▁नोएडा	-10.238
▁पाणी	-10.2381
▁करवाया	-10.2383
on	-10.2391
▁औद्योगिक	-10.2394
मैंने	-10.2395
▁प्रौद्योगिकी	-10.2397
▁चौ	-10.24
▁फरार	-10.2401
▁बनता	-10.2403
▁दुर्घटना	-10.2404
▁साधारण	-10.2414
▁प्रिय	-10.2418
▁बैठा	-10.2426
o	-10.2432
▁वादा	-10.2434
▁जिल्हा	-10.2437
▁पूछे	-10.2439
▁पुराना	-10.2444
30	-10.2445
▁चोपड़ा	-10.2448
▁सिद्धांत	-10.2454
▁38	-10.2454
▁प्रगति	-10.2457
▁बम	-10.2457
▁क्षेत्रीय	-10.2461
▁नो	-10.2462
चार	-10.2464
दुनिया	-10.2478
▁वर्षा	-10.248
▁जवानों	-10.2482
▁बर	-10.2484
▁दा	-10.2485
▁अंकों	-10.2487
▁चलती	-10.2495
▁रोजाना	-10.2496
▁गुना	-10.2502
▁ब्यूरो	-10.2503
ियन	-10.2505
▁सहज	-10.2507
▁खतरे	-10.2513
ेंट	-10.2521
घ	-10.2522
▁कलेक्टर	-10.2525
न्स	-10.2526
▁अभिनय	-10.2528
▁यूजर्स	-10.2533
▁बेचने	-10.2535
▁परमाणु	-10.2538
▁महात्मा	-10.2542
▁विजेता	-10.2545
▁चरित्र	-10.2548
▁गेंदबाज	-10.2548
▁स्वाद	-10.2552
40	-10.2566
▁हज़ार	-10.2568
▁रू	-10.2586
▁दिलचस्प	-10.2595
15	-10.2602
it	-10.2604
▁उपयोगी	-10.2605
ेन	-10.261
▁हेड	-10.2616
▁विरुद्ध	-10.262
▁सहयोगी	-10.2621
▁युवती	-10.2634
दास	-10.2636
▁गेट	-10.264
र्क	-10.2643
▁काली	-10.2648
▁खुला	-10.2655
▁इंदिरा	-10.2658
▁समर्पित	-10.2666
▁:-	-10.2667
▁रेप	-10.267
▁ज़रूरी	-10.2676
▁रुक	-10.2676
▁सुविधाओं	-10.2677
▁यहीं	-10.2678
िस्ट	-10.2678
▁काला	-10.2685
▁रकम	-10.2692
▁झटका	-10.2697
▁साफ़	-10.2698
▁बाज़ार	-10.2699
▁तट	-10.2707
▁L	-10.2707
ुआ	-10.2709
▁कीजिए	-10.2714
▁बनर्जी	-10.2714
डि	-10.2725
▁गोल्ड	-10.2725
कुल	-10.2725
▁नाराज	-10.2726
11	-10.2731
▁पाल	-10.2733
ेगी	-10.2736
▁अटल	-10.2738
▁जीएसटी	-10.2738
▁संतोष	-10.2739
▁एकमात्र	-10.274
•	-10.2745
▁शि	-10.2748
▁ट्रैक	-10.275
▁रुचि	-10.275
▁देखिए	-10.2754
▁अंतरिक्ष	-10.2758
डॉ	-10.2761
▁रखकर	-10.2761
▁मायावती	-10.2764
्‍य	-10.2764
▁सुरेश	-10.2765
▁जोड़ा	-10.2767
▁अधिकतर	-10.277
▁सिविल	-10.2772
▁वर्णन	-10.2773
▁अवस्था	-10.2779
▁लगाना	-10.279
▁जनसंख्या	-10.2795
▁यूनिट	-10.28
इन्हें	-10.2801
▁संबंधों	-10.2802
▁वार्ता	-10.2802
▁मचा	-10.2806
▁सदन	-10.281
▁शहरी	-10.2811
▁सांगितले	-10.2812
▁गौरव	-10.2814
Q	-10.2815
▁प्रार्थना	-10.2827
▁रुख	-10.2838
▁स्टोरी	-10.2839
▁२	-10.2839
12	-10.285
झ	-10.285
र्ट	-10.2851
▁ति	-10.2852
▁मेट्रो	-10.2857
▁मिलेंगे	-10.286
▁37	-10.2862
▁बह	-10.2862
▁राशन	-10.2864
▁क्रेडिट	-10.2865
▁मुकदमा	-10.2865
35	-10.2875
▁एक्सचेंज	-10.2878
▁कब्जा	-10.2878
▁संग	-10.288
▁मुसलमान	-10.2882
▁शरद	-10.2884
▁उन्‍होंने	-10.2886
▁नरेन्द्र	-10.2889
▁जज	-10.2896
ान	-10.2899
▁सीख	-10.29
▁2022	-10.2904
▁एसोसिएशन	-10.2906
▁बढ़ी	-10.291
▁पेंशन	-10.2916
▁कैमरे	-10.2922
▁इकाई	-10.2922
▁इमरान	-10.2928
▁डालकर	-10.2929
क़	-10.294
▁खोलने	-10.294
▁प्रयत्न	-10.2941
कडे	-10.2942
▁कोर्स	-10.2942
▁लेखन	-10.2945
▁खासकर	-10.2948
▁गोरखपुर	-10.2956
▁बिलकुल	-10.2956
▁प्रा	-10.296
▁यांना	-10.2965
]	-10.297
▁प्रेमी	-10.297
▁पढ़ा	-10.298
▁चावल	-10.298
▁लिखित	-10.2981
▁निम्न	-10.2995
एच	-10.2996
वाले	-10.2998
▁प्रारंभ	-10.3001
21	-10.3005
▁आतंकवाद	-10.3005
▁गौतम	-10.301
▁नियंत्रित	-10.3019
▁गाव	-10.3021
.8	-10.3042
▁चीज़	-10.3047
▁V	-10.305
▁छत	-10.3051
▁आत्म	-10.3053
▁अर्थात	-10.3054
िग	-10.3054
▁पीढ़ी	-10.3063
▁गायब	-10.3071
▁दिग्गज	-10.3072
▁एक्ट	-10.3073
▁300	-10.308
▁पड़ने	-10.308
▁पहुंचाने	-10.3085
▁अन्तर्गत	-10.3085
▁जर्मनी	-10.3085
▁शताब्दी	-10.3093
▁रिजर्व	-10.3094
▁बीमारियों	-10.3096
▁डाटा	-10.3101
▁प्रतिनिधि	-10.3104
▁रवाना	-10.3105
दि	-10.3108
▁आदत	-10.3109
▁शिवराज	-10.3119
वीर	-10.313
▁सेवाएं	-10.313
▁शाखा	-10.3131
▁एप	-10.3131
मत	-10.3137
▁स्वर्ण	-10.314
▁कामयाब	-10.3142
▁उत्तरी	-10.3149
▁मानी	-10.3155
गत	-10.3155
▁निकले	-10.3159
▁टक्कर	-10.316
▁मुक्ति	-10.3162
▁प्रावधान	-10.3163
▁स्किन	-10.3164
th	-10.3164
▁गेंदबाजी	-10.3167
▁कटौती	-10.3169
▁यावेळी	-10.3169
ांचे	-10.3174
अपनी	-10.3174
अन्य	-10.3177
▁छुट्टी	-10.3178
ुल	-10.3179
▁मिश्र	-10.3183
▁प्रतिदिन	-10.3184
▁वार्षिक	-10.3184
▁पापा	-10.3185
ंब	-10.3193
▁भूख	-10.3198
शिक्षा	-10.3202
▁विधेयक	-10.3211
्यु	-10.3212
▁मृत	-10.3213
▁संसार	-10.3213
▁तीसरा	-10.3214
▁डालने	-10.3214
सि	-10.3216
▁दृष्टिकोण	-10.3217
▁चक्कर	-10.322
▁सर्च	-10.3225
16	-10.3225
▁निम्नलिखित	-10.3229
▁सम्बन्ध	-10.3229
मल	-10.323
▁योग्यता	-10.3232
▁प्राप्ति	-10.3234
▁जोड़ने	-10.3234
वाली	-10.3235
▁हॉट	-10.3238
▁पोल	-10.3261
▁इलाहाबाद	-10.3265
▁शिखर	-10.3266
▁दीपिका	-10.3268
▁धान	-10.3273
▁जयंती	-10.328
32	-10.3282
▁W	-10.3283
▁अनुकूल	-10.3284
पूर्व	-10.3287
▁रत्न	-10.3293
▁अमरीका	-10.3294
▁42	-10.3295
▁मांगी	-10.3297
▁बहु	-10.3299
▁सैनिकों	-10.33
▁सैनिक	-10.3302
▁55	-10.3304
▁परिस्थितियों	-10.3305
▁सिर्फ़	-10.3306
ट्स	-10.331
राष्ट्रीय	-10.331
▁बीमार	-10.3317
▁सर्वोच्च	-10.3332
तु	-10.3333
टन	-10.334
▁जीते	-10.334
▁आंकड़ा	-10.3347
▁सैकड़ों	-10.3355
‍ि	-10.3357
जीत	-10.3364
▁पीड़िता	-10.337
▁मुलायम	-10.337
70	-10.3378
▁आरोपों	-10.338
▁पंच	-10.3385
▁चा	-10.339
▁बाग	-10.3395
▁शेयरों	-10.3398
▁सूचकांक	-10.3399
▁पार्टियों	-10.3399
▁नाव	-10.34
▁यूरोप	-10.3404
▁परि	-10.3409
▁ख़बर	-10.3409
▁चुदाई	-10.3413
▁विद्या	-10.3416
▁Google	-10.3417
▁इत्यादि	-10.3421
▁निपटने	-10.3423
▁भोजपुरी	-10.3425
▁·	-10.3426
▁वाराणसी	-10.3429
▁विद्यार्थी	-10.3432
▁व्यापारी	-10.3435
▁झूठ	-10.3441
लर	-10.3446
जैसे	-10.3448
▁कमल	-10.3452
▁केंद्रित	-10.3456
▁द्वितीय	-10.3457
▁हस्ताक्षर	-10.3458
▁दस्तावेज	-10.3465
ेंस	-10.3465
▁समझौता	-10.3468
लिंग	-10.3469
▁अतिथि	-10.347
▁संसाधन	-10.3472
▁उक्त	-10.3474
▁फैला	-10.348
▁फायदेमंद	-10.348
▁फर्जी	-10.3481
▁जंग	-10.3484
ीन	-10.3485
28	-10.349
▁मनीष	-10.3491
टेक	-10.3496
▁३	-10.3498
*	-10.3505
एफ	-10.3507
▁जलवायु	-10.3512
ल्या	-10.3516
▁विनोद	-10.3516
▁आतंकियों	-10.3522
▁रमेश	-10.3527
▁जाओ	-10.3528
▁संस्कृत	-10.3533
▁बहुमत	-10.3534
▁भट्ट	-10.3542
▁बेस्ट	-10.3542
▁जियो	-10.3547
▁अतः	-10.3548
▁ख़िलाफ़	-10.3551
▁परमेश्वर	-10.3553
▁आएगी	-10.3561
▁ओलंपिक	-10.3568
▁व्यक्तित्व	-10.357
▁प्रकाशन	-10.3574
▁हार्दिक	-10.3576
▁निवास	-10.3578
▁टाइम्स	-10.3583
▁सुर	-10.3585
▁श्रम	-10.3589
▁एक्शन	-10.3589
▁समझौते	-10.3591
नाम	-10.3593
▁ऊंचाई	-10.3593
▁निफ्टी	-10.3598
िड	-10.3598
90	-10.3599
▁अस्तित्व	-10.3616
वीडियो	-10.3617
▁शिविर	-10.3618
▁प्रतिनिधित्व	-10.3626
▁संसदीय	-10.3631
▁करण	-10.3633
▁बेच	-10.3634
ंत	-10.3634
शि	-10.3642
▁कलर	-10.3644
▁उत्सव	-10.3646
▁रिश्ता	-10.3646
▁समझते	-10.3652
▁लंबा	-10.366
▁समस्त	-10.3662
▁दिखने	-10.3668
▁अकड़	-10.3668
22	-10.3669
▁फाइल	-10.3669
▁नोटबंदी	-10.3675
▁ठाकरे	-10.3676
▁हनुमान	-10.3677
▁बनना	-10.3678
▁पोस्टर	-10.3678
▁आग्रह	-10.3681
▁टीमों	-10.3681
▁डालें	-10.3683
जल	-10.3685
▁पाउडर	-10.3686
▁कार्तिक	-10.3687
▁निरीक्षण	-10.3687
99	-10.3692
▁कहे	-10.3694
▁फिट	-10.3695
लि	-10.3708
27	-10.3714
▁महंगाई	-10.3723
▁श्रीवास्तव	-10.3728
▁मास्टर	-10.3729
▁यूट्यूब	-10.3731
▁दुर्गा	-10.3736
▁चुन	-10.3737
▁पवन	-10.3737
▁चि	-10.374
▁निशान	-10.3744
▁सवालों	-10.3745
▁अजीब	-10.3745
▁बैग	-10.3747
▁काफ़ी	-10.3759
▁मारपीट	-10.3759
Home	-10.3771
मेरे	-10.3772
▁संपूर्ण	-10.3774
▁₹	-10.3776
▁फॉर	-10.3778
▁जाया	-10.3784
यर	-10.3787
▁इंटर	-10.3789
वाई	-10.3797
लिया	-10.3801
▁प्लास्टिक	-10.3801
▁चेयरमैन	-10.3801
▁सदी	-10.3804
▁जाम	-10.3809
▁दिसम्बर	-10.3811
▁दिनेश	-10.3818
लू	-10.3823
▁नाटक	-10.3824
▁अपेक्षा	-10.3826
▁विषयों	-10.383
लैंड	-10.3837
पुरा	-10.3846
▁जबरदस्त	-10.3847
▁बोलते	-10.3847
▁आकर्षक	-10.3854
▁आगरा	-10.3855
ळे	-10.3861
▁चमक	-10.3862
ज़ा	-10.3867
▁उठाए	-10.3869
▁स्टाइल	-10.3873
▁ब्राह्मण	-10.3873
▁लिंग	-10.3878
▁लाइट	-10.3878
▁चार्ज	-10.3881
▁अभिषेक	-10.3884
am	-10.3885
▁फीचर	-10.3885
▁बनाएं	-10.3885
▁मह	-10.3889
▁अनुवाद	-10.3895
▁लाइसेंस	-10.3903
▁अव	-10.3903
▁हिट	-10.3906
▁जड़	-10.3909
▁प्रतिभा	-10.391
▁उपयुक्त	-10.3913
▁गर्व	-10.3915
▁हुईं	-10.3916
▁नवीनतम	-10.392
▁उन्हीं	-10.3921
▁पांडे	-10.3923
▁उर्फ	-10.3924
▁हट	-10.3927
▁आजाद	-10.393
O	-10.3937
▁दिलाने	-10.3938
▁मजदूर	-10.3949
▁स्वच्छ	-10.3949
▁आकाश	-10.3953
▁हेल्थ	-10.3956
ri	-10.3959
’’	-10.3962
▁कंपनियां	-10.3963
▁रुपया	-10.3966
▁अत्यधिक	-10.3966
▁कार्यक्रमों	-10.3971
▁सूरज	-10.3973
▁गौर	-10.3974
हु	-10.3975
▁बतौर	-10.3976
▁अत्यंत	-10.3977
▁साढ़े	-10.398
▁बुनियादी	-10.3981
▁उड़ान	-10.3986
▁दिवसीय	-10.3986
▁रखती	-10.3989
.7	-10.3991
ोस	-10.3991
▁क्रिया	-10.3991
बहुत	-10.3993
▁निकला	-10.3993
▁खिताब	-10.3994
ल्ड	-10.3994
▁विद्यार्थियों	-10.3998
31	-10.4005
लोक	-10.4008
▁देखता	-10.4012
▁उपन्यास	-10.4014
▁ण	-10.4015
▁दिले	-10.4016
पति	-10.4019
▁मृतक	-10.4031
▁होणार	-10.4033
ांचा	-10.4034
▁ग्रीन	-10.4036
▁अन्दर	-10.4039
▁रांची	-10.4043
23	-10.4044
▁क्रांति	-10.4046
▁जितने	-10.4046
किसी	-10.405
▁ऑप्शन	-10.4051
▁150	-10.4053
▁आमंत्रित	-10.4056
▁राजकीय	-10.406
टू	-10.4065
▁हक	-10.4068
▁प्रोटीन	-10.4073
▁ऑ	-10.4076
▁मलिक	-10.4076
भाव	-10.4087
▁मिर्च	-10.4088
▁सच्चाई	-10.4089
▁प्रतिमा	-10.41
▁.2.	-10.41
▁मंडी	-10.4102
▁प्लेटफॉर्म	-10.4103
▁जायेंगे	-10.4108
▁65	-10.4112
▁Status	-10.4113
▁*.	-10.4114
▁कार्यरत	-10.4114
िनी	-10.4117
▁हरी	-10.4117
▁ख्याल	-10.4117
▁ऑफर	-10.412
▁नागरिकता	-10.4121
▁पेशकश	-10.4121
''	-10.4121
▁2000	-10.4121
म्प	-10.4123
▁गहरा	-10.4123
▁आँखों	-10.4125
▁येत	-10.4125
▁दोष	-10.4126
▁संपन्न	-10.4127
▁भेजने	-10.4129
▁संतृप्ति	-10.413
▁ब्लड	-10.4132
कों	-10.4132
▁मुकेश	-10.4132
▁पसंदीदा	-10.4147
▁साइड	-10.4148
▁गेंदों	-10.4148
▁प्रभु	-10.4156
▁राजकुमार	-10.4162
▁बाबू	-10.4164
राजनीति	-10.4168
ाल	-10.417
फी	-10.4172
▁देशभर	-10.4174
▁त्योहार	-10.418
▁चंद	-10.4188
▁लॉ	-10.4188
▁सुभाष	-10.4192
▁बेल	-10.4193
▁ज़मीन	-10.4193
▁एकता	-10.4194
▁आयी	-10.4198
▁मैन	-10.4199
▁मनाने	-10.42
▁हालाँकि	-10.42
▁हल्कापन	-10.4204
▁माफी	-10.4207
▁संभावित	-10.4207
▁RGB	-10.4211
▁धारण	-10.4213
▁स्थायी	-10.4215
▁स्वभाव	-10.4216
▁बढ़ाया	-10.4217
▁यूजर	-10.4223
▁फीस	-10.4231
▁प्रशासनिक	-10.4232
▁साजिश	-10.4236
▁अक्तूबर	-10.4244
▁मोड़	-10.4245
▁इंजीनियरिंग	-10.4245
▁ऑक्सीजन	-10.4246
▁गुस्सा	-10.4255
▁दैर्ध्य	-10.4257
▁HSL	-10.4258
▁चलाया	-10.426
डेसीमल	-10.4265
▁क्रिकेटर	-10.4268
▁सुनें	-10.427
▁हैक्सा	-10.4272
▁होली	-10.4274
▁प्रकरण	-10.4274
्ट	-10.4276
▁अमीर	-10.4282
▁फैल	-10.4288
▁जुड़	-10.4293
▁ट्रेलर	-10.4295
▁भाग्य	-10.4296
▁चूंकि	-10.4297
▁ड्राइवर	-10.4298
ol	-10.4299
▁ढेर	-10.4301
ऊ	-10.4302
ंना	-10.4302
▁पारंपरिक	-10.4303
▁कानूनों	-10.4305
▁फांसी	-10.4306
▁सीनियर	-10.4308
▁डेढ़	-10.4309
▁.“	-10.4312
▁स्नान	-10.4312
▁राजपूत	-10.4314
▁दत्त	-10.4321
िय	-10.4326
▁सकी	-10.4329
▁पंजीकरण	-10.4331
▁समक्ष	-10.4333
▁ऑल	-10.4334
▁आमिर	-10.4337
80	-10.4341
▁उल्लेखनीय	-10.4341
▁वाजपेयी	-10.4343
▁मिस	-10.4345
34	-10.4346
▁बिहारी	-10.4346
▁मास्क	-10.4348
▁डॉक्टरों	-10.4354
▁बचे	-10.4355
ur	-10.4357
आपको	-10.436
▁X	-10.4361
▁महल	-10.4363
▁हिंदुस्तान	-10.4367
▁तुम्हारी	-10.4369
▁गुप्त	-10.4369
▁पकड़ा	-10.437
▁तार	-10.4374
51	-10.4378
धर	-10.438
▁केन्द्रीय	-10.438
▁मरने	-10.4385
▁सरकारों	-10.439
▁बॉडी	-10.4396
▁किरण	-10.4399
▁44	-10.44
िटी	-10.4401
▁गरम	-10.4404
14	-10.4414
▁नकारात्मक	-10.4418
▁गणना	-10.4418
▁सपोर्ट	-10.4419
▁घोटाले	-10.442
▁मल	-10.4423
ाबाद	-10.4426
▁वस्तुओं	-10.4449
v	-10.4449
कम	-10.4453
▁बनती	-10.4455
▁खेलते	-10.4456
▁हमे	-10.4462
▁पार्टनर	-10.4462
▁अभि	-10.4462
▁ज़	-10.4463
▁फॉलो	-10.4464
▁कार्यकारी	-10.4468
▁आतंकवादी	-10.447
▁मजा	-10.4473
हरा	-10.4477
▁रफ्तार	-10.4479
▁39	-10.4482
▁डो	-10.4483
▁देहरादून	-10.4487
▁पूजन	-10.4488
▁मछली	-10.449
▁भावनाओं	-10.449
▁जायेगी	-10.4493
▁अभाव	-10.4497
▁भय	-10.4499
▁फैशन	-10.45
▁करवाने	-10.4504
▁छात्रा	-10.4504
▁प्राधिकरण	-10.4504
▁धवन	-10.4513
▁रोशनी	-10.4516
▁आपदा	-10.4516
▁चु	-10.452
▁त्रिपाठी	-10.452
▁शेख	-10.4522
▁2007	-10.4527
▁कमाल	-10.4527
▁मानक	-10.4531
▁पाना	-10.4531
▁मासिक	-10.4532
36	-10.4536
▁फेंक	-10.4539
▁अदा	-10.454
▁सिम	-10.4542
▁प्ले	-10.4548
▁उपभोक्ता	-10.4551
सबसे	-10.4553
▁कमर	-10.4558
▁मिलना	-10.456
▁तरीकों	-10.4563
▁सामूहिक	-10.4566
ल्स	-10.4567
17	-10.4568
▁दोस्ती	-10.4568
▁सदर	-10.4576
गन	-10.4579
▁विवेक	-10.4582
▁पब्लिक	-10.4588
▁प्राथमिकता	-10.459
▁पौधे	-10.4591
▁47	-10.4594
▁गहरी	-10.4595
समय	-10.4596
▁आपस	-10.4598
▁बचत	-10.46
▁हरि	-10.4604
▁41	-10.4611
▁भेजे	-10.4611
▁सरदार	-10.4612
▁करोड़ों	-10.4617
▁आशीर्वाद	-10.4619
▁कृति	-10.4621
▁पैरों	-10.4623
▁इन्होंने	-10.4626
गल	-10.4627
▁फर्क	-10.4633
▁रिलायंस	-10.4633
▁शर्त	-10.4634
▁रेडियो	-10.4634
▁आश्रम	-10.4635
▁दीवार	-10.4636
▁more	-10.4639
▁सर्वेक्षण	-10.4639
09	-10.4647
▁शोषण	-10.4647
:-	-10.4648
▁मैसेज	-10.4654
अपना	-10.4658
शे	-10.4662
▁सालाना	-10.467
ेन्द्र	-10.4671
▁शुरूआत	-10.4673
▁आयात	-10.4674
ंगी	-10.468
▁चुने	-10.4683
▁शुक्ला	-10.4686
▁सदस्यता	-10.469
▁कंगना	-10.4699
33	-10.4702
▁संस्थापक	-10.4706
▁दिक्कत	-10.4709
▁सिख	-10.4712
मर	-10.4713
▁कृपा	-10.4719
नर	-10.4721
▁खंड	-10.4724
▁व्यावसायिक	-10.4726
▁O	-10.4726
ाया	-10.4729
▁वाढ	-10.4731
▁ज़रूर	-10.4732
▁दाल	-10.4733
▁सबूत	-10.4737
▁तत्वों	-10.4738
▁पारित	-10.474
▁अधिकारों	-10.4748
▁भिन्न	-10.4749
▁प्लांट	-10.4751
ंडी	-10.4756
-3	-10.4757
▁व्यस्त	-10.476
▁स्टाफ	-10.4763
▁ऑन	-10.4764
ळा	-10.4771
▁येणार	-10.4773
▁निरंतर	-10.4775
▁49	-10.4775
▁महेंद्र	-10.479
▁मोटर	-10.4805
▁10.	-10.4808
्त	-10.4811
ॉ	-10.4814
▁भाषाओं	-10.4817
▁चढ़	-10.4822
▁टीका	-10.4823
▁चे	-10.4824
चि	-10.4828
▁हंगामा	-10.4829
▁अज्ञात	-10.4829
▁टिप्स	-10.4834
▁श्रीमती	-10.4835
▁द्वार	-10.4839
▁सकेगा	-10.4842
▁म्हणाले	-10.4842
=	-10.4853
▁सहमत	-10.4855
▁भक्त	-10.4856
मि	-10.4857
बो	-10.4863
▁तस्वीरों	-10.4864
▁नामांकन	-10.487
▁निभा	-10.4874
▁आंतरिक	-10.4874
▁यूरोपीय	-10.4874
पि	-10.4875
▁ऋषि	-10.4881
▁ढ	-10.4881
▁आर्यन	-10.4885
निक	-10.4888
▁धूप	-10.4892
▁समर्थक	-10.4892
▁कं	-10.4893
▁इशारा	-10.4901
▁सितम्बर	-10.4903
▁टेक	-10.4904
▁ट्रेनिंग	-10.4904
▁बिंदु	-10.4905
जू	-10.4908
▁मंत्रियों	-10.491
ातून	-10.4912
▁महाविद्यालय	-10.4919
▁यूनियन	-10.4921
es	-10.4928
ज़ी	-10.4939
▁गेल्या	-10.4948
▁त्यांच्या	-10.4948
▁कालेज	-10.495
47	-10.4952
at	-10.4953
▁देण्यात	-10.4954
▁लड़का	-10.4956
▁मिश्रण	-10.4963
▁पदाधिकारी	-10.4969
▁सार	-10.497
▁जीवित	-10.4972
▁64	-10.4974
▁संस्थानों	-10.4976
▁म्हणून	-10.4976
37	-10.4979
▁एड	-10.4981
48	-10.4989
▁प्रयासों	-10.5003
रण	-10.5003
▁मच	-10.5008
▁चोर	-10.5013
▁निकट	-10.502
्‍स	-10.5024
▁मागणी	-10.5027
▁52	-10.5028
▁जेटली	-10.5032
ियर	-10.5032
▁घटकर	-10.504
45	-10.5043
▁आधी	-10.5049
यी	-10.5055
▁46	-10.5067
▁त्यांना	-10.5067
▁घूमने	-10.5067
अर	-10.5069
▁स्थिर	-10.5071
01	-10.5079
▁सलाहकार	-10.508
▁डेट	-10.5091
▁बैंकिंग	-10.5092
▁लायक	-10.5104
▁ठोस	-10.5106
त्र	-10.5108
▁आधे	-10.5114
▁नृत्य	-10.5116
▁लेवल	-10.5118
▁मजदूरों	-10.5127
▁ट्रस्ट	-10.5133
▁कलाकारों	-10.5136
▁पाँच	-10.5139
ख़बर	-10.5139
13	-10.5143
▁गोपाल	-10.5144
38	-10.5147
▁कर्मियों	-10.5152
▁अशा	-10.5154
िता	-10.5155
▁इन्हीं	-10.5155
▁असल्याने	-10.5166
शील	-10.5172
▁खैर	-10.5172
▁जाँच	-10.5174
▁हिम्मत	-10.5174
▁फुट	-10.5181
▁51	-10.5181
▁43	-10.5186
▁चलेगा	-10.5193
▁बताए	-10.5194
▁इसने	-10.5198
▁घट	-10.5202
▁नाथ	-10.5205
▁उपकरणों	-10.5207
▁पॉजिटिव	-10.5209
▁टाइप	-10.5209
▁धो	-10.5215
▁लिखते	-10.5221
ra	-10.5228
▁त्याग	-10.5232
▁मुँह	-10.5232
▁महोत्सव	-10.5239
el	-10.5239
▁आइ	-10.5241
बि	-10.5242
▁वीं	-10.5264
▁सोचते	-10.5267
▁गंभीरता	-10.5267
मुख्यमंत्री	-10.5269
योग	-10.5269
्री	-10.527
▁संरचना	-10.527
▁गीता	-10.5271
कर्ता	-10.5272
वास	-10.5273
▁लीजिए	-10.5277
▁पर्वत	-10.5278
र्न	-10.5278
▁राष्ट्रवादी	-10.5288
▁दलितों	-10.5295
▁चाह	-10.5296
▁चांदी	-10.5297
कै	-10.5297
▁मुठभेड़	-10.53
▁श्रद्धा	-10.5301
तीन	-10.5303
▁पड़ोसी	-10.5303
▁कामकाज	-10.5304
▁गाँधी	-10.5305
▁विचारधारा	-10.5307
▁आचार्य	-10.5315
▁पारिवारिक	-10.5319
▁जानवरों	-10.532
▁यकीन	-10.532
▁जॉन	-10.5322
▁पाक	-10.5324
▁.3.	-10.5328
z	-10.5329
▁प्रारंभिक	-10.5332
▁प्रशांत	-10.5332
▁जिलाधिकारी	-10.5334
▁सतह	-10.5338
▁72	-10.5339
▁साथियों	-10.5352
▁संदीप	-10.5355
▁11.	-10.5357
▁नाक	-10.536
▁उपयोगकर्ता	-10.5362
▁रोका	-10.5363
▁मैने	-10.5364
म्ब	-10.5364
▁शिशु	-10.5364
▁विक्रम	-10.5368
▁पुन	-10.5372
फल	-10.538
▁आईं	-10.538
▁समस्याएं	-10.5381
▁ब्रेक	-10.5381
▁काँग्रेस	-10.5382
ंची	-10.5383
▁घूम	-10.5387
.“	-10.5395
मार	-10.5395
▁एहसास	-10.5398
▁बैक	-10.5398
▁अर	-10.5408
le	-10.5409
▁अपर	-10.5423
▁देरी	-10.5426
रस	-10.543
▁करत	-10.5431
▁1000	-10.5432
▁बु	-10.5432
▁अनुरूप	-10.5435
▁गुजर	-10.5435
▁भव्य	-10.5438
▁मानें	-10.5439
▁झील	-10.5439
‘	-10.5441
▁समझना	-10.5445
याँ	-10.5446
श्	-10.545
▁पैक	-10.5452
▁स्पीड	-10.5455
▁मानने	-10.546
धन	-10.546
▁लापरवाही	-10.5461
re	-10.5462
X	-10.5462
▁इंजीनियर	-10.5465
▁प्री	-10.547
▁चलिए	-10.5471
ळी	-10.5475
▁सिद्धार्थ	-10.5483
▁तालिबान	-10.5501
▁बाप	-10.5504
▁ज्योतिष	-10.5504
स्थ	-10.5504
▁गिरा	-10.5505
▁फिल्‍म	-10.5509
पल	-10.5511
▁भक्ति	-10.5514
39	-10.5514
निया	-10.5516
दिन	-10.5517
▁जाधव	-10.552
▁जागरूकता	-10.5521
▁function	-10.5524
▁फार्म	-10.5526
▁f	-10.5526
▁उड़	-10.5533
▁ओम	-10.5534
▁हुसैन	-10.5541
▁पृष्ठभूमि	-10.5541
id	-10.5541
▁गत	-10.5544
न्त	-10.5545
▁अफसर	-10.5547
▁देवता	-10.555
▁जिम	-10.5554
▁तेरे	-10.5558
▁जीने	-10.556
▁प्लस	-10.5563
एक्स	-10.5573
▁शनि	-10.5575
धा	-10.5583
▁जोरदार	-10.5584
सम	-10.559
▁कमाने	-10.559
▁प्रसन्न	-10.5592
▁इच्छुक	-10.5593
था	-10.5596
▁ऊ	-10.5603
जीवन	-10.5604
▁लीक	-10.5607
▁आकर्षण	-10.561
▁अंश	-10.5612
▁कृष्णा	-10.5615
▁अनुसूचित	-10.5616
▁हॉस्पिटल	-10.5619
माल	-10.5619
▁लगाएं	-10.5622
▁जोड़े	-10.5623
्‍या	-10.5626
▁भूकंप	-10.5626
दीप	-10.5632
▁कहकर	-10.5632
▁कारवाई	-10.5635
लिन	-10.5639
्व	-10.5641
▁सऊदी	-10.5644
▁अवतार	-10.5649
▁पाती	-10.5653
▁लघु	-10.5655
▁मास	-10.5656
▁पोषण	-10.5658
▁उपचुनाव	-10.566
▁शक्तिशाली	-10.566
▁अपलोड	-10.5661
▁चंडीगढ़	-10.5662
▁दरवाजे	-10.5668
▁पदार्थों	-10.5688
▁दरम्यान	-10.5688
प्रधानमंत्री	-10.569
▁भौतिक	-10.5693
▁सौंप	-10.5695
▁साधन	-10.5699
▁उतनी	-10.57
▁सोचने	-10.5701
बड़े	-10.5707
▁ज्ञात	-10.5707
▁खेली	-10.5708
▁मैक	-10.571
55	-10.571
▁नतीजे	-10.5715
▁अलर्ट	-10.5716
▁जरुरी	-10.5716
▁जरा	-10.5721
्वा	-10.5722
▁कन्या	-10.5728
▁पूछ	-10.5733
रात	-10.5733
▁शीर्षक	-10.5735
॰	-10.5736
▁मुखिया	-10.5737
ठा	-10.5739
▁भेजें	-10.574
▁लड़कियां	-10.5743
▁राजेंद्र	-10.5749
▁लकड़ी	-10.575
▁महेश	-10.5754
तम	-10.5755
▁असलेल्या	-10.5757
पद	-10.576
▁स्वर	-10.5761
▁फुटबॉल	-10.5762
▁आश्चर्य	-10.5769
▁प्रत्यक्ष	-10.5771
▁सीखने	-10.5774
▁ख़त्म	-10.5777
न्	-10.5779
▁हवाले	-10.5783
▁छा	-10.5785
▁पायलट	-10.5785
▁एंट्री	-10.5791
▁ड्यूटी	-10.5795
▁पथ	-10.5802
▁संदेह	-10.5814
▁अत	-10.5823
▁प्याज	-10.5823
▁वंचित	-10.5824
▁अल्लाह	-10.5827
मेल	-10.5828
हू	-10.5835
▁गरीबों	-10.584
▁नर	-10.5845
▁??	-10.5845
▁रूपए	-10.5845
▁विशेषज्ञों	-10.5852
ad	-10.5854
▁खींच	-10.5854
02	-10.5857
▁अंडर	-10.5866
49	-10.5867
ंध	-10.5868
▁सीईओ	-10.5875
ण्यासाठी	-10.5875
▁घड़ी	-10.5877
▁मात	-10.5882
▁बिन	-10.5882
▁चुप	-10.5883
▁पुनः	-10.5886
▁जरुरत	-10.5888
▁मीटिंग	-10.5894
▁मकसद	-10.5898
▁प्रांत	-10.59
▁पीछा	-10.59
2.	-10.59
▁मनमोहन	-10.5901
▁रोजी	-10.5902
▁वारदात	-10.5914
▁उन्होने	-10.5914
▁मनोहर	-10.5915
▁वैज्ञानिकों	-10.5921
▁आस्था	-10.5926
▁बहादुर	-10.5929
पंजाब	-10.5933
▁हमसे	-10.5935
்	-10.5936
▁निरीक्षक	-10.5937
▁मुखर्जी	-10.594
उस	-10.594
>	-10.5943
▁स्टील	-10.5943
▁निकली	-10.5943
▁हीरो	-10.5947
▁मेले	-10.5948
06	-10.5961
▁पहाड़	-10.5969
▁[	-10.5969
उत्तराखंड	-10.5971
लेट	-10.5973
▁शास्त्री	-10.5977
▁आसमान	-10.5979
▁नीतियों	-10.598
▁छाया	-10.5981
▁प्रतिष्ठित	-10.5982
et	-10.5983
कडून	-10.5984
▁’’	-10.5984
१	-10.5991
▁बताती	-10.5996
▁दर्जा	-10.6004
▁कमेंट	-10.6005
बु	-10.6009
▁वाई	-10.6009
000	-10.6011
▁साक्षात्कार	-10.6018
काम	-10.6025
44	-10.6027
▁गोद	-10.6027
▁संचालक	-10.6037
▁मुख	-10.6038
कोई	-10.6038
▁56	-10.6039
42	-10.604
▁जागरण	-10.6044
▁भु	-10.6049
▁रिटर्न	-10.605
▁400	-10.607
▁बैठकर	-10.6073
▁इमारत	-10.6085
▁बुद्ध	-10.6087
मिल	-10.6088
रत	-10.6089
03	-10.6089
▁मजबूती	-10.6091
▁अखिल	-10.6095
▁मैनेजर	-10.6095
र्ड	-10.6097
▁पैनल	-10.6099
07	-10.6106
▁किंतु	-10.6106
▁ख़ुद	-10.6114
▁कच्चे	-10.6116
▁मुहूर्त	-10.6119
▁हड़ताल	-10.612
▁a	-10.612
▁गर्भवती	-10.6121
▁छुटकारा	-10.6121
▁मोह	-10.6122
▁स्वच्छता	-10.6122
▁फ्रंट	-10.6122
▁प्रशंसा	-10.6124
J	-10.6125
GB	-10.6132
▁साइकिल	-10.6141
चुनाव	-10.6143
हीन	-10.6147
▁बेड	-10.6147
▁ज़िले	-10.6149
जवाब	-10.6152
ांग	-10.6154
▁शोर	-10.616
▁इलेक्ट्रिक	-10.617
▁गरीबी	-10.6172
▁चिकित्सक	-10.6172
्म	-10.6177
कांग्रेस	-10.6181
▁परियोजनाओं	-10.6184
▁संतान	-10.6184
Y	-10.6186
56	-10.6186
▁जाएंगी	-10.6195
▁नशे	-10.6202
▁रोटी	-10.6204
▁पांडेय	-10.6209
कई	-10.621
▁करेंगी	-10.6213
▁तेजस्वी	-10.6216
▁अकादमी	-10.6216
▁मार्क	-10.6217
▁डिज़ाइन	-10.6219
52	-10.6221
▁गणित	-10.6229
मेरी	-10.6229
▁हादसा	-10.623
▁सब्जी	-10.6233
43	-10.6234
▁पहन	-10.6236
▁अस्पतालों	-10.6245
▁J	-10.6247
ंनी	-10.6251
▁बलों	-10.6256
▁पहने	-10.6257
▁साझेदारी	-10.6259
▁कैद	-10.6267
मै	-10.6268
तून	-10.6269
▁द्वीप	-10.6272
▁हॉल	-10.6287
▁p	-10.6289
हाल	-10.6293
ाय	-10.6294
मुख्य	-10.6297
75	-10.6299
हल	-10.6303
▁सेटिंग्स	-10.6303
▁प्रसार	-10.6304
▁निर्देशन	-10.6306
▁हिस्सेदारी	-10.6313
ुन	-10.6313
▁ब्लू	-10.6317
▁सांसदों	-10.6317
▁संभाल	-10.6318
▁बढ़िया	-10.6323
▁सोनी	-10.6327
▁यूं	-10.6334
ढ़	-10.6338
▁श्याम	-10.6339
▁आरंभ	-10.634
▁दुष्कर्म	-10.634
▁मेकअप	-10.6343
▁स्प	-10.6344
▁बनते	-10.6346
▁शेट्टी	-10.6351
▁गिरने	-10.6351
▁काटने	-10.6356
▁ड्रेस	-10.6357
▁दीपावली	-10.6359
▁भगत	-10.6368
▁सू	-10.6378
▁जूनियर	-10.6378
▁प्रिंट	-10.638
▁अपराधियों	-10.638
▁अन्ना	-10.638
▁शून्य	-10.6381
▁फीट	-10.6384
▁c	-10.6385
▁रूट	-10.6389
▁वेस्टइंडीज	-10.6391
सभी	-10.6391
पुलिस	-10.6396
▁संदिग्ध	-10.6396
▁स्नातक	-10.6396
▁धाम	-10.6404
▁टेबल	-10.6406
▁जीबी	-10.6409
▁बौद्ध	-10.6409
पु	-10.6409
▁तालाब	-10.641
.9	-10.6412
▁महंगा	-10.6414
▁गौ	-10.6418
▁रूसी	-10.6422
▁सिद्धू	-10.6424
▁नायक	-10.6428
▁कहें	-10.6429
विदेश	-10.643
▁घेऊन	-10.6433
▁जॉब	-10.6435
▁तेरी	-10.644
▁आखिरकार	-10.6441
▁बरकरार	-10.6442
▁आमदार	-10.6444
दु	-10.6446
▁खोला	-10.6446
▁बर्बाद	-10.645
▁कारोबारी	-10.645
▁डाली	-10.6451
▁ज़िला	-10.6452
ल्ला	-10.6456
▁मस्तिष्क	-10.6457
▁प्रोडक्ट	-10.6461
▁एसिड	-10.6461
▁एशियाई	-10.6462
▁रिश्तों	-10.6466
▁तुलसी	-10.6466
▁ग्लोबल	-10.6467
▁गायक	-10.6468
▁आलू	-10.6469
▁छठ	-10.6473
▁खुली	-10.6476
▁छू	-10.648
▁पैन	-10.6482
स्वास्थ्य	-10.649
▁रहकर	-10.649
▁वरुण	-10.6493
▁निवेशकों	-10.6497
▁आदी	-10.6502
▁मेरठ	-10.6502
र्ज	-10.6506
▁पूंजी	-10.6507
▁सेंसर	-10.6509
▁कौर	-10.6513
▁कब्जे	-10.6514
▁उदय	-10.6515
▁हंस	-10.6522
▁सुविधाएं	-10.6523
▁अकबर	-10.6523
▁अनाज	-10.6525
▁साइन	-10.6529
▁मेला	-10.6529
▁बुखार	-10.653
▁त्यौहार	-10.6533
▁प्रवाह	-10.6533
▁ऑडियो	-10.6534
▁कॉपी	-10.6538
▁रोगी	-10.6539
▁पंकज	-10.6539
▁भागीदारी	-10.6541
▁सनी	-10.6543
▁जिसको	-10.6551
▁शिवाजी	-10.6552
▁ख़बरें	-10.6554
▁अपमान	-10.6554
▁डिस्प्ले	-10.6554
▁मराठी	-10.6557
मुळे	-10.6562
▁रोशन	-10.6562
▁सिंचाई	-10.6567
▁जुट	-10.6568
▁बादल	-10.6574
▁प्रसारण	-10.6576
्ल	-10.658
जि	-10.658
▁चरणों	-10.6583
▁सियासी	-10.659
46	-10.6592
शेयर	-10.6592
▁ज़िंदगी	-10.6593
▁दीदी	-10.6594
कू	-10.6595
▁मोर	-10.6603
जय	-10.6604
▁चौथी	-10.661
▁नीरज	-10.6613
▁पाठकों	-10.6613
▁ठंड	-10.6614
▁बताता	-10.6615
▁रजिस्ट्रेशन	-10.6615
▁किराए	-10.6624
▁पेशेवर	-10.6625
▁बिस्तर	-10.6626
▁जब्त	-10.6627
▁फूड	-10.6637
व्य	-10.6641
04	-10.6641
▁टे	-10.6643
1.	-10.6645
▁दिखता	-10.6645
▁आईसीसी	-10.6646
ly	-10.6647
▁हराया	-10.6649
▁प्रदीप	-10.665
▁दिलीप	-10.6653
▁दक्षिणी	-10.6653
▁संवेदनशील	-10.6654
▁बिक	-10.666
▁बैठी	-10.6661
प्रश्न	-10.6661
▁ऑयल	-10.6664
हालांकि	-10.6668
▁उच्चतम	-10.6671
▁लैपटॉप	-10.6673
▁मील	-10.6673
▁एपिसोड	-10.6675
है	-10.6679
ौर	-10.6679
▁वेरिएंट	-10.6682
▁रावण	-10.6685
▁आंख	-10.6691
▁जिंदा	-10.6691
▁बेस	-10.6693
▁उपहार	-10.6696
▁दवाओं	-10.6698
▁पाप	-10.6698
▁टेक्नोलॉजी	-10.6699
▁आरएसएस	-10.6699
गण	-10.6703
▁आईटी	-10.6707
▁}.	-10.6708
▁अनुपात	-10.6708
▁आलोक	-10.6711
▁बोझ	-10.6712
वै	-10.6715
58	-10.6721
▁डीएम	-10.6728
▁भार	-10.673
▁बढ़ाकर	-10.6748
▁दावे	-10.6749
▁साधना	-10.675
▁बनाती	-10.6751
▁मतदाता	-10.6752
▁यु	-10.6755
चंद	-10.6756
▁फायर	-10.6758
▁भारतीयों	-10.6766
▁अन्यथा	-10.6767
▁चैट	-10.6767
स्क	-10.6771
▁सेंट्रल	-10.6774
▁अस	-10.6774
▁शौक	-10.6776
▁अपराधी	-10.6781
र्ग	-10.6784
्यू	-10.6788
▁रिकार्ड	-10.6789
▁क़ानून	-10.679
▁निकाली	-10.6799
57	-10.6799
▁पहनने	-10.6802
▁दंड	-10.6803
अभी	-10.6806
▁सीरियल	-10.6807
भाग	-10.6812
▁कठोर	-10.6813
▁गोयल	-10.6813
▁कैप्टन	-10.6813
▁पश्चात	-10.6814
▁कबीर	-10.6814
▁युक्त	-10.6815
▁निचले	-10.6816
▁कोटी	-10.6818
▁हार्ट	-10.6819
▁थोड़े	-10.6819
▁तरफ़	-10.682
ुर	-10.682
▁सुन्दर	-10.6823
पर्यंत	-10.683
▁गारंटी	-10.6832
▁दादा	-10.6835
7.	-10.6837
च्छ	-10.6838
."	-10.6839
ार्थ	-10.6841
▁पाठ्यक्रम	-10.6842
िव	-10.6849
▁पलट	-10.6851
▁शिमला	-10.6856
▁हरे	-10.6858
▁एग्जाम	-10.686
जु	-10.6862
▁फा	-10.6862
.1.	-10.6862
▁गहराई	-10.6864
▁संहिता	-10.6866
▁घुस	-10.6866
स्टर	-10.6868
▁नाइट	-10.6871
प्पा	-10.6871
41	-10.6874
▁साम्राज्य	-10.6874
▁निधि	-10.6876
▁कैंप	-10.6876
▁रोज़	-10.6877
▁पंप	-10.688
▁धातु	-10.6882
▁सम्पूर्ण	-10.6886
▁अवार्ड	-10.6886
54	-10.6888
▁राजनैतिक	-10.6889
▁तु	-10.6894
▁बाजारों	-10.6896
▁बिल्ली	-10.6897
हां	-10.6898
▁बुजुर्ग	-10.69
08	-10.6901
जिन	-10.6904
st	-10.6904
▁व्याख्या	-10.6905
▁चपेट	-10.6908
▁पहाड़ी	-10.6909
▁देखो	-10.6913
▁मुहैया	-10.6913
▁by	-10.6914
▁राणा	-10.6921
▁साड़ी	-10.6922
▁लेट	-10.6926
▁निक	-10.6926
▁स्तरीय	-10.6927
▁नारे	-10.6932
▁झलक	-10.6934
▁दरवाजा	-10.6936
▁सर्जरी	-10.6939
▁कीमतें	-10.694
▁जहाज	-10.6942
▁हस्तक्षेप	-10.6943
▁विभाजन	-10.6945
ांक	-10.6946
▁सटीक	-10.6947
▁पोलिसांनी	-10.6947
▁12.	-10.6949
▁रेंज	-10.6949
▁समृद्ध	-10.6949
▁सिफारिश	-10.695
ानंद	-10.695
▁बदमाशों	-10.6958
▁कोतवाली	-10.6959
▁एचडी	-10.6959
यन	-10.696
▁अनुच्छेद	-10.6961
▁जग	-10.6962
▁श्रद्धांजलि	-10.6963
▁ट्रांसफर	-10.6963
▁भला	-10.697
▁सेकंड	-10.697
मीडिया	-10.6973
लाइन	-10.6983
▁सावधानी	-10.6983
गार	-10.6986
▁आईडी	-10.699
▁54	-10.6993
▁बताना	-10.6999
▁इतर	-10.7002
▁विवादित	-10.7003
र्थ	-10.7006
▁अब्दुल	-10.7013
▁फेस	-10.7013
▁गांड	-10.7014
▁शुक्ल	-10.7016
▁करीबी	-10.7023
फर	-10.7031
स्व	-10.7032
▁रात्रि	-10.7034
फ़ा	-10.7044
अधिक	-10.7045
▁नाबालिग	-10.7045
▁आर्य	-10.7046
▁".	-10.7046
▁डाले	-10.7047
▁माइक्रो	-10.7049
▁मित्रों	-10.7051
▁हल्का	-10.7051
▁शोक	-10.7055
▁खाद	-10.7058
▁तोड़ने	-10.7071
▁एफआईआर	-10.7075
ग्राम	-10.7075
▁ट्रेड	-10.7077
मंत्री	-10.7081
▁फाउंडेशन	-10.7082
▁तल	-10.709
▁पैकेज	-10.7099
डर	-10.71
आपके	-10.7102
▁मम्मी	-10.7103
▁जुर्माना	-10.7103
न्द	-10.7108
▁01	-10.7113
▁क्र	-10.7114
▁झालेल्या	-10.7116
▁गुर	-10.7118
▁साइंस	-10.712
▁विरासत	-10.7121
▁दायरे	-10.7123
▁चाहें	-10.7129
▁खुराक	-10.7133
▁समूहों	-10.7143
▁हसन	-10.7147
▁वंश	-10.7147
▁बुद्धि	-10.7148
▁तरी	-10.7148
na	-10.7149
▁कराना	-10.7149
▁निभाई	-10.7159
ैया	-10.716
स्प	-10.7164
▁विभागों	-10.7166
▁सेल्सियस	-10.7167
▁दबा	-10.717
▁दर्जन	-10.7172
▁फायरिंग	-10.7177
▁पाच	-10.7177
▁कनाडा	-10.7178
▁संस्थाओं	-10.7181
मेन	-10.7185
ूं	-10.7188
98	-10.719
en	-10.7192
▁अपहरण	-10.7194
▁जीतकर	-10.7197
▁आश्वासन	-10.72
6.	-10.7207
▁एटीएम	-10.7207
त्त	-10.7211
▁चैनलों	-10.7213
▁मद्देनजर	-10.7217
▁अंबानी	-10.7218
▁मेडल	-10.7218
▁शास्त्र	-10.7219
▁पण	-10.7223
▁रिकॉर्डिंग	-10.7228
▁चर्च	-10.7229
▁हल्के	-10.7229
▁काशी	-10.7231
67	-10.7234
▁आक्रमण	-10.7248
्ज़	-10.7248
▁रणवीर	-10.7251
▁दशकों	-10.7252
▁अहमदाबाद	-10.7253
▁Re	-10.7253
▁अनंत	-10.7254
▁जूझ	-10.7258
59	-10.7258
▁मामूली	-10.7259
▁ठंडा	-10.7261
▁प्रारूप	-10.7262
ॉन	-10.7265
▁एकत्र	-10.727
▁आपसी	-10.7273
▁शीघ्र	-10.7273
▁पुर	-10.7276
पूर्वक	-10.7279
▁फेल	-10.7281
▁लिहाज	-10.7282
▁भोग	-10.7282
▁खोजने	-10.7286
▁सुशील	-10.7288
▁रोचक	-10.729
▁पॉलिसी	-10.7292
▁भेंट	-10.7296
il	-10.7303
▁बोल्ड	-10.7305
ट्रेंडिंग	-10.7307
▁नाग	-10.7308
▁दिल्‍ली	-10.7308
▁पाएं	-10.7309
3.	-10.7312
▁जागरूक	-10.7313
▁रैंकिंग	-10.7314
▁किले	-10.7316
भी	-10.7319
▁लेन	-10.7319
▁उजागर	-10.7328
▁दुःख	-10.7328
▁डबल	-10.7332
मध्य	-10.7334
▁स्कीम	-10.7334
▁संतुष्ट	-10.7335
▁दुश्मन	-10.7337
▁प्रबंध	-10.7338
▁सम्बंधित	-10.7339
▁तमिल	-10.7342
▁जताया	-10.7344
▁इंडेक्स	-10.7344
▁गुरू	-10.7345
▁फंस	-10.7347
▁पीसी	-10.7349
बाग	-10.7352
ंडर	-10.7353
▁रिलीज़	-10.7353
▁दीप	-10.7359
टिंग	-10.7361
▁अनुदान	-10.7364
▁एका	-10.7366
▁सिलसिला	-10.7369
पाकिस्तान	-10.7372
▁स्वाभाविक	-10.7372
▁मजाक	-10.7373
▁निर्देशित	-10.7375
▁ॉ	-10.7378
▁मार्गदर्शन	-10.7378
▁लिखकर	-10.7378
▁फीसद	-10.7382
पूर	-10.7386
▁क्राइम	-10.7386
▁पै	-10.7393
▁सुनते	-10.7398
▁देनी	-10.7401
▁काव्य	-10.7401
▁पहुंचाया	-10.7401
धारी	-10.741
▁किस्म	-10.741
▁ड्राइव	-10.741
▁घी	-10.7413
▁2005	-10.7413
▁».	-10.7413
ब्र	-10.7417
us	-10.7417
▁शहद	-10.7419
▁हिल	-10.7422
▁समर्थकों	-10.7422
▁बज	-10.7422
▁दुबे	-10.7423
चरण	-10.7423
▁सेंट	-10.7429
▁नतीजा	-10.7433
▁रोगों	-10.7433
▁पैसों	-10.7435
▁दुबई	-10.7437
▁कम्पनी	-10.7438
▁मूल्यांकन	-10.7438
▁परिचित	-10.7442
▁.4.	-10.7444
▁राजनाथ	-10.7445
▁जानवर	-10.7447
▁गुलाब	-10.7457
8.	-10.7457
▁ध्वनि	-10.746
▁नजदीक	-10.7461
▁उत्तम	-10.7463
▁एनडीए	-10.7463
▁आदित्य	-10.7463
▁अनुबंध	-10.7469
▁पेन	-10.7471
▁प्रोत्साहित	-10.7472
ऐसे	-10.7473
पट	-10.7473
कला	-10.7477
▁पकड़े	-10.7477
▁सावधान	-10.7478
▁पकड़ने	-10.7481
▁मेहता	-10.7482
िक्स	-10.7487
▁Read	-10.7487
पत	-10.7488
▁कुलपति	-10.749
▁जश्न	-10.7491
ंगे	-10.7493
▁विस्फोट	-10.7495
▁बहाने	-10.7495
53	-10.7496
▁देह	-10.7498
▁दर्शक	-10.75
▁वैसा	-10.7501
▁ब्रा	-10.7501
▁उत्कृष्ट	-10.7501
▁सस्ता	-10.7503
ाम	-10.7508
▁कमीशन	-10.751
▁उमर	-10.751
ग्न	-10.7511
▁अधीन	-10.7514
▁इकट्ठा	-10.7514
▁मार्केटिंग	-10.7518
▁आर्ट	-10.7519
▁उत्पीड़न	-10.7521
▁वै	-10.7525
▁तेज़	-10.7531
राजस्थान	-10.7532
ोली	-10.7532
▁मैनेजमेंट	-10.7537
▁कुत्ते	-10.7546
▁बीत	-10.7547
▁दीजिए	-10.7549
▁मुझ	-10.7551
▁पंत	-10.7552
▁आशीष	-10.7554
▁त्यानंतर	-10.7556
▁मांस	-10.7556
▁अमृत	-10.7563
छत्तीसगढ़	-10.7566
▁रहस्य	-10.7566
▁58	-10.7568
▁विशेषता	-10.7569
▁लांच	-10.7571
▁शुभकामनाएं	-10.7579
कोट	-10.7581
▁ईंधन	-10.7582
▁भंडार	-10.7584
▁अमरीकी	-10.7588
▁चांद	-10.7588
▁घटनाएं	-10.7596
▁अभिव्यक्ति	-10.7598
▁आन्दोलन	-10.7599
▁आर्मी	-10.7599
5.	-10.76
भाजपा	-10.7607
इसी	-10.7608
▁प्रबंधक	-10.7609
▁बुला	-10.761
▁ब्रह्म	-10.761
▁सराहना	-10.7614
▁जानकर	-10.7615
▁पड़ेगी	-10.7617
▁मायने	-10.7621
▁टिक	-10.7622
हरियाणा	-10.7624
▁क्रीम	-10.7625
▁मंत्रिमंडल	-10.7626
▁नक्सलियों	-10.763
द्र	-10.7633
▁भेदभाव	-10.7635
▁संवाददाता	-10.7637
▁श्रीनगर	-10.7647
ro	-10.7649
▁गढ़	-10.7649
9.	-10.7651
▁2006	-10.7653
▁अधिसूचना	-10.7667
▁हवाला	-10.7667
▁बीबीसी	-10.7669
▁तेलंगाना	-10.767
▁शासक	-10.767
▁वेद	-10.7673
▁गाइड	-10.7674
▁ठिकाणी	-10.7683
▁प्रचलित	-10.7683
▁भास्कर	-10.7686
▁दाग	-10.7687
▁अधि	-10.7693
▁डिप्टी	-10.7694
▁राखी	-10.7697
ंदा	-10.7698
▁अंग्रेजों	-10.7698
▁पहलू	-10.7702
▁एकड़	-10.7706
▁संजीव	-10.7708
▁एक्टिव	-10.7709
▁रेटिंग	-10.7716
▁बीसीसीआई	-10.7717
▁राजद	-10.7722
▁हॉकी	-10.7723
▁पिटाई	-10.7729
j	-10.7729
▁53	-10.7733
ण्यात	-10.7742
ate	-10.7747
▁उर्दू	-10.7753
▁साधा	-10.7754
पासून	-10.7756
▁उपलब्धि	-10.7762
▁मानता	-10.7762
▁चन्द्र	-10.7766
▁जिनसे	-10.7766
▁प्राण	-10.7769
97	-10.7772
ांत	-10.7787
▁आयकर	-10.7788
▁सिंगल	-10.7789
▁दिखे	-10.779
▁व्यापारियों	-10.779
▁डाक	-10.7791
ण्याची	-10.7792
▁स्पेस	-10.7793
▁ट्रैफिक	-10.7798
.10	-10.78
▁दफ्तर	-10.7805
ऐ	-10.7805
▁दांव	-10.7806
▁पैदल	-10.7808
▁कुशल	-10.7809
▁इवेंट	-10.7809
▁जाएँ	-10.781
la	-10.781
▁एकल	-10.7815
पार	-10.7821
▁गढ़वाल	-10.7821
▁उपयोगकर्ताओं	-10.7822
तक	-10.7822
▁डाॅ	-10.7823
▁तुम्हारा	-10.7823
64	-10.7823
ेला	-10.7823
आउट	-10.7827
कॉम	-10.783
शो	-10.7831
ल्ट	-10.7835
▁शिंदे	-10.7835
वय	-10.7836
वेल	-10.7838
▁महादेव	-10.7838
उन	-10.7839
▁गार्ड	-10.784
ुद्दीन	-10.784
झा	-10.7845
ाइड	-10.7846
▁मानो	-10.7847
▁मंदिरों	-10.7851
▁शैक्षणिक	-10.7855
▁क्षण	-10.7855
▁दुकानों	-10.7856
ter	-10.7857
▁पढ़ते	-10.786
66	-10.7862
▁ऑर्डर	-10.7867
▁नारी	-10.7876
▁आत्मविश्वास	-10.7878
▁लिखना	-10.7884
▁सब्सिडी	-10.7886
▁प्रस्तावित	-10.7891
आय	-10.7891
▁निलंबित	-10.7893
▁फूलों	-10.7896
▁लौटने	-10.7899
4.	-10.7901
▁बैठने	-10.7904
स्‍ट	-10.7904
▁मासूम	-10.7914
▁सर्दी	-10.7915
▁बाधा	-10.7916
▁किस्मत	-10.7917
▁2004	-10.7918
ंच्या	-10.7918
▁निष्कर्ष	-10.7923
ाइज	-10.7923
▁शुभारंभ	-10.7925
▁उपाध्याय	-10.7928
▁अनुष्का	-10.7934
▁Hindi	-10.7936
▁टुकड़े	-10.7941
▁डेविड	-10.7942
महा	-10.7945
▁टो	-10.7947
▁pm	-10.7949
▁कराए	-10.7952
▁बालक	-10.7954
▁जरुर	-10.7955
▁आलम	-10.7956
▁व्यायाम	-10.7956
▁फीचर्स	-10.7956
यहां	-10.7957
ंचा	-10.7962
▁प्लेट	-10.7964
▁काबू	-10.7964
▁मारकर	-10.7964
▁बर्फ	-10.7966
▁परामर्श	-10.7969
▁जटिल	-10.7969
▁पर्यटक	-10.7972
▁गुस्से	-10.7974
▁आभार	-10.7974
▁बनेगा	-10.7974
▁वर	-10.7977
▁सदा	-10.798
बॉलीवुड	-10.798
▁स्क	-10.7981
▁दोनो	-10.7982
li	-10.7984
▁धरना	-10.7985
▁पौधों	-10.7986
▁यश	-10.799
▁कमान	-10.799
▁माध्यमिक	-10.7993
▁स्पोर्ट्स	-10.7995
ंगा	-10.7996
▁ओडिशा	-10.7997
▁पद्धति	-10.7998
बाल	-10.8
धी	-10.8005
बता	-10.8009
ांवर	-10.8009
▁अल्पसंख्यक	-10.8011
▁दिखाते	-10.8013
▁छोड़ा	-10.8014
▁चढ़ा	-10.8015
▁गठित	-10.8018
▁पूर्णिमा	-10.8019
▁त्रि	-10.8019
▁सुर्खियों	-10.8021
▁वरना	-10.8025
▁भूत	-10.8026
▁सूजन	-10.8027
▁वॉलपेपर	-10.8027
▁उठाते	-10.8036
▁दरबार	-10.8038
▁ढूंढ	-10.804
86	-10.804
▁पंजीकृत	-10.8041
▁युवकों	-10.8041
96	-10.8043
ि‍	-10.8044
▁ज्योति	-10.8046
▁तूफान	-10.805
▁मौजूदगी	-10.805
▁ज़िन्दगी	-10.8051
▁इसलिये	-10.8052
05	-10.8052
विन	-10.8054
ज्ञ	-10.8059
▁सास	-10.806
▁कैश	-10.8061
▁न्यूयॉर्क	-10.8064
76	-10.8065
ाऊ	-10.8069
▁दर्शाता	-10.807
▁इंस्टीट्यूट	-10.807
▁केंद्रों	-10.8072
ation	-10.8072
е	-10.8073
▁जेब	-10.8076
▁खनन	-10.8077
▁धोखा	-10.8081
▁पुनर्	-10.8088
ेर	-10.8093
यान	-10.8095
ौली	-10.8099
▁कामना	-10.8099
▁प्रीमियम	-10.8101
▁पेस्ट	-10.8104
▁सूरत	-10.8108
▁रॉय	-10.8108
▁विंडोज	-10.8111
▁समा	-10.8114
▁सबका	-10.8116
▁250	-10.8117
▁श्रीराम	-10.8122
▁पैटर्न	-10.8123
▁कलम	-10.8124
▁चूक	-10.8125
▁जला	-10.8125
▁कुर्सी	-10.8127
▁बंधन	-10.8128
▁रेस	-10.8128
▁Post	-10.813
▁भीषण	-10.8131
पुरी	-10.8136
ेक	-10.8144
ic	-10.8146
▁अग्नि	-10.8147
▁निंदा	-10.815
▁लड़कों	-10.8155
▁नाकाम	-10.8156
▁मतदाताओं	-10.8156
ज्ज	-10.8157
बाई	-10.8158
▁पोस्टमार्टम	-10.816
▁कक्ष	-10.8166
▁गेहूं	-10.8169
▁प्रखंड	-10.817
️	-10.817
▁57	-10.8171
▁स्टोरेज	-10.8172
▁जर्मन	-10.8172
▁शासकीय	-10.8174
वून	-10.8184
उप	-10.8188
▁ज्ञापन	-10.8192
ंडे	-10.8194
▁हानि	-10.8201
▁टीचर	-10.8206
ers	-10.8207
▁ईसाई	-10.8207
▁लक्ष्मण	-10.821
w	-10.8212
▁डील	-10.8214
कैसे	-10.8215
▁डिलीवरी	-10.8218
त्	-10.8219
▁जाल	-10.8219
া	-10.822
▁पक्षों	-10.8221
▁l	-10.8222
▁सूचित	-10.8224
▁वेस्ट	-10.8224
नू	-10.8226
▁आपत्ति	-10.8226
▁पीट	-10.8226
▁म्यूजिक	-10.8229
▁कैसी	-10.8229
▁बैंड	-10.823
▁लंबाई	-10.8231
’,	-10.8232
▁निराश	-10.8234
▁रिपोर्ट्स	-10.8237
#	-10.8237
▁भैया	-10.8241
68	-10.8242
▁ट्रॉफी	-10.8242
▁तकरीबन	-10.8249
▁आध्यात्मिक	-10.8251
▁बनाम	-10.8253
लों	-10.8255
▁आरती	-10.8255
▁कुलदीप	-10.8256
बू	-10.8258
▁यातायात	-10.8258
▁59	-10.8259
▁हरकत	-10.826
▁सीन	-10.8261
▁एप्लीकेशन	-10.8262
▁माला	-10.8262
▁पहुंचकर	-10.8265
▁पर्दे	-10.8267
▁इटली	-10.8268
89	-10.8272
▁गहरे	-10.8274
▁वाद	-10.8276
लिंक	-10.8279
रन	-10.8281
ोन	-10.8281
▁उन्‍हें	-10.8284
▁देवेंद्र	-10.8284
ग्	-10.8288
▁हिमालय	-10.829
▁क़	-10.8292
साल	-10.8301
▁साइबर	-10.8304
▁कस	-10.8307
▁इन्	-10.8308
ालय	-10.8309
▁मिसाइल	-10.8312
▁स्टूडेंट्स	-10.8313
▁कामयाबी	-10.8318
▁सैफ	-10.8319
▁खरीदारी	-10.8319
सार	-10.832
▁अश्लील	-10.8324
78	-10.8329
▁शौचालय	-10.8335
▁गिल	-10.8335
▁अटक	-10.8339
▁बहू	-10.834
65	-10.834
जिस	-10.8341
▁शाही	-10.8344
▁जोधपुर	-10.8349
फोटो	-10.8352
मेरा	-10.8354
▁पहना	-10.836
फे	-10.8361
▁न्यायमूर्ति	-10.8362
95	-10.8363
▁भागों	-10.8364
▁नेट	-10.8365
▁समुद्री	-10.8369
क्	-10.837
▁बैन	-10.8373
▁सूक्ष्म	-10.8378
▁टेलीविजन	-10.8378
▁सभ्यता	-10.8378
▁अफसरों	-10.8379
ेरा	-10.838
▁स्वीकृति	-10.838
▁खुलकर	-10.8381
▁रंगों	-10.8384
▁गहन	-10.8385
लु	-10.8386
▁पंजाबी	-10.8388
▁तरुण	-10.8388
▁याबाबत	-10.839
▁b	-10.839
ूल	-10.8394
▁सरस्वती	-10.8394
▁पर्सनल	-10.8395
▁बनारस	-10.8404
▁85	-10.8404
्रा	-10.8406
वली	-10.841
and	-10.8411
▁सतीश	-10.8414
▁भाजप	-10.8414
▁श्रेय	-10.8417
▁साहिब	-10.8417
▁चाचा	-10.8424
▁करण्यासाठी	-10.8429
72	-10.8434
▁भाइयों	-10.8438
भाई	-10.8442
▁झटके	-10.8443
▁चिंतित	-10.8448
खी	-10.8449
▁रसोई	-10.8451
▁ढाई	-10.8453
▁दशा	-10.8456
▁पर्यटकों	-10.8459
▁सिलेंडर	-10.846
▁रियल	-10.8464
बाद	-10.8468
▁अवगत	-10.8468
▁बुरे	-10.8472
सल	-10.8472
▁रंजन	-10.8476
83	-10.8477
▁’.	-10.848
▁अरे	-10.8481
▁उठाकर	-10.8481
▁बघेल	-10.8482
▁सौर	-10.8488
▁फिटनेस	-10.8491
▁मूल्यों	-10.8492
▁उमेदवार	-10.8494
▁नदियों	-10.8499
▁माजी	-10.85
▁फ्लैट	-10.8503
▁सुनी	-10.8504
त्या	-10.8504
▁आलिया	-10.8505
णार	-10.8506
▁डूब	-10.8515
▁तीर्थ	-10.8517
▁सीता	-10.8521
▁नारियल	-10.8522
▁आतंकवादियों	-10.8524
▁बॉर्डर	-10.8531
▁बढ़े	-10.8534
▁मनी	-10.8534
▁फेर	-10.8536
▁नक्षत्र	-10.8544
▁अड्डे	-10.8545
▁भूषण	-10.8548
▁विविधता	-10.8548
▁चंद्रमा	-10.8548
हन	-10.8551
▁कौ	-10.8551
▁कान	-10.8552
▁आपराधिक	-10.8554
▁अनुराग	-10.8554
▁किलोग्राम	-10.8556
मय	-10.856
▁लोकप्रियता	-10.8561
िज	-10.8561
छा	-10.8563
▁गली	-10.8564
▁काउंसिल	-10.8569
▁पालिका	-10.857
▁जीडीपी	-10.8571
▁पागल	-10.8573
▁अमल	-10.8573
वाह	-10.8574
▁वृक्ष	-10.8577
तुम	-10.8578
▁खेलना	-10.8584
▁वर्क	-10.8584
▁कैच	-10.8588
गाव	-10.8591
ियम	-10.8593
▁विवादों	-10.8595
▁डेब्यू	-10.8597
▁67	-10.8598
▁गुणों	-10.86
▁अध्याय	-10.8603
▁टाइगर	-10.8606
▁सौंदर्य	-10.8606
77	-10.8606
▁फसलों	-10.8607
▁थक	-10.8609
▁पढ़ना	-10.8609
▁राजमार्ग	-10.861
वाडी	-10.8614
▁लापता	-10.8616
▁पीड़ा	-10.8617
▁मानसून	-10.8618
▁गतिविधि	-10.8621
▁am	-10.8623
बस	-10.8627
▁दीक्षित	-10.8628
▁परिणामस्वरूप	-10.8628
क्यू	-10.8629
▁फूट	-10.8636
क्र	-10.8637
▁उसमे	-10.8641
▁एजेंसियों	-10.8642
कट	-10.8646
▁आह्वान	-10.865
▁मजेदार	-10.8651
▁जाणार	-10.8652
▁उपभोक्ताओं	-10.8653
▁शरण	-10.8653
▁ज़ोर	-10.8655
▁बॉल	-10.8656
षा	-10.8658
▁बोनस	-10.8663
प्रदेश	-10.8665
▁पेमेंट	-10.8666
▁ऊपरी	-10.8668
▁निर्	-10.8669
▁मोहब्बत	-10.8669
▁पार्ट	-10.867
▁इजाजत	-10.8671
नहीं	-10.8674
▁मारी	-10.8677
▁to	-10.8681
▁मराठा	-10.8682
▁लाना	-10.8682
▁कांड	-10.8682
▁प्रवासी	-10.8683
▁छीन	-10.8685
▁प्रश्‍न	-10.8687
▁पोषक	-10.8689
▁कथन	-10.8693
▁आगमन	-10.8695
तू	-10.8695
85	-10.8697
▁साहस	-10.87
▁मांगने	-10.8704
▁स्थलों	-10.8705
▁५	-10.8706
Next	-10.871
▁मज़ा	-10.871
मेट	-10.8713
▁वसूली	-10.8713
▁टीमें	-10.8719
▁गहलोत	-10.8719
▁खूबसूरती	-10.872
▁नकली	-10.8722
ृ	-10.8724
▁दुखी	-10.873
▁एरिया	-10.8732
▁अंदाजा	-10.8734
▁बीस	-10.8738
▁ट्रेडिंग	-10.8742
▁कपड़ों	-10.8743
ारी	-10.8744
▁रोगियों	-10.8744
▁कप्तानी	-10.8744
▁रिक्त	-10.8754
▁डोज	-10.8756
88	-10.8756
▁व्हाट्सएप	-10.8761
▁खु	-10.8766
प्रति	-10.877
▁ट्रेनों	-10.877
▁फंसे	-10.8776
▁सपनों	-10.8779
▁तुर्की	-10.8779
0%	-10.8781
▁लीड	-10.8782
▁धीमी	-10.8782
▁परिभाषा	-10.8782
.19	-10.8783
▁टक्के	-10.8784
87	-10.8789
▁भेद	-10.8791
▁अल्	-10.8791
▁63	-10.8792
▁इंग्लिश	-10.8796
ोर	-10.8797
ठी	-10.8799
वानी	-10.8803
▁दही	-10.8804
द्	-10.8805
▁हाथी	-10.8807
▁जानती	-10.881
▁परम	-10.8813
▁अंडे	-10.8822
▁मिमी	-10.8832
▁फैन	-10.8833
à	-10.8835
धार	-10.8842
▁इनसे	-10.8844
▁चलो	-10.8847
▁सां	-10.885
▁प्रीमियर	-10.8851
▁कहानियां	-10.8853
▁मुनाफा	-10.8854
▁66	-10.8855
▁हलचल	-10.8855
▁लौटे	-10.8856
▁0%	-10.8856
▁मल्टी	-10.8858
▁रिकॉर्डर	-10.8867
विज्ञान	-10.8868
बिल	-10.8878
▁चर	-10.888
▁हमलों	-10.8882
▁किन	-10.8886
▁स्थगित	-10.8886
विश्व	-10.8886
▁खरीदा	-10.8886
▁बर्तन	-10.8887
▁गैलरी	-10.8887
▁जुटी	-10.8887
▁मोठ्या	-10.8897
स्थान	-10.8898
▁असफल	-10.8899
▁सरपंच	-10.8899
▁प्रतीत	-10.8901
▁ग्वालियर	-10.8903
इससे	-10.8903
▁कामों	-10.8904
▁ख़ान	-10.8906
जन्म	-10.891
▁४	-10.8913
२	-10.8914
▁संसाधनों	-10.8914
▁बस्ती	-10.8916
▁रैम	-10.8916
62	-10.8916
▁न्यायिक	-10.8918
▁संग्रहालय	-10.8919
▁झेल	-10.8926
ीं	-10.8927
▁पासवर्ड	-10.8929
▁कैफ	-10.8929
▁उत्साहित	-10.8929
▁मथुरा	-10.893
▁स्टूडियो	-10.8932
्न	-10.8934
as	-10.8934
▁पोर्ट	-10.8936
कुमार	-10.8939
▁गैंग	-10.8942
नेट	-10.8943
▁करीना	-10.8944
▁ऑफिसर	-10.8946
▁डेंगू	-10.8951
▁मांगा	-10.8952
▁खेतों	-10.8952
हरी	-10.8953
▁Q	-10.8957
▁ऊंची	-10.8958
▁कारक	-10.8963
▁छापेमारी	-10.8965
▁असताना	-10.8966
जान	-10.8966
▁स्तन	-10.8972
▁संतुलन	-10.8974
डब्ल्यू	-10.8974
▁उपज	-10.8975
▁ईमानदारी	-10.8976
▁धार	-10.8976
र्म	-10.8979
▁निभाने	-10.898
▁शर्म	-10.8982
▁देखेंगे	-10.8984
▁जोश	-10.8986
▁कहानियों	-10.8988
सब	-10.8989
▁जोन	-10.8991
▁विडियो	-10.8992
ंप	-10.8993
94	-10.8994
▁सेमीफाइनल	-10.8995
▁माँग	-10.8996
▁खातों	-10.9001
▁प्रतिष्ठा	-10.9001
▁पुण्य	-10.9004
्वे	-10.9006
▁62	-10.9006
▁निबंध	-10.9007
▁लॉक	-10.901
▁ग्रंथ	-10.9011
युक्त	-10.9016
▁पड	-10.9016
▁स्ट्राइक	-10.9017
▁गृहमंत्री	-10.9018
विशेष	-10.9019
▁करूंगा	-10.9023
im	-10.9035
दारी	-10.9038
▁लाश	-10.9039
▁किंग्स	-10.904
▁तारा	-10.9042
71	-10.9044
▁ग्रे	-10.9045
ma	-10.9047
▁किंग	-10.905
▁आज़ादी	-10.9053
▁तलवार	-10.9057
▁सांप	-10.9059
▁वितरित	-10.906
▁छिपा	-10.9065
▁हेयर	-10.9069
▁बदलते	-10.9072
ष्ट	-10.9073
▁दरों	-10.9073
▁क्रमश	-10.9074
पहले	-10.9075
थी	-10.9075
हान	-10.9076
▁अत्याचार	-10.9083
शक्ति	-10.9083
▁जमाने	-10.9085
▁नेहा	-10.9085
▁डाउन	-10.9092
▁अर्ज	-10.9101
▁आरम्भ	-10.9103
नों	-10.9107
▁पढ़ी	-10.9109
▁सकल	-10.9112
नु	-10.9116
un	-10.9116
मधील	-10.912
▁टि	-10.9123
ेक्स	-10.9126
ूँ	-10.9127
पू	-10.913
69	-10.913
▁कुंडली	-10.9132
्क	-10.9133
▁चैंपियन	-10.9133
▁कमिश्नर	-10.9133
डिया	-10.9135
▁जम	-10.9135
▁सध्या	-10.9138
▁मन्दिर	-10.9143
ग्र	-10.9145
▁सुपरस्टार	-10.9148
▁गर्भ	-10.9151
▁इंस्पेक्टर	-10.9152
▁एप्लिकेशन	-10.9155
▁स्थितियों	-10.9156
भाषा	-10.9159
▁सौंपा	-10.9159
▁प्रोत्साहन	-10.916
▁एंड्रॉयड	-10.9164
पीएम	-10.9165
बंद	-10.9167
▁परीक्षाओं	-10.9169
▁हरिद्वार	-10.917
चित्र	-10.917
$	-10.9172
▁कॉन्फ्रेंस	-10.9173
बद्ध	-10.9173
▁दुनियाभर	-10.9174
▁.19	-10.9174
▁हथियारों	-10.9174
▁स्टैंड	-10.9183
92	-10.9186
ंचे	-10.9187
▁हॉलीवुड	-10.919
▁तन	-10.9193
▁कॉम	-10.9193
▁आपल्या	-10.9195
▁मूड	-10.9195
▁मंजूर	-10.9195
▁अश्विन	-10.9197
▁हितों	-10.9197
▁तृणमूल	-10.9197
बड़ी	-10.9198
▁बगैर	-10.9198
▁पुष्प	-10.92
▁अहसास	-10.9206
▁कर्तव्य	-10.9207
ख़	-10.9209
▁बचें	-10.9209
63	-10.9209
चल	-10.921
▁in	-10.9211
जित	-10.9214
▁गार्डन	-10.9216
▁कोयला	-10.9217
▁मंजिल	-10.9217
▁जौहर	-10.9221
ेयर	-10.9222
▁समीर	-10.9223
▁एजुकेशन	-10.9224
▁फैलाने	-10.9224
▁प्रभावशाली	-10.9225
▁बगल	-10.9225
▁जादू	-10.9226
त्री	-10.9228
▁धूल	-10.9228
▁दया	-10.9234
▁शासित	-10.9241
▁फोर्स	-10.9242
ीला	-10.9242
▁औरत	-10.9243
▁सुशांत	-10.9247
▁भेजी	-10.9247
▁जापानी	-10.925
84	-10.9252
▁गवर्नर	-10.9252
▁किताबें	-10.9253
▁सीधी	-10.9254
कृत	-10.9255
▁कैलाश	-10.9257
▁पूछने	-10.9259
सरकार	-10.9259
ta	-10.926
▁अगला	-10.9261
▁शूट	-10.9263
▁विफल	-10.9264
▁समग्र	-10.9264
▁वचन	-10.9269
▁भटक	-10.9274
▁चलना	-10.9275
▁प्रतीक्षा	-10.9276
लेल्या	-10.9278
▁बेन	-10.9279
▁गंवा	-10.9281
वहीं	-10.9285
▁नक्सली	-10.9286
73	-10.9287
.#	-10.9292
▁हर्ष	-10.9297
▁प्रमोशन	-10.9298
▁धारणा	-10.9299
▁समानता	-10.9299
▁उठाना	-10.93
▁फोकस	-10.9307
▁व्यास	-10.9308
▁नाराजगी	-10.9313
▁उन्नत	-10.9314
▁व्हाइट	-10.9316
▁हराकर	-10.9317
▁राउंड	-10.9321
▁उपायुक्त	-10.9321
▁नाते	-10.9324
▁मकर	-10.9327
▁त्वरित	-10.933
▁बिलियन	-10.933
▁डालते	-10.9331
▁कुंभ	-10.9339
तब	-10.9345
▁रोमांटिक	-10.9349
▁चर्चित	-10.9349
▁लिहाजा	-10.935
▁अगुवाई	-10.9354
▁एसी	-10.9355
▁क्‍या	-10.9355
▁फ़ाइल	-10.9357
▁हल्दी	-10.9357
▁रमन	-10.9361
▁खिला	-10.9361
सेन	-10.9361
▁कष्ट	-10.9361
sh	-10.9362
▁टेनिस	-10.9362
▁उड़ा	-10.9362
▁इंकार	-10.9362
▁आतंक	-10.9365
यु	-10.9367
▁जातियों	-10.9371
▁हिंदुओं	-10.9371
▁120	-10.9372
वासियों	-10.9372
▁यमुना	-10.9374
▁आकलन	-10.9377
▁तकलीफ	-10.9382
▁नितिन	-10.9382
रह	-10.9383
▁जोकि	-10.9386
घाट	-10.9392
▁नौसेना	-10.9393
▁प्रकल्प	-10.9394
▁चू	-10.9398
भूमि	-10.9398
▁तेरा	-10.9399
▁तीव्र	-10.9405
▁1.5	-10.9406
▁हेक्टेयर	-10.9406
▁खरीदी	-10.9407
▁इजाफा	-10.9416
यूपी	-10.9416
▁आंखें	-10.9419
▁परिजन	-10.9419
▁लड़ा	-10.9424
▁लीजिये	-10.9426
▁उछाल	-10.9427
93	-10.9427
▁पिच	-10.9432
▁नम्बर	-10.9433
▁सप्लाई	-10.9435
▁भि	-10.9437
▁यामुळे	-10.9439
▁वाक्य	-10.9442
▁2002	-10.9443
▁.1.	-10.9447
▁मसले	-10.9447
आइ	-10.945
▁स्वर्ग	-10.9452
-10	-10.9453
▁उतरे	-10.9453
▁प्रवृत्ति	-10.9453
▁वैकल्पिक	-10.9454
▁मस्ती	-10.9456
क्क	-10.9456
▁सहारे	-10.9459
▁वाकई	-10.9463
▁मधु	-10.9466
▁आदिवासियों	-10.9469
▁माफ	-10.947
▁कुमारी	-10.9471
ल्ल	-10.9471
▁छाप	-10.9474
▁घबरा	-10.9474
▁महीना	-10.9479
91	-10.9479
▁चेतना	-10.9481
ूंगा	-10.9483
बीर	-10.9484
:30	-10.9485
▁शुगर	-10.9488
▁मस्त	-10.9493
▁सेल्फी	-10.9497
▁मुताबिक़	-10.9498
▁सस्ते	-10.9501
▁प्रतिबंधित	-10.9502
▁ऐप्स	-10.9503
▁चुनने	-10.9506
79	-10.9512
61	-10.9516
▁प्रवीण	-10.9519
▁सूट	-10.9519
▁article	-10.952
▁गिरोह	-10.952
▁परिस्थिति	-10.9522
▁ट्रेंड	-10.9526
▁इनको	-10.9529
▁शु	-10.9532
▁तालुक्यातील	-10.9535
▁अंकित	-10.9535
▁विभाजित	-10.9537
▁लाई	-10.9537
▁78	-10.9539
▁अतीत	-10.9539
▁१०	-10.9544
▁गेम्स	-10.9545
▁टमाटर	-10.9551
▁ड्रग्स	-10.9555
4%	-10.9555
▁चौके	-10.9563
▁धर	-10.9564
नंतर	-10.9571
▁मौ	-10.9573
▁घास	-10.9574
▁???	-10.958
ाक	-10.958
▁कागज	-10.9581
▁निकाले	-10.9582
▁कैलेंडर	-10.9584
ir	-10.9593
▁U	-10.9595
जून	-10.9597
▁सम्राट	-10.9598
स्‍त	-10.9601
▁टा	-10.9603
▁तिल	-10.9607
▁फाइबर	-10.961
कौन	-10.9611
ियत	-10.9612
▁सहकारी	-10.9612
▁प्रसारित	-10.9614
▁गिनती	-10.9614
74	-10.9615
▁लम्बे	-10.962
▁मेन	-10.962
▁कनेक्ट	-10.9621
▁वोटों	-10.9622
▁मानवीय	-10.9626
▁संवैधानिक	-10.9626
vi	-10.9628
▁वाट	-10.9629
▁370	-10.9639
▁करवाई	-10.964
वासी	-10.9641
▁जनजाति	-10.9643
▁चलाते	-10.9647
▁छुपा	-10.9648
▁स्मिथ	-10.9652
▁स्	-10.9652
▁यासाठी	-10.9653
▁पाये	-10.966
▁अक्षर	-10.966
शास्त्र	-10.9667
▁श्रेष्ठ	-10.9667
▁In	-10.9668
मुक्त	-10.9673
▁बन्द	-10.9674
▁दुल्हन	-10.9675
▁इंतजाम	-10.9676
▁फडणवीस	-10.9676
पिछले	-10.9678
▁नागपुर	-10.9679
पश्चिम	-10.9681
▁निराशा	-10.9682
वर्ष	-10.9682
पत्नी	-10.9684
▁बारी	-10.9685
छोटे	-10.9688
▁लोकल	-10.9688
▁गर्दन	-10.969
▁पहलुओं	-10.969
▁उद्यान	-10.9692
▁एम्स	-10.9695
ti	-10.9699
▁समीप	-10.97
up	-10.97
▁सैमसंग	-10.97
▁मांगे	-10.97
▁कोटा	-10.9702
▁नींबू	-10.9702
▁तुमने	-10.9703
▁कोशिकाओं	-10.971
▁रणबीर	-10.9711
▁गिरकर	-10.9713
▁बिल्डिंग	-10.9718
▁गज	-10.9723
▁इंतज़ार	-10.9723
हित	-10.9723
▁जूते	-10.9728
▁माया	-10.9728
टल	-10.9728
▁बायो	-10.9732
▁समापन	-10.9734
▁सर्दियों	-10.9738
▁बिगड़	-10.9738
ेक्ट	-10.9742
▁संशोधित	-10.9743
▁शाहिद	-10.9747
▁लाए	-10.9749
द्ध	-10.9751
बाजी	-10.9751
त्मक	-10.9753
▁क़रीब	-10.9757
▁देशमुख	-10.9759
▁छेद	-10.976
फिल्म	-10.9761
▁वर्गों	-10.9767
▁ती	-10.9771
▁दुर्ग	-10.9772
▁बोतल	-10.9773
▁बेरोजगारी	-10.9776
▁एजेंट	-10.9777
हिंदी	-10.9779
ch	-10.9782
▁डोनाल्ड	-10.9783
▁जन्मे	-10.9787
▁बेटियों	-10.9788
▁रिश्तेदार	-10.979
▁फि	-10.9796
▁आयुर्वेद	-10.98
▁बेंगलुरु	-10.9801
▁लीला	-10.9801
▁राजू	-10.9802
हमें	-10.9803
▁ची	-10.9805
▁सीसीटीवी	-10.9806
▁लेनी	-10.9806
▁पुरी	-10.981
▁ससुराल	-10.9814
▁समृद्धि	-10.9815
▁Twitter	-10.9815
▁इलेक्ट्रॉनिक	-10.9815
▁रामदेव	-10.9818
घा	-10.9818
▁समिती	-10.9822
ड्स	-10.9824
▁बहरहाल	-10.9825
▁बरसात	-10.983
ोल	-10.9834
▁नं	-10.9834
▁क्योकि	-10.9834
धि	-10.9837
▁टैग	-10.9837
▁गेंदबाजों	-10.9838
▁कैरियर	-10.9839
▁नाबाद	-10.9842
▁सृजन	-10.9849
ॉल	-10.9849
▁AM	-10.985
▁गुड	-10.9858
तः	-10.9858
▁नफरत	-10.9859
ैट	-10.9861
is	-10.9868
▁परत	-10.9869
▁स्पिनर	-10.9871
न्ना	-10.9873
▁पान	-10.9875
to	-10.9876
मूल	-10.9877
▁त्रिपुरा	-10.988
▁मुसीबत	-10.988
▁झुक	-10.9883
प्रो	-10.9884
अन	-10.9889
▁सेमी	-10.9889
▁रात्री	-10.9891
▁भ्रम	-10.9905
▁95	-10.9907
▁६	-10.9909
▁सिलसिले	-10.9911
मुंबई	-10.9913
ाइ	-10.9915
न्न	-10.9915
▁74	-10.9916
▁कार्बन	-10.9916
▁स्पीकर	-10.9921
ट्टी	-10.9927
▁हल्की	-10.9934
▁फैन्स	-10.9936
▁शुक्र	-10.9938
▁बेकार	-10.9938
▁एकजुट	-10.9939
▁निकाय	-10.9939
▁भंग	-10.994
ीक	-10.9941
▁भक्तों	-10.9943
३	-10.9949
▁तेंदुलकर	-10.9951
▁बुध	-10.9953
▁स्वराज	-10.9953
▁डिस्क	-10.9955
▁गुल	-10.9957
▁सैलरी	-10.9961
▁कमांडर	-10.9961
ठे	-10.9962
▁हैंडल	-10.9963
▁जेएनयू	-10.9965
आपका	-10.9966
▁अं	-10.9967
▁वसा	-10.9968
ेबल	-10.9969
▁विकल्पों	-10.9969
▁.5.	-10.9969
▁संयोजक	-10.9971
▁पेंट	-10.9975
▁रॉयल	-10.9975
▁पड़ते	-10.9978
▁आरोग्य	-10.9978
ीज	-10.9978
▁एक्टिंग	-10.9979
▁नैतिक	-10.9981
▁दिखती	-10.9983
▁जाग	-10.9983
▁धु	-10.9984
▁उतारा	-10.9988
▁रिया	-10.9988
▁आंटी	-10.9988
▁परेशानियों	-10.9989
▁2003	-10.999
क्षेत्र	-10.9993
▁सम्मिलित	-10.9993
▁घेतली	-10.9993
वले	-10.9995
▁अर्पित	-10.9995
ia	-11
एंगे	-11
▁घंटा	-11.0001
रंग	-11.0003
▁फर्म	-11.0003
▁सौदा	-11.0007
▁पू	-11.0008
▁बीवी	-11.001
-4	-11.0011
▁परिणामों	-11.0011
▁बोर	-11.0014
▁रैंक	-11.0016
▁अवधारणा	-11.0017
▁गट	-11.0018
▁गिरी	-11.0018
▁सिपाही	-11.0021
▁निर्धारण	-11.0025
▁मददगार	-11.003
ंगल	-11.0035
▁आफ	-11.0039
▁02	-11.0041
._	-11.0041
▁बैनर	-11.0044
▁किसे	-11.0044
चीन	-11.0046
▁सील	-11.0047
▁कुमाऊँ	-11.0048
▁धक्का	-11.005
ज़र	-11.0052
▁इंद्र	-11.0052
▁तले	-11.0054
हट	-11.0057
▁सुषमा	-11.0057
▁क्रोध	-11.0058
▁एमपी	-11.0061
▁लु	-11.0061
▁100%	-11.0064
▁घेतला	-11.0064
आवाज	-11.0065
▁घेर	-11.0066
भू	-11.0066
▁पासवान	-11.0071
▁शॉट	-11.0077
▁ख़ुशी	-11.0081
▁लैस	-11.0083
▁बेंच	-11.0084
▁समावेश	-11.0085
▁सिरे	-11.0092
82	-11.0093
▁ढांचे	-11.0094
ढा	-11.0094
▁कारों	-11.0101
▁मानवाधिकार	-11.0103
▁उठता	-11.0104
▁अकेला	-11.0104
▁स्थानांतरित	-11.0105
▁स्वादिष्ट	-11.0107
▁दुआ	-11.0113
▁वाह	-11.0113
▁शरीफ	-11.0114
▁कैप	-11.0116
▁अधिग्रहण	-11.0117
▁आरबीआई	-11.0121
सेवा	-11.0122
▁विनय	-11.0134
▁शमी	-11.0135
▁लेनदेन	-11.0135
अल	-11.0136
▁घटक	-11.0139
▁लोकतांत्रिक	-11.0139
कोर	-11.0148
▁रेत	-11.0149
▁दस्तावेजों	-11.0151
▁मदन	-11.0155
ाद	-11.0156
ीस	-11.0159
▁डायबिटीज	-11.016
र्ब	-11.016
▁बाई	-11.0162
▁गुलाम	-11.0164
▁रजिस्टर	-11.0168
.00	-11.0168
▁re	-11.0169
▁चलकर	-11.0169
▁बैल	-11.0169
▁बादशाह	-11.0171
▁चैंपियनशिप	-11.0174
गृह	-11.0175
lo	-11.0177
▁सोनू	-11.0178
▁मानवता	-11.0181
▁बताएंगे	-11.0181
▁ईरानी	-11.0182
▁गला	-11.0183
▁सोम	-11.0186
सिया	-11.0186
▁सूखे	-11.0186
▁जोड़कर	-11.0188
▁i	-11.0188
▁पाण्डेय	-11.0192
▁जुटा	-11.0193
▁भयानक	-11.0194
ाइल	-11.0194
▁विश्वसनीय	-11.0194
▁बरस	-11.0195
▁बै	-11.0197
▁फो	-11.0198
▁ऑफिशियल	-11.0198
▁सकाळी	-11.0199
▁योजनाएं	-11.02
▁पालक	-11.0202
दन	-11.0203
▁कॉमेडी	-11.0207
▁कमजोरी	-11.0207
▁व्यय	-11.0208
▁छेड़छाड़	-11.0208
▁एकादशी	-11.021
م	-11.0212
▁शी	-11.0215
▁प्रसंग	-11.0217
',	-11.0219
▁आईएएस	-11.0223
▁बीएसई	-11.0225
▁पाचन	-11.023
▁राफेल	-11.0231
▁महानिदेशक	-11.0233
▁कैटरीना	-11.0234
▁कमलनाथ	-11.0236
▁बुकिंग	-11.0236
हिन्दी	-11.0237
▁खपत	-11.0238
▁बदमाश	-11.0239
लन	-11.024
ऐसा	-11.0241
▁अटैक	-11.0244
te	-11.0245
▁घातक	-11.0246
लेख	-11.0251
▁करीत	-11.0252
▁दुर्लभ	-11.0255
▁विदेशों	-11.0257
▁App	-11.0257
▁साधु	-11.0264
▁हकीकत	-11.0267
▁कॉ	-11.0269
▁राधा	-11.0275
▁रिहा	-11.0275
ट्टा	-11.0276
▁पीस	-11.0277
पान	-11.0279
िप	-11.0282
.‘	-11.0285
दल	-11.0286
▁बताएं	-11.0286
मिन	-11.0289
▁कॉलोनी	-11.0292
पेट	-11.0293
▁पक्षी	-11.0294
▁रजत	-11.0294
▁तुझे	-11.0294
▁टैंक	-11.0294
यहाँ	-11.0302
▁ाज्य	-11.0306
ाँ	-11.0307
▁बहुजन	-11.0308
▁76	-11.0309
गुरु	-11.031
▁छक्के	-11.031
विकास	-11.0315
इयों	-11.0318
▁प्रोसेसर	-11.0323
▁बारह	-11.0324
▁सबकुछ	-11.0326
▁उद्धव	-11.0327
▁गाड़ियों	-11.0328
▁गम	-11.0333
▁पुन्हा	-11.0335
हत	-11.0343
रम	-11.0344
▁सम्	-11.0349
वती	-11.0351
▁चरम	-11.0352
▁शर्तों	-11.0353
▁प्रश्नों	-11.0354
▁सुरु	-11.0356
▁पद्म	-11.0357
▁यांची	-11.0358
▁वें	-11.0359
रानी	-11.036
▁क्रिस	-11.0365
नियम	-11.0365
वर्ग	-11.0366
▁लेखकों	-11.0366
▁चाकू	-11.037
▁लौटा	-11.0371
▁आडवाणी	-11.0374
▁स्नेह	-11.0374
▁कोण	-11.0377
ैन	-11.038
▁उमेश	-11.038
▁मिनी	-11.0385
पानी	-11.0386
▁श्रीकृष्ण	-11.0387
▁लै	-11.0388
▁केयर	-11.0392
▁उन्हे	-11.0393
▁तैयारियों	-11.0394
▁छापा	-11.0394
▁खाई	-11.04
▁अन्न	-11.0403
वाने	-11.0405
इंग	-11.0405
▁मेगापिक्सल	-11.0411
खे	-11.0411
▁जबलपुर	-11.0414
वेद	-11.0415
कर्म	-11.0417
णार्‍या	-11.0419
▁चौकी	-11.0419
▁निवडणूक	-11.0424
▁उठे	-11.0425
▁मौलिक	-11.0426
▁हरीश	-11.0428
▁हिंसक	-11.0428
नल	-11.0428
मां	-11.0429
समाचार	-11.043
ن	-11.0438
▁बाय	-11.0443
लखनऊ	-11.0444
▁मानसिकता	-11.045
▁जातक	-11.0457
َ	-11.0459
▁फे	-11.046
▁टॉस	-11.0463
▁आलेख	-11.0474
▁बलिया	-11.0478
▁नहर	-11.0479
▁अंसारी	-11.048
81	-11.0488
▁सिंगापुर	-11.049
▁कॉफी	-11.0492
भि	-11.0492
▁मिठाई	-11.0492
▁निभाया	-11.0496
▁अखबारों	-11.0497
्यो	-11.0497
▁बढ़ेगी	-11.0498
▁एडमिट	-11.0507
▁नील	-11.0511
▁जुटे	-11.0514
▁अजीत	-11.0516
▁स्मारक	-11.0519
▁77	-11.0526
▁प्रथा	-11.0531
▁61	-11.0533
हमने	-11.0535
▁रै	-11.0535
.12	-11.0537
▁मोटी	-11.0538
▁खां	-11.0539
▁ग्राउंड	-11.0541
▁फ्लाइट	-11.0543
▁शे	-11.0545
▁टोल	-11.0546
▁अनुभवी	-11.055
▁जडेजा	-11.0551
▁क्रमांक	-11.0553
थे	-11.0554
▁बल्लेबाजों	-11.0556
चंद्र	-11.0557
बुक	-11.0564
".	-11.0565
▁सोचना	-11.0565
▁प्रारम्भ	-11.0566
मुख	-11.0567
▁बरें	-11.0567
▁कूद	-11.0568
▁चुनौतियों	-11.0568
▁कारगर	-11.0572
▁घोटाला	-11.0574
▁भागवत	-11.0575
▁05	-11.0576
▁विद्वान	-11.0578
▁हानिकारक	-11.0578
▁मानकर	-11.0579
▁पदाधिकारियों	-11.058
▁बंदूक	-11.0581
▁लैब	-11.0582
▁रसायन	-11.0583
विचार	-11.0586
ut	-11.0586
▁बचना	-11.0587
▁यूज	-11.0592
▁उपायों	-11.0594
▁मोटे	-11.0596
▁सर्वर	-11.0597
दिल	-11.0598
▁एंड्रॉइड	-11.0599
▁जिल्ह्यातील	-11.06
▁ठहराया	-11.0601
▁युवराज	-11.0602
रेन	-11.0602
▁नामों	-11.0602
▁चीख	-11.0606
▁सहन	-11.0611
▁06	-11.0612
▁औपचारिक	-11.0614
▁रच	-11.0615
शु	-11.0618
▁बहनों	-11.062
▁बजा	-11.0624
कार्ड	-11.0627
▁यज्ञ	-11.0627
्टर	-11.0628
▁रेड्डी	-11.0628
▁संगम	-11.0629
▁टूल	-11.0629
▁वाणी	-11.0632
▁चिट्ठी	-11.0635
ंबा	-11.0638
▁सुखद	-11.0638
▁बूथ	-11.0642
▁रोमांचक	-11.0647
▁डाइट	-11.0647
-5	-11.0647
▁2001	-11.0649
▁वैरिएंट	-11.065
▁मौर्य	-11.0651
▁इमेज	-11.0652
▁देसी	-11.0652
▁गिफ्ट	-11.0652
्टन	-11.0653
ग्रस्त	-11.0655
▁सलामी	-11.0658
▁शेतकरी	-11.0659
▁चिदंबरम	-11.0661
▁धूम	-11.0661
▁महाभारत	-11.0661
▁क्यू	-11.0662
महाराष्ट्र	-11.0663
▁परिवर्तित	-11.0665
▁सौंपी	-11.0666
;.	-11.0668
▁लक्षणों	-11.0669
▁एससी	-11.0669
दूर	-11.067
ट्र	-11.0674
▁इनकम	-11.0675
▁पट्टी	-11.0675
▁कंधे	-11.068
नुसार	-11.0681
आपकी	-11.0682
▁अर्थात्	-11.0686
▁असिस्टेंट	-11.0687
▁नायडू	-11.0689
▁नारा	-11.0691
▁डॉट	-11.0694
▁समझाने	-11.0694
विद	-11.0695
▁सौदे	-11.0697
▁कोष	-11.0701
hi	-11.0701
▁सबकी	-11.0702
▁खरीदना	-11.0707
नए	-11.0712
बंध	-11.0712
▁ताल	-11.0717
▁परवाह	-11.0717
▁उद्योगों	-11.0718
▁ट्रैक्टर	-11.0719
▁आरक्षित	-11.072
▁एज	-11.0725
▁अग्रणी	-11.0727
्ज	-11.0728
▁सब्जियों	-11.0728
र्व	-11.0728
▁.•	-11.0729
▁बदौलत	-11.0729
हिमाचल	-11.0732
▁पासपोर्ट	-11.0732
▁m	-11.0734
ap	-11.0736
▁2.5	-11.0743
▁ट्रोल	-11.075
▁नरेश	-11.075
▁राख	-11.0753
ुम	-11.0754
ाइन	-11.0757
▁जुड़ने	-11.076
▁सोर्स	-11.0761
▁लगीं	-11.0762
▁गेले	-11.0763
▁अवॉर्ड	-11.0765
▁होश	-11.077
▁चयनित	-11.0771
्ता	-11.0773
▁पोलीस	-11.0777
▁उपर	-11.0777
▁ठेकेदार	-11.0778
▁2022.	-11.0779
▁प्रशंसकों	-11.0781
▁विभागीय	-11.0781
राय	-11.0783
यल	-11.0783
▁स्वामित्व	-11.0785
बर्ग	-11.0789
▁खोले	-11.079
▁गवाह	-11.0792
▁संभालने	-11.0792
▁पहुँचा	-11.0796
ाब	-11.0797
▁गेल	-11.0798
▁किसने	-11.0799
▁धैर्य	-11.08
▁तयार	-11.08
▁जीती	-11.0802
▁टाल	-11.0805
हमारी	-11.0806
▁बढ	-11.081
▁गर्मियों	-11.0813
▁लिखें	-11.0815
▁महत्त्व	-11.0816
▁अल्प	-11.0817
▁साक्षी	-11.0819
ab	-11.082
▁प्राचार्य	-11.082
▁दांत	-11.0824
▁इमाम	-11.0828
▁Posts	-11.083
किंग	-11.0831
▁सबक	-11.0834
▁फ़रवरी	-11.0834
”.	-11.0835
▁आवंटन	-11.0837
▁खुफिया	-11.0837
▁बिज़नेस	-11.0837
▁नैनीताल	-11.0838
▁स्वप्न	-11.084
▁श्रमिकों	-11.084
▁बेशक	-11.0844
▁गाजियाबाद	-11.0845
▁चलाई	-11.0846
▁तस्करी	-11.0849
▁भजन	-11.0852
▁2017-18	-11.0857
▁एसडीएम	-11.0857
▁पार्षद	-11.0858
▁शिफ्ट	-11.0859
▁अपनाया	-11.0861
▁गौरी	-11.0862
▁मरम्मत	-11.0867
बरा	-11.087
▁कलेक्शन	-11.087
▁डाक्टर	-11.087
▁फर्स्ट	-11.0874
टिक	-11.0876
▁ज्‍यादा	-11.0877
बाज	-11.0878
▁निवेदन	-11.0878
Related	-11.088
▁फैमिली	-11.088
▁अंततः	-11.0882
▁गुलाबी	-11.0891
▁स्टेज	-11.0894
डू	-11.0894
▁द्विवेदी	-11.0895
▁84	-11.0896
र्द	-11.0896
▁धोखाधड़ी	-11.0897
▁जिल्ह्यात	-11.0897
▁वापर	-11.0898
▁चिन्ह	-11.0901
▁ताज़ा	-11.0902
▁जूस	-11.0903
▁मुहम्मद	-11.0903
▁हत्याकांड	-11.0905
▁दुसरे	-11.0908
▁यंत्र	-11.0912
▁ज़रिए	-11.0913
▁फ्ल	-11.0915
.15	-11.092
▁अर्जित	-11.0923
ak	-11.0923
सोशल	-11.0928
▁जंगलों	-11.0928
▁दूंगा	-11.0928
▁दोहरा	-11.0931
▁मोटरसाइकिल	-11.0934
▁भागने	-11.0937
▁ख़राब	-11.0939
▁एसएसपी	-11.094
▁वैदिक	-11.0941
▁गुज़र	-11.0942
▁प्रेशर	-11.0943
▁पढ़कर	-11.0947
ांमध्ये	-11.0949
▁वाटर	-11.0952
▁परिचालन	-11.0954
▁शशि	-11.0955
▁दिलाई	-11.0955
▁किशन	-11.0956
▁पट	-11.0957
ज्ञान	-11.0957
▁मांगों	-11.0959
▁गाली	-11.096
▁बजाए	-11.0964
▁आजम	-11.0966
▁रोम	-11.0969
▁नवाब	-11.0972
▁इनाम	-11.0973
▁आइये	-11.0974
▁उधार	-11.0974
ment	-11.0975
मोदी	-11.0976
▁चो	-11.0978
▁किराया	-11.0979
▁संयोजन	-11.0979
▁हिला	-11.0983
▁कोल्हापूर	-11.0985
▁जनगणना	-11.0985
▁स्टेप	-11.099
▁सिंधिया	-11.0994
▁ग्ल	-11.0995
▁आक्रामक	-11.0995
▁स्पेन	-11.0996
▁हटाया	-11.0998
▁कपड़ा	-11.0998
▁सदैव	-11.0999
▁चंद्रशेखर	-11.1
▁आंसू	-11.1005
तन	-11.1005
▁मोर्चे	-11.1007
▁खन्ना	-11.1008
▁टकरा	-11.1012
▁लेटेस्ट	-11.1014
▁लम्बी	-11.1017
▁बलिदान	-11.1019
▁फु	-11.1022
लेस	-11.1023
इसलिए	-11.1024
▁गे	-11.1025
टि	-11.1029
▁वोटिंग	-11.1034
▁रेल्वे	-11.1038
▁स्वचालित	-11.104
परिवार	-11.1041
▁साहित्यिक	-11.1041
▁मतभेद	-11.1045
▁इस्लामिक	-11.1046
▁वहीँ	-11.1046
▁उठी	-11.1047
▁समन्वय	-11.1048
स्टार	-11.1048
▁13.	-11.1051
▁राग	-11.1051
▁पढ	-11.1053
िमा	-11.1053
▁पुलिसकर्मियों	-11.1055
▁कंटेंट	-11.1058
▁गणतंत्र	-11.1058
▁लू	-11.1058
▁लाभदायक	-11.1061
▁स्पर्श	-11.1069
▁भीम	-11.1069
▁एडिटर	-11.1072
▁ऐश्वर्या	-11.1072
▁लॉग	-11.1074
▁अभ्यर्थियों	-11.1075
▁छात्राओं	-11.1075
▁तृतीय	-11.1075
▁आँखें	-11.1077
▁68	-11.1077
▁राजन	-11.1079
▁कचरा	-11.108
▁यूपीए	-11.1085
▁ग़लत	-11.1085
यम	-11.1088
टक	-11.1088
▁दायित्व	-11.1089
est	-11.1089
▁शिल्पा	-11.109
▁सहा	-11.1091
देन	-11.1093
▁माननीय	-11.1097
▁दिलचस्पी	-11.1099
▁वायुसेना	-11.11
▁रण	-11.1102
▁गर्लफ्रेंड	-11.1104
▁600	-11.1104
▁माधव	-11.1105
पात	-11.1108
▁संयोग	-11.1108
▁साहू	-11.1109
▁घायलों	-11.1115
▁सांप्रदायिक	-11.1115
▁साप्ताहिक	-11.112
▁शैक्षिक	-11.1121
▁प्रोफाइल	-11.1127
▁घटा	-11.1128
▁सोनम	-11.1131
▁डेस्कटॉप	-11.1131
▁शै	-11.1135
▁सर्टिफिकेट	-11.1135
▁लेगा	-11.1136
▁पूल	-11.1137
डिंग	-11.1137
▁पत्ते	-11.1141
▁सौभाग्य	-11.1142
▁वस्त्र	-11.1143
▁सशक्त	-11.1143
▁जरूरतों	-11.1144
100	-11.1145
▁डोर	-11.1147
▁ऋतु	-11.115
▁नै	-11.1155
प्रमुख	-11.1155
प्स	-11.1161
▁सज़ा	-11.1164
▁ब्रेकिंग	-11.1169
▁ताज	-11.1173
▁बढ़ाना	-11.1174
▁बोस	-11.1175
िकल	-11.1178
▁उदयपुर	-11.1179
▁लहसुन	-11.1179
▁रथ	-11.1187
▁सुंदरता	-11.1189
ामुळे	-11.1205
▁निशाने	-11.1208
Email	-11.1208
▁अय्यर	-11.1208
वला	-11.121
▁चारा	-11.1215
▁उत्	-11.1216
▁बिलासपुर	-11.1218
बोर्ड	-11.1218
फुल	-11.1219
▁मसीह	-11.1221
▁कविताओं	-11.1223
▁अपनाने	-11.1226
▁पशुओं	-11.1227
▁जीवनसाथी	-11.1231
▁राज्यमंत्री	-11.1241
ाप	-11.1246
▁जबरन	-11.1246
ाली	-11.1246
▁पाकर	-11.1247
▁सुल्तान	-11.1248
▁अजित	-11.1252
बोध	-11.1258
ेंड	-11.126
▁जागा	-11.1262
▁मदत	-11.1264
▁परिभाषित	-11.1265
▁तथ्यों	-11.1266
▁प्रोडक्शन	-11.1266
▁दमदार	-11.1267
▁82	-11.1268
▁पढ़िए	-11.1271
▁सोसायटी	-11.1272
▁पलायन	-11.1272
▁उठने	-11.1275
▁घाटा	-11.1279
▁ग्रेड	-11.128
▁हू	-11.128
▁उज्जैन	-11.1281
▁खिल	-11.1288
ंवर	-11.1293
▁तपास	-11.1297
▁e	-11.1297
▁छोर	-11.1301
▁नींव	-11.1302
▁गुन्हा	-11.1311
मू	-11.1311
▁स्पर्धा	-11.1315
▁क्षति	-11.1315
्टी	-11.1316
▁ईयर	-11.1318
▁नाहीत	-11.1322
▁तीस	-11.1324
▁फलों	-11.1325
▁उतरी	-11.1327
▁गुफा	-11.1328
▁कर्ण	-11.1329
▁मणिपुर	-11.1329
▁ईद	-11.1335
▁कांग्रेसी	-11.1335
▁रासायनिक	-11.134
▁किडनी	-11.134
▁NEW	-11.1341
न्यू	-11.1341
▁नीलामी	-11.1344
▁रामायण	-11.1351
▁तीव्रता	-11.136
▁निधी	-11.1363
▁महापौर	-11.1365
▁मिसाल	-11.1367
▁अर्धशतक	-11.1367
▁किताबों	-11.1374
▁गोविंद	-11.1376
नेस	-11.1377
▁कश्मीरी	-11.1379
ल्	-11.138
▁रोकथाम	-11.1381
बन	-11.1385
▁फैक्ट्री	-11.139
▁सत	-11.1392
▁वादे	-11.1393
▁इक	-11.1396
▁मुल	-11.1401
▁लाकर	-11.1401
▁नौकरियों	-11.1404
नोट	-11.1404
▁मनो	-11.1404
▁86	-11.1408
▁ऐड	-11.1408
▁03	-11.1408
▁मेजर	-11.141
फोन	-11.1411
▁बजकर	-11.1413
फाई	-11.1417
क्रम	-11.1418
▁प्रमोद	-11.1419
▁ईमानदार	-11.142
दरअसल	-11.1422
.50	-11.1423
.30	-11.1424
बै	-11.1426
▁फास्ट	-11.1427
▁आमदनी	-11.1429
▁खिड़की	-11.1431
रिक	-11.1432
с	-11.1432
▁पादुकोण	-11.1436
▁1990	-11.1436
इतिहास	-11.1438
▁दखल	-11.1438
तंत्र	-11.1438
विक	-11.1445
▁उलट	-11.1445
▁पिछड़े	-11.1447
▁एक्सरसाइज	-11.1447
▁सम्पन्न	-11.1447
▁प्रवास	-11.1448
▁अर्ध	-11.1448
▁83	-11.1448
▁चौथा	-11.145
▁सुमारे	-11.1454
▁संग्राम	-11.146
▁कहर	-11.1463
▁मिड	-11.147
▁डोमेन	-11.1471
্	-11.1472
▁सीखा	-11.1473
▁मधुर	-11.1475
▁थकान	-11.1479
न्ध	-11.1479
▁कर्मी	-11.148
▁सीज़न	-11.1481
▁लटका	-11.1485
▁."	-11.1485
▁दिखाए	-11.1488
▁14.	-11.1488
▁नोटिफिकेशन	-11.1494
▁मिक्स	-11.1494
चौ	-11.1494
▁मुकदमे	-11.1496
▁चिकन	-11.1497
रेट	-11.1498
▁परिसरात	-11.1498
फो	-11.1499
▁पूर्ति	-11.15
इए	-11.15
द्द	-11.1502
▁प्रबल	-11.1503
कथा	-11.1505
▁जेम्स	-11.1506
▁बहाल	-11.1506
▁वर्जन	-11.1506
▁फोटोग्राफी	-11.1507
▁ऑस्ट्रेलियाई	-11.1508
खंड	-11.1511
ent	-11.1514
▁हार्ड	-11.1514
▁भ्रष्ट	-11.1517
▁परम्परा	-11.1518
▁मनु	-11.152
▁सीमाओं	-11.1521
▁मौलाना	-11.1521
धु	-11.1522
▁सरकारें	-11.1523
▁सियासत	-11.1524
▁टीके	-11.1525
ष्ठ	-11.1526
▁98	-11.1528
▁खुदरा	-11.1528
▁समझता	-11.1531
▁पिन	-11.1531
ेरी	-11.1533
गिरी	-11.1542
▁गरज	-11.1542
▁मजदूरी	-11.1542
▁विष	-11.1543
▁राजनेता	-11.1543
टाइम	-11.1544
ण्याचा	-11.1546
समझ	-11.1547
कार्य	-11.1547
▁रखेंगे	-11.1547
▁विलय	-11.1547
▁निरस्त	-11.1548
-6	-11.155
▁सितारों	-11.1554
अनु	-11.1555
▁चव्हाण	-11.1556
▁उभर	-11.1557
-2021	-11.1557
▁पीड़ितों	-11.1558
▁सतर्क	-11.1565
टीवी	-11.1565
▁क्वालिटी	-11.1565
करी	-11.1566
▁सदस्यीय	-11.1567
▁सामुदायिक	-11.1572
मह	-11.1574
▁उत्पादक	-11.1575
▁दिव्य	-11.1576
▁माप	-11.1577
▁दिग्विजय	-11.1577
कॉ	-11.1578
▁गर्भावस्था	-11.1579
▁एलान	-11.1581
ङ	-11.1582
▁सोचता	-11.1585
▁स्ट	-11.1586
वंत	-11.1587
▁Ma	-11.1588
▁जहर	-11.1589
▁नाना	-11.1591
ry	-11.1593
▁अधिवक्ता	-11.1596
▁औसतन	-11.1598
▁आवश्यकताओं	-11.16
शिव	-11.1601
▁भावुक	-11.1602
▁साहित्यकार	-11.1607
▁साई	-11.1607
▁हैरानी	-11.161
▁देखती	-11.1612
मार्ग	-11.1612
▁अन्याय	-11.1613
सरकारी	-11.1616
▁दादी	-11.1616
▁घेत	-11.1625
गें	-11.1626
▁कोचिंग	-11.1627
▁महंगे	-11.1631
▁पुलिसकर्मी	-11.1632
ेत	-11.1634
▁अवकाश	-11.1635
हाँ	-11.1642
▁आंबेडकर	-11.1645
ावा	-11.1645
▁ब्रह्मा	-11.1647
▁पॉपुलर	-11.1648
▁यो	-11.165
▁फरीदाबाद	-11.1651
▁सार्थक	-11.1654
▁निकालकर	-11.166
▁सीओ	-11.1661
▁प्रेमिका	-11.1664
▁हाईवे	-11.1665
▁निर्माताओं	-11.1665
▁शेखर	-11.1665
▁ओबीसी	-11.1667
▁कोने	-11.1671
▁रिपोर्टर	-11.1674
ड़ों	-11.1676
▁जेपी	-11.1676
▁जिनको	-11.1677
सिल	-11.1678
▁समझाया	-11.1682
शर	-11.1686
▁मं	-11.1686
▁उत्पत्ति	-11.1689
किन	-11.1693
▁पांचवें	-11.1695
▁तंग	-11.1698
▁एक्सपर्ट	-11.1699
▁गुट	-11.1701
▁दिलाया	-11.1702
▁अभियंता	-11.1704
▁बाधित	-11.1704
▁श्रीदेवी	-11.1706
▁घोष	-11.1706
▁डु	-11.1708
▁पचास	-11.1709
▁कड़े	-11.171
▁नी	-11.1714
व्यापार	-11.1715
▁प्रतिस्पर्धा	-11.1716
▁प्रस्तुति	-11.1716
▁मधुमेह	-11.1718
िर	-11.1722
▁पूनम	-11.1723
▁आसन	-11.1726
▁कैन	-11.1727
▁घटनास्थल	-11.1729
▁कवरेज	-11.173
ेस्ट	-11.173
▁गोलियां	-11.1731
▁मुआवजा	-11.1732
▁सिल	-11.1733
▁लाहौर	-11.1734
▁दोषियों	-11.1735
▁पुरे	-11.1736
▁छाती	-11.1736
▁सस्ती	-11.1738
▁असंभव	-11.1739
▁जाहीर	-11.1744
▁जैविक	-11.1748
▁बकाया	-11.1749
पूर्वी	-11.175
-12	-11.1752
▁तब्दील	-11.1758
▁सादर	-11.1759
▁मेहमान	-11.176
▁क्रमशः	-11.1764
▁जू	-11.1765
▁शर्तें	-11.1766
▁उपरोक्त	-11.1767
▁महागठबंधन	-11.1772
ऑ	-11.1775
▁ब्राउज़र	-11.1775
▁पाएगा	-11.1777
▁बताये	-11.1779
▁मनाई	-11.1779
स्ता	-11.1779
▁सावंत	-11.1779
▁संबोधन	-11.1779
ौल	-11.1781
▁भेट	-11.1781
▁विहार	-11.1785
▁खाया	-11.1786
▁दीं	-11.1786
▁मेजबान	-11.1789
वैसे	-11.1793
आगे	-11.1796
▁ौ	-11.1797
▁तेज़ी	-11.1801
▁पंक्ति	-11.1809
▁जलाने	-11.181
▁अभ्यर्थी	-11.181
ity	-11.181
▁देंगी	-11.1811
500	-11.1815
▁सीरिया	-11.1816
▁ढक	-11.1816
ल्ले	-11.1819
▁हाय	-11.183
चक	-11.183
▁रियर	-11.1833
▁व्यंग्य	-11.1834
▁जंक्शन	-11.1836
▁चार्ट	-11.1838
▁1999	-11.1838
▁अदरक	-11.1844
रियल	-11.1847
▁आओ	-11.1848
▁लोकार्पण	-11.1856
▁साहेब	-11.1859
▁महत्त्वपूर्ण	-11.1861
▁उंगली	-11.1863
िशन	-11.1869
▁कीजिये	-11.1874
▁नरम	-11.1876
▁पाइप	-11.1876
▁भावनात्मक	-11.1878
▁अलीगढ़	-11.1878
▁पेरिस	-11.1878
▁मोती	-11.188
▁सितारे	-11.1881
▁निकलते	-11.1882
▁मीरा	-11.1882
लाइट	-11.1883
▁ब्रांच	-11.1886
▁गोलीबारी	-11.189
▁कहानियाँ	-11.1892
▁फिल्मी	-11.1893
सिंग	-11.1894
me	-11.1896
▁71	-11.1896
स्‍	-11.1898
▁मुहिम	-11.1899
मंडल	-11.1902
ुओं	-11.1903
वेयर	-11.1904
▁बढ़ेगा	-11.1905
▁विद्रोह	-11.1909
▁स्वीकृत	-11.191
वारी	-11.1911
पक्ष	-11.1911
तार	-11.1913
▁ताप	-11.1917
इं	-11.1919
प्रेम	-11.1919
▁सिंधु	-11.1923
▁कटा	-11.1928
▁बिता	-11.1929
ाकडे	-11.1931
▁तिलक	-11.1933
ारा	-11.1934
▁घटने	-11.1935
ion	-11.1936
▁सदियों	-11.1936
▁एनर्जी	-11.1938
▁तरल	-11.1938
माता	-11.1939
▁देवताओं	-11.1939
शाह	-11.194
▁पारा	-11.194
▁count	-11.1941
▁लगाये	-11.1942
त्ता	-11.1945
इंडिया	-11.1946
▁सूबे	-11.1947
▁निदान	-11.1956
▁जलन	-11.1958
▁ओवरों	-11.1961
दोस्तों	-11.1961
▁रहेंगी	-11.1961
▁पॉल	-11.1964
▁सेकेंड	-11.1964
▁यार	-11.1965
▁आँख	-11.1966
▁प्रयागराज	-11.1966
▁कॉलेजों	-11.1968
▁पीले	-11.1969
▁बदनाम	-11.197
▁रिव्यू	-11.1971
नीय	-11.1974
▁अर्	-11.1975
▁बाज	-11.1978
▁आइटम	-11.1978
▁मेष	-11.1979
खबर	-11.1979
▁हेमंत	-11.198
▁शॉपिंग	-11.1985
▁केशव	-11.1986
▁हिन्दुस्तान	-11.1988
▁गीतों	-11.199
▁सै	-11.1991
सों	-11.1993
डीजल	-11.1996
IC	-11.1997
▁रिश्वत	-11.1998
▁महंगी	-11.1999
▁किट	-11.1999
ाज	-11.2
▁गांगुली	-11.2
प्ले	-11.2006
▁श्रद्धालुओं	-11.2006
▁सोन	-11.2007
ड़ियों	-11.2007
▁ललित	-11.2008
▁क्रिसमस	-11.2009
▁चै	-11.2011
▁कम्प्यूटर	-11.2011
▁ट्रायल	-11.2014
▁बिटकॉइन	-11.2014
बिजनेस	-11.2015
वाना	-11.2016
र्त	-11.2016
▁बराबरी	-11.2016
▁पात्रता	-11.2018
ीकृत	-11.2018
Z	-11.2021
▁बदलना	-11.2025
▁भुवनेश्वर	-11.2026
▁कमज़ोर	-11.2026
▁लाभकारी	-11.2032
ies	-11.2032
▁सैनी	-11.2033
▁सृष्टि	-11.2034
▁संज्ञान	-11.2035
▁जगदीश	-11.2037
▁on	-11.2038
▁गुड़	-11.2041
▁फ्लोर	-11.2043
⋙	-11.2044
▁मजिस्ट्रेट	-11.2044
लाइफस्टाइल	-11.2046
इसमें	-11.2049
▁कोमल	-11.2052
▁बरेली	-11.2052
▁अंग्रेज़ी	-11.2054
▁सचमुच	-11.2056
▁मर्द	-11.206
▁एयरटेल	-11.2064
साई	-11.2068
▁स्टे	-11.2071
-11	-11.2072
्थ	-11.2073
▁चंदन	-11.2078
▁अख्तर	-11.2078
▁81	-11.2078
▁दस्तक	-11.208
у	-11.2082
▁वास्तविकता	-11.2084
▁कन्	-11.2087
▁गडकरी	-11.2088
▁कद	-11.209
▁बेसिक	-11.2091
▁BJP	-11.2094
▁एकीकृत	-11.2095
▁फ़िर	-11.2095
▁दिव्यांग	-11.2097
▁अतिक्रमण	-11.2098
▁कैट	-11.2101
एड	-11.2102
ha	-11.2102
▁गुहार	-11.2102
▁ट्रांस	-11.2106
▁सिक्योरिटी	-11.2107
▁ग्लास	-11.2108
▁व्यावहारिक	-11.2109
ैल	-11.2111
▁मामा	-11.2112
ν	-11.2115
▁जौनपुर	-11.2117
▁त्रुटि	-11.2117
जम्मू	-11.2119
जिला	-11.2119
▁बदलती	-11.2121
▁स्‍	-11.2122
▁गंदगी	-11.2122
▁जानकार	-11.2126
खर	-11.2126
▁कश्यप	-11.2132
▁आनन्द	-11.2134
वाया	-11.2134
▁पुत्री	-11.2135
▁सांग	-11.2141
▁तैयारियां	-11.2149
▁बड़	-11.215
▁रतन	-11.2151
ay	-11.2153
▁सच्ची	-11.2159
▁हेलीकॉप्टर	-11.2162
▁पिताजी	-11.2164
▁आचरण	-11.2165
▁धरण	-11.2167
ाळ	-11.2171
▁सफलतापूर्वक	-11.2171
▁मोटा	-11.2173
िंदर	-11.2175
▁जस	-11.2176
▁सिंगर	-11.2176
▁घटनाक्रम	-11.2177
▁प्रतिरोध	-11.2177
▁बदली	-11.2177
▁खुलने	-11.2179
▁नमस्कार	-11.218
▁बंदी	-11.2184
▁प्रतिनिधियों	-11.2188
प्रकाश	-11.2189
▁भो	-11.219
ुक	-11.2192
▁देसाई	-11.2192
▁मुम्बई	-11.2193
▁मज़बूत	-11.2195
▁फ़ैसला	-11.2197
▁कम्युनिस्ट	-11.2197
▁पड़ताल	-11.2198
▁संगीतकार	-11.2199
▁उतरने	-11.2199
▁सूखा	-11.22
ive	-11.2201
▁ओबामा	-11.2204
▁जिलाध्यक्ष	-11.2204
▁पूर्वोत्तर	-11.2205
▁लक्ष	-11.221
▁बाथरूम	-11.221
▁चलन	-11.2213
▁प्यास	-11.2216
▁भूपेश	-11.2217
▁हालिया	-11.2218
▁बसों	-11.2219
▁संक्षिप्त	-11.2221
▁उपलब्धता	-11.2223
▁महासागर	-11.2227
▁नशा	-11.2227
ैं	-11.2229
▁उतने	-11.2231
▁मांड	-11.2232
▁फील्ड	-11.2233
▁दहशत	-11.2234
▁कैलोरी	-11.2234
▁एकत्रित	-11.2235
उसके	-11.2237
▁सेक्शन	-11.2238
▁प्रशंसक	-11.2239
▁मांसपेशियों	-11.2239
▁Z	-11.2241
han	-11.2242
▁अमृतसर	-11.2243
▁निकासी	-11.2243
▁रोने	-11.2246
वट	-11.2247
▁लग्न	-11.2248
▁नतीजों	-11.2249
▁अंधेरे	-11.2252
▁बवाल	-11.2254
▁जनसभा	-11.2254
▁शायरी	-11.2259
▁ट्यूब	-11.2264
▁पिक्चर	-11.2265
▁लोड	-11.2266
▁सुरक्षाबलों	-11.2266
म्म	-11.2267
▁मू	-11.2269
▁रॉक	-11.227
▁माइकल	-11.2272
▁बौद्धिक	-11.2274
मीन	-11.2274
▁छूने	-11.2275
▁यद्यपि	-11.2278
▁नियोजन	-11.2279
▁मिस्र	-11.2279
▁सोसाइटी	-11.2283
▁घेतले	-11.2285
▁सर्वोत्तम	-11.2286
▁व्यवस्थित	-11.2287
um	-11.2289
▁स्पॉट	-11.2292
▁चोद	-11.2298
▁रेसिपी	-11.2298
▁आइडिया	-11.2299
ر	-11.23
दम	-11.2301
▁१८	-11.2305
и	-11.2305
यत	-11.2306
▁अस्थायी	-11.2307
▁इंडोनेशिया	-11.2307
▁द्रविड़	-11.2309
▁पेट्रोलियम	-11.2313
वर्ती	-11.2313
▁खाएं	-11.2315
▁स्ट्रीट	-11.2316
▁एसबीआई	-11.2317
▁संयम	-11.2317
▁पार्टियां	-11.2318
▁जदयू	-11.2319
किसान	-11.2322
▁यूएस	-11.2326
▁पड़ोस	-11.2326
▁वसंत	-11.2326
▁बालिका	-11.2328
▁जंगली	-11.2329
ंबर	-11.2335
्ब	-11.2337
्द	-11.2337
जरा	-11.2337
▁नीले	-11.2339
▁जावेद	-11.2339
▁सतत	-11.2339
ैस	-11.2342
▁बचाया	-11.2344
त्य	-11.2347
▁ब्राजील	-11.235
▁79	-11.235
▁शर्ट	-11.2351
▁बदन	-11.2356
▁असल्याची	-11.2357
▁73	-11.2357
▁तर्ज	-11.2358
¤	-11.2359
ल्याने	-11.2359
▁तप	-11.236
ावली	-11.236
▁निचे	-11.2361
ग़	-11.2362
ग्रा	-11.2364
▁मौन	-11.2364
.2.	-11.2371
▁नगरसेवक	-11.2372
▁निर्मल	-11.2372
▁स्वयंसेवक	-11.2372
▁प्रभा	-11.2373
कांत	-11.2373
डु	-11.2375
▁यूनाइटेड	-11.2375
▁क्लिप	-11.2375
मोबाइल	-11.2376
चित	-11.2376
▁मध्ये	-11.2378
▁सुनाया	-11.238
▁स्त्रियों	-11.2382
▁बुराई	-11.2382
▁पुष्कर	-11.2383
▁डाय	-11.2384
तरह	-11.2385
▁निवारण	-11.2389
मित	-11.2392
इक	-11.2395
▁बसे	-11.2397
ण्या	-11.24
ड्र	-11.2403
▁पहुंचते	-11.2403
▁आईपीएस	-11.2406
▁निर्मला	-11.2408
▁आवंटित	-11.2414
▁कुंजी	-11.2415
ेम	-11.2416
▁तंज	-11.2418
▁रहीम	-11.2418
ंती	-11.2419
▁Ch	-11.2421
▁अरोड़ा	-11.2422
▁स्तंभ	-11.2425
▁प्राइम	-11.2425
माला	-11.2428
▁एंकर	-11.2428
▁वसूल	-11.2429
▁डायरेक्ट	-11.2433
वालों	-11.2436
▁शत्रु	-11.2439
▁बदलकर	-11.2442
दाता	-11.2444
▁09	-11.2444
▁प्रीति	-11.2444
▁यांचे	-11.245
रोग	-11.2453
बाप	-11.2453
लिक	-11.2455
सीए	-11.2456
.....	-11.2456
सत्य	-11.2459
▁चिल्ला	-11.2459
▁भ्रमण	-11.246
ot	-11.2466
▁88	-11.2467
▁समुदायों	-11.2469
मौ	-11.2469
परि	-11.247
▁ओवैसी	-11.2471
▁उपाधि	-11.2472
कन	-11.2475
▁1998	-11.2476
▁राजेन्द्र	-11.2479
▁पहलवान	-11.2481
▁दिखते	-11.2482
▁सवारी	-11.2483
ब्लॉग	-11.2484
▁निर्देशों	-11.2492
वरून	-11.2497
▁दबंग	-11.2498
▁औषधि	-11.2499
▁भविष्यवाणी	-11.2499
,”	-11.25
▁मठ	-11.2502
▁प्रदेशों	-11.2502
ி	-11.2506
▁कुर	-11.2507
.0	-11.2507
▁बेबी	-11.2507
▁तादाद	-11.2509
▁ब्रिज	-11.2512
.25	-11.2514
▁दहेज	-11.2515
▁सच्चे	-11.2516
▁औरतों	-11.2516
▁मेगा	-11.2517
▁टच	-11.2518
▁चुप्पी	-11.2519
▁लालच	-11.2522
▁लद्दाख	-11.2523
▁डब्ल्यू	-11.2527
▁शाळा	-11.2529
▁शक्तियों	-11.2533
र्ण	-11.2533
▁विमर्श	-11.2536
▁Rs	-11.2538
▁लाइक	-11.2538
▁नोंद	-11.2538
आम	-11.2539
▁बंबई	-11.2539
▁एडमिशन	-11.254
▁शीतल	-11.2544
▁घेण्यात	-11.2546
▁योजने	-11.2548
स्ती	-11.2549
▁आयुष्मान	-11.2552
▁ट्रम्प	-11.2552
संबंधित	-11.2554
▁सब्सक्राइब	-11.2562
▁प्राइस	-11.2562
प्ल	-11.2562
▁संतुलित	-11.2562
▁खासतौर	-11.2566
▁वैध	-11.2567
ीच्या	-11.2568
▁ब्ल	-11.257
а	-11.257
▁मसाला	-11.2573
सेट	-11.2574
समाज	-11.2576
▁अमन	-11.2578
नार	-11.2579
▁पीना	-11.258
▁आलेल्या	-11.258
▁कू	-11.2584
▁ग्रहों	-11.2586
▁हंसी	-11.2588
▁ग्रोथ	-11.2588
▁विश	-11.2589
▁शहरातील	-11.259
▁वाहतूक	-11.2591
▁बची	-11.2594
▁अर्चना	-11.2596
▁69	-11.2596
▁शिरकत	-11.2596
▁निकलता	-11.2598
▁’’.	-11.26
▁गर्ल	-11.26
▁रवींद्र	-11.2601
▁चेन	-11.2603
ul	-11.2604
▁२०	-11.2606
▁टैबलेट	-11.2608
▁रचनात्मक	-11.261
▁तहसीलदार	-11.2611
▁99	-11.2611
▁ऑपरेटिंग	-11.2614
▁अमरिंदर	-11.2615
▁सख्ती	-11.2615
▁सुधारने	-11.2617
▁रीति	-11.2617
▁चुपचाप	-11.2619
▁रेफर	-11.262
साहित्य	-11.262
पक	-11.2623
वाणी	-11.2628
कॉपी	-11.2628
▁दिखाता	-11.2632
एमसी	-11.2632
▁महासभा	-11.2633
गम	-11.2634
▁वॉल	-11.2634
.*	-11.2638
▁सन्दर्भ	-11.2639
▁ईडी	-11.2641
▁h	-11.2641
न्हा	-11.2644
▁प्रकोप	-11.2645
▁हॉ	-11.2647
भूत	-11.2648
ग्रह	-11.2652
क्‍त	-11.2653
м	-11.2655
▁धामी	-11.2655
▁सेवक	-11.2655
▁08	-11.2658
▁निष्पक्ष	-11.266
▁बांट	-11.2661
▁टूटने	-11.2663
▁कहलाता	-11.2663
ज्	-11.2667
▁अंबेडकर	-11.2669
▁94	-11.267
▁चिंतन	-11.2671
बिग	-11.2672
▁दुकानदार	-11.2679
▁.*	-11.2681
▁पौराणिक	-11.2682
▁गड़बड़ी	-11.2683
▁नोटों	-11.2683
▁विक्की	-11.269
दक्षिण	-11.2691
▁पुजारी	-11.2692
▁करण्याची	-11.2694
▁सातवें	-11.2695
▁नकदी	-11.2697
▁थीम	-11.27
▁निदेशालय	-11.2702
एसपी	-11.2704
▁इंस्टॉल	-11.2707
▁2018-19	-11.2709
▁स्कूटर	-11.271
▁आईआईटी	-11.2713
▁फ्रेंच	-11.2716
▁गिलास	-11.2716
▁चौंकाने	-11.2717
▁96	-11.2719
▁बस्तर	-11.2721
विधि	-11.2723
▁पते	-11.2723
▁अंतराल	-11.2725
▁जॉर्ज	-11.2726
▁साम	-11.2729
▁टीएमसी	-11.2729
लाई	-11.2729
▁मिळ	-11.273
▁सुधीर	-11.2731
▁मद	-11.2731
▁केलेल्या	-11.2731
दू	-11.2733
▁केदारनाथ	-11.2734
▁आजतक	-11.2735
▁धनराशि	-11.2737
▁आएंगी	-11.2743
ामध्ये	-11.2745
▁सूचीबद्ध	-11.2745
▁यूँ	-11.2747
▁खरीदें	-11.2747
▁अख़बार	-11.2747
जनों	-11.275
▁परिश्रम	-11.2752
▁प्लेटफार्म	-11.2753
▁रामपुर	-11.2757
▁साठ	-11.2758
▁शिलान्यास	-11.276
▁जाट	-11.276
▁जवाहर	-11.2764
▁संध्या	-11.2765
फ़ी	-11.2766
▁सवा	-11.2768
विले	-11.277
▁पत्रों	-11.277
▁प्रतिबद्धता	-11.2771
▁भरत	-11.2773
सेल	-11.2773
▁स्कूली	-11.2774
▁निर्दलीय	-11.2778
सागर	-11.2779
टिया	-11.278
▁मान्य	-11.2782
&	-11.2783
केट	-11.2786
▁.‘	-11.2787
लेखक	-11.2788
▁जोड़ें	-11.2788
▁दामों	-11.2793
▁बोलना	-11.2793
▁सच्चा	-11.2798
▁इलेवन	-11.2799
▁कड़ा	-11.2804
▁क्रे	-11.281
▁सनातन	-11.2811
▁कामगार	-11.2813
▁सुमन	-11.2813
▁वास	-11.2815
▁ठेव	-11.2816
▁प्ल	-11.282
क्शन	-11.2821
▁हावी	-11.2826
▁मालिकों	-11.2827
▁चाहेंगे	-11.283
ोप	-11.2836
▁800	-11.2837
िज़	-11.2838
▁प्रमाणपत्र	-11.2838
शिया	-11.2841
बैक	-11.2844
▁पेड़ों	-11.2845
▁जीना	-11.2846
▁तोमर	-11.2852
छोटी	-11.2852
▁दर्जनों	-11.2853
▁धर्मेंद्र	-11.2853
क्का	-11.286
▁संरक्षक	-11.286
▁अग्रिम	-11.286
▁g	-11.2866
▁पटरी	-11.2868
▁वैन	-11.2869
सुन	-11.2869
▁बट	-11.287
▁शान	-11.2872
ाइट	-11.2872
▁परिदृश्य	-11.2876
ेय	-11.2878
▁हिंदुत्व	-11.288
▁Y	-11.2881
▁खर	-11.2883
om	-11.2884
▁छठे	-11.2885
स्तर	-11.2891
क्त	-11.2894
▁पोर्न	-11.2896
ूक	-11.2899
▁स्थानिक	-11.2902
वर्धन	-11.2905
नव	-11.2906
2018	-11.2907
▁कोविंद	-11.2907
▁जै	-11.2908
▁आटा	-11.2909
▁सहयोगियों	-11.2911
▁अजमेर	-11.2911
▁शॉर्ट	-11.2912
.3.	-11.2913
▁कराते	-11.2914
▁पार्किंग	-11.2914
▁जातीय	-11.2915
▁बापू	-11.2919
▁गैलेक्सी	-11.292
▁श्रमिक	-11.2921
▁लोहा	-11.2923
वर्	-11.2924
▁ज़ाहिर	-11.2924
ान्त	-11.2928
▁जैक	-11.2931
▁यांचा	-11.2932
कृष्ण	-11.2939
▁नॉन	-11.2939
▁राजे	-11.2941
▁सिद्धांतों	-11.2941
▁पुराण	-11.2944
▁:-.	-11.2946
▁आस्ट्रेलिया	-11.2947
▁छोड़ना	-11.2947
▁वर्चुअल	-11.2948
ant	-11.2949
▁सीरीज़	-11.2949
्ले	-11.295
▁वाणिज्य	-11.295
▁स्टार्ट	-11.295
ا	-11.2951
▁पुलवामा	-11.2963
▁स्पिन	-11.2964
▁अतुल	-11.2964
▁91	-11.2968
▁कोट	-11.2969
▁प्राणी	-11.2972
▁एंटरटेनमेंट	-11.2973
▁ठग	-11.2976
▁आएं	-11.2977
म्मा	-11.2979
▁पंचायतों	-11.2981
▁दुर्भाग्य	-11.2982
देवी	-11.2983
▁92	-11.2983
▁जैव	-11.2984
▁साध	-11.299
▁घाव	-11.2991
▁एलईडी	-11.2994
▁दिखाना	-11.2996
▁प्रिंस	-11.2998
▁क्यूंकि	-11.2998
▁आह	-11.2999
▁विद	-11.3
de	-11.3
बुल	-11.3001
▁वीरेंद्र	-11.3008
▁पीटा	-11.3009
▁प्रिया	-11.301
हेल्थ	-11.301
▁लाठी	-11.301
▁चुरा	-11.3011
बच्चों	-11.3012
▁बनावट	-11.3012
▁मोबाईल	-11.3014
▁क्रांतिकारी	-11.3015
▁दबाने	-11.3016
▁चौथ	-11.3016
▁सम्बन्धित	-11.3017
्मा	-11.3019
▁मिथुन	-11.302
माने	-11.302
▁प्रजाति	-11.3021
महिला	-11.3021
о	-11.3022
▁CM	-11.3028
▁रोमांस	-11.3028
झारखंड	-11.3029
नारायण	-11.3031
▁संधि	-11.3035
ST	-11.3037
▁झंडा	-11.3038
लाइफ	-11.3043
▁सिगरेट	-11.3045
ासन	-11.3046
▁दोन्ही	-11.3047
▁दीवारों	-11.305
ho	-11.3053
क्ल	-11.3055
▁व्यापारिक	-11.3056
जहां	-11.3056
त्ते	-11.3058
▁सौरभ	-11.3059
▁माल्या	-11.306
▁पेयजल	-11.3061
ानु	-11.3062
▁नमी	-11.3064
▁संबद्ध	-11.3064
▁संरक्षित	-11.3066
▁ड्रोन	-11.3066
▁बनेंगे	-11.3067
▁अध्यापक	-11.307
▁गैंगरेप	-11.3071
ine	-11.3072
▁बोध	-11.3076
▁बादाम	-11.3079
स्त्र	-11.3084
२०	-11.3085
व्यवस्था	-11.3086
▁बयानों	-11.3086
▁सर्जन	-11.3091
▁महिंद्रा	-11.3093
▁ईस्ट	-11.3093
▁बाला	-11.3096
▁निवासियों	-11.3096
▁97	-11.3097
ढी	-11.31
▁शिष्य	-11.3101
▁गाया	-11.3102
▁इंश्योरेंस	-11.3104
.05	-11.3105
▁मुस्कुरा	-11.3105
▁रहो	-11.3107
▁वर्णित	-11.3107
α	-11.3109
▁विमानों	-11.3109
▁प्रे	-11.3112
▁मतदार	-11.3114
▁रिश्तेदारों	-11.3115
▁आयरन	-11.3116
▁डालना	-11.3118
▁अज	-11.3119
▁app	-11.312
و	-11.312
▁अनुशासन	-11.3122
▁सुरेंद्र	-11.3124
▁कमाए	-11.3125
▁बनवा	-11.3128
▁आविष्कार	-11.3128
▁लंबित	-11.3128
▁प्रजा	-11.3129
५	-11.313
▁खनिज	-11.3132
दर्शन	-11.3133
▁आंशिक	-11.3139
▁अंतर्	-11.3139
▁चाट	-11.314
▁रहमान	-11.314
ियल	-11.3141
क्षण	-11.3142
क्राइम	-11.3146
▁बाघ	-11.3147
वण	-11.3147
▁हाजिर	-11.315
▁उठकर	-11.315
▁हुयी	-11.3153
▁बैच	-11.3154
▁योनि	-11.3155
▁निश्चय	-11.3157
▁कोर	-11.3158
ोड	-11.3158
▁COVID	-11.3158
▁अब्दुल्ला	-11.3159
ill	-11.3163
▁विजयी	-11.3165
▁मानती	-11.3165
▁1980	-11.3165
▁शक्यता	-11.3166
▁Home	-11.3167
▁पौधा	-11.3168
िकी	-11.317
▁गण	-11.3171
ॉक	-11.3172
न्द्र	-11.3173
▁फौज	-11.3174
▁वोटर	-11.3177
▁खाड़ी	-11.3178
300	-11.318
▁मुह	-11.318
▁अध	-11.318
▁स्मरण	-11.3181
मंत्र	-11.3183
▁रंगीन	-11.3183
▁नियामक	-11.3185
▁पार्वती	-11.3186
▁अधिकृत	-11.3187
▁बढ़ाते	-11.3193
▁माइक	-11.3193
लोग	-11.3194
▁विपणन	-11.3196
▁चॉकलेट	-11.3197
▁आयुर्वेदिक	-11.3199
ढ़ा	-11.3199
▁क्रॉस	-11.3205
▁जोड़ों	-11.3208
तल	-11.3208
▁अफ्रीकी	-11.321
▁नकद	-11.3211
▁मुकाम	-11.3212
वाड़ा	-11.3214
शुभ	-11.3216
▁बनें	-11.3219
उनके	-11.322
▁किला	-11.3224
धाम	-11.3225
▁दिलों	-11.3227
रान	-11.3228
▁महावीर	-11.3229
▁वैक्सीनेशन	-11.3229
मस	-11.3233
▁दर्दनाक	-11.3235
ाइटिस	-11.3237
.•	-11.3238
▁नस	-11.3239
▁व्यंजन	-11.3239
▁कुशवाहा	-11.324
▁स्टडी	-11.3242
▁नकार	-11.3245
▁सीआरपीएफ	-11.3246
▁पका	-11.3246
बात	-11.3247
▁इस्लामी	-11.3248
▁तलाशी	-11.325
▁कहेंगे	-11.325
▁लेखा	-11.3252
IN	-11.3253
ाए	-11.3253
▁मिट	-11.3255
▁बुमराह	-11.3257
▁केबल	-11.3258
उधर	-11.3258
man	-11.326
▁चतुर्वेदी	-11.3265
▁सकेगी	-11.3265
▁जगा	-11.3266
वाय	-11.327
वरील	-11.327
मिक	-11.3272
▁अभय	-11.3273
▁प्रमाणित	-11.3273
▁बैलेंस	-11.3274
केंद्र	-11.3275
▁खांसी	-11.3276
▁बैक्टीरिया	-11.3276
▁125	-11.3277
न्ड	-11.3278
▁अवलोकन	-11.3279
▁पतन	-11.3279
▁नर्मदा	-11.3279
▁पायी	-11.328
▁लोहे	-11.3282
▁जेट	-11.3283
मार्च	-11.3283
▁चिह्न	-11.3283
▁एव	-11.3284
▁तुमसे	-11.3284
ऊं	-11.3285
▁पैरा	-11.3287
▁साकार	-11.3288
ाह	-11.3289
▁टाक	-11.3289
श्त	-11.329
ियस	-11.3294
▁माफिया	-11.3301
▁प्रोटोकॉल	-11.3304
ेक्शन	-11.3304
▁झगड़ा	-11.3305
▁केवळ	-11.3309
▁समर्पण	-11.3309
▁कांस्य	-11.3309
▁चमत्कार	-11.3312
▁घोड़े	-11.3312
▁बीती	-11.3312
▁बाँध	-11.3313
▁बहा	-11.3318
▁हमलावर	-11.3318
प्रा	-11.332
मोहन	-11.3321
▁घुटने	-11.3323
▁फैली	-11.3324
▁शिल्प	-11.3325
▁नकल	-11.3327
▁बसा	-11.3329
ुअल	-11.3332
▁छेड़	-11.3333
▁एसटी	-11.3334
▁नजदीकी	-11.3334
क्षा	-11.3337
▁रिलेशनशिप	-11.3337
▁ट्रे	-11.3343
▁अनजान	-11.3344
▁न्‍यूज	-11.3345
▁रोबोट	-11.3348
▁वकीलों	-11.3349
▁बूब्स	-11.3354
da	-11.3354
▁साक्ष्य	-11.3356
▁YouTube	-11.3357
▁शोधकर्ताओं	-11.336
पोर्ट	-11.3362
ेटर	-11.3364
▁असता	-11.3365
टेन	-11.3367
बेल	-11.3367
ل	-11.3368
ya	-11.3369
▁क्षमा	-11.3372
▁k	-11.3374
▁अवसाद	-11.3376
▁महाराजा	-11.3377
▁Co	-11.3377
इल	-11.3378
▁बाबत	-11.338
पाठ	-11.338
लम	-11.3381
▁प्रशिक्षित	-11.3382
▁क्विंटल	-11.3384
▁बेरोजगार	-11.3385
ट्ट	-11.3386
▁दुकानें	-11.3389
स्य	-11.3389
▁महाजन	-11.3389
▁रहाणे	-11.339
▁कन	-11.3395
▁गाडी	-11.3397
कत	-11.3398
‬	-11.3398
▁93	-11.3401
▁स्टूडेंट	-11.3402
▁एमएस	-11.3404
▁हज	-11.3405
▁धोने	-11.3407
▁.6.	-11.3409
▁मानकों	-11.341
▁सर्किट	-11.341
▁गन्ना	-11.3411
▁समीकरण	-11.3411
▁जयंत	-11.3412
▁फुटेज	-11.3412
▁डेरा	-11.3415
सै	-11.3417
▁राज्‍य	-11.3418
▁04	-11.342
▁विशेषताएं	-11.3422
ی	-11.3422
▁अन्तर	-11.3423
पै	-11.343
▁संयंत्र	-11.3431
▁आल	-11.3432
▁कैम	-11.3432
▁व्	-11.3437
▁चैन	-11.3438
जैसा	-11.3441
▁रहिए	-11.3446
▁उपमुख्यमंत्री	-11.3446
▁नम	-11.3448
▁गड़बड़	-11.3449
▁रिचार्ज	-11.3449
▁मिन	-11.345
▁नेत्र	-11.3451
▁जजों	-11.3451
▁इरादा	-11.3452
▁बुलंद	-11.3454
▁तरक्की	-11.3455
▁देशी	-11.3455
▁क्लीन	-11.3456
▁कार्यशाला	-11.3457
▁वरदान	-11.3457
▁1947	-11.346
▁समझे	-11.3463
▁अम	-11.3465
ेज़	-11.3465
▁शिक्षित	-11.3465
▁w	-11.3467
▁निर्णायक	-11.3468
▁उत्सर्जन	-11.3468
▁लेगी	-11.3469
mp	-11.3472
▁इन्द्र	-11.3473
▁जितेंद्र	-11.3474
▁मलेशिया	-11.3477
▁घुसपैठ	-11.3477
▁पन्ना	-11.3478
▁कण	-11.348
▁दंगों	-11.348
▁मॉल	-11.3481
▁सैंपल	-11.3485
mo	-11.3486
गंगा	-11.3486
ोगे	-11.3491
▁औरंगाबाद	-11.3494
▁विकार	-11.3496
▁जीभ	-11.3497
▁भारद्वाज	-11.3499
▁मेयर	-11.35
.+	-11.3503
▁क्वार्टर	-11.3504
▁वृद्ध	-11.3506
▁छु	-11.3506
▁पॉप	-11.3506
.0.	-11.3506
स्ट्र	-11.3506
▁नगरी	-11.3508
▁मृत्यू	-11.3508
▁देखिये	-11.3509
▁विंडो	-11.351
▁जानकारियां	-11.3512
▁डायरी	-11.3513
▁अन्त	-11.3515
▁बॉम्बे	-11.3515
▁स्वार्थ	-11.3521
पोस्ट	-11.3521
▁सीखना	-11.3522
मणि	-11.3524
ाचार्य	-11.3525
फिल	-11.3527
▁स्टेटस	-11.3527
▁होस्ट	-11.3528
▁असाधारण	-11.3529
ist	-11.3529
▁रहित	-11.3534
्रि	-11.3535
▁फोटोज	-11.3536
▁अवसरों	-11.3536
▁झूठे	-11.3538
ल्‍	-11.354
रक	-11.3542
▁ऊंचा	-11.3543
विल	-11.3545
▁आज़ाद	-11.3546
▁पिक	-11.3547
▁कठिनाई	-11.355
▁ड्रामा	-11.3552
रियों	-11.3554
ण्याचे	-11.3555
बंदी	-11.3557
ंसी	-11.3558
ैंड	-11.3558
▁त्याला	-11.3561
▁सप्तर्षि	-11.3561
रूम	-11.3562
▁आचार	-11.3564
▁कांस्टेबल	-11.3564
गेट	-11.3565
म्बा	-11.3567
▁मनाते	-11.3567
▁महंत	-11.3569
▁तथाकथित	-11.3571
▁वयस्क	-11.3572
▁पुस्तकों	-11.3578
▁मीन	-11.3579
स्पोर्ट्स	-11.358
▁प्रॉपर्टी	-11.3581
▁पैड	-11.3582
▁कैसीनो	-11.3584
▁उमा	-11.3586
प्त	-11.3587
▁हास्य	-11.3589
▁संभाला	-11.359
कर्ताओं	-11.3592
▁महामंत्री	-11.3594
▁अप्लाई	-11.3596
▁स्टीव	-11.3599
पीएस	-11.3599
फ्ट	-11.3601
▁मुगल	-11.3605
▁विधा	-11.3605
▁करणे	-11.3605
▁भयंकर	-11.3607
▁t	-11.3608
क्रिकेट	-11.3608
▁रनौत	-11.3608
▁दीजिये	-11.361
▁मृतकों	-11.3611
▁07	-11.3614
गड	-11.3616
▁अहंकार	-11.3618
▁थिएटर	-11.3618
▁सीने	-11.362
▁प्रदर्शनकारियों	-11.3622
▁शिवपाल	-11.3623
जाने	-11.3624
ंटा	-11.3625
▁ग्रैंड	-11.3625
पेक्षा	-11.3626
▁देओल	-11.3627
▁नवाज	-11.3627
▁दूरसंचार	-11.3628
▁तालमेल	-11.363
▁बनेगी	-11.3631
▁वीजा	-11.3631
▁89	-11.3633
▁माई	-11.3633
▁मुद्रास्फीति	-11.3636
▁स्टेशनों	-11.3636
▁शुक्रिया	-11.3636
पृष्ठ	-11.3636
▁जताते	-11.3639
▁सम्पर्क	-11.3639
▁शोभा	-11.364
▁पेय	-11.364
▁वैभव	-11.3641
कालीन	-11.3642
▁गंध	-11.3642
ंव	-11.3643
▁स्वा	-11.3645
▁ड्रग	-11.3646
गुण	-11.3649
▁डिमांड	-11.365
▁अनशन	-11.3652
॥.	-11.3653
ce	-11.3655
▁इसपर	-11.3655
▁ग़ज़ल	-11.3657
क्‍स	-11.3658
▁कलाम	-11.3659
▁धरने	-11.3659
ेंगी	-11.3661
फै	-11.3662
▁जनहित	-11.3663
▁ख़	-11.3663
▁फैलने	-11.3666
▁डेली	-11.3667
सुबह	-11.3668
8%	-11.3669
▁ईंट	-11.3672
▁विश्वविद्यालयों	-11.3673
▁बढा	-11.3673
▁करण्याचा	-11.3676
▁एलर्जी	-11.3676
▁बांधकाम	-11.3677
▁स्‍व	-11.3677
▁ज़्यादातर	-11.3679
▁कतार	-11.368
स्वामी	-11.3681
▁पनीर	-11.3685
किस	-11.3685
▁पायदान	-11.3685
ताल	-11.3685
▁पेंटिंग	-11.3687
▁रुके	-11.3687
▁Android	-11.3688
▁ज़िम्मेदारी	-11.3691
▁नामित	-11.3691
▁मुस्कान	-11.3693
ांसाठी	-11.3695
द्य	-11.3696
▁नवजात	-11.3696
बिट	-11.3697
▁कस्टम	-11.37
ताओं	-11.3704
op	-11.3706
धू	-11.3707
▁अनुसरण	-11.3707
▁रिंग	-11.3709
ig	-11.3709
हटाएं	-11.3712
▁17.	-11.3713
▁झु	-11.3714
िना	-11.3714
▁शत	-11.3714
▁चीज़ों	-11.3715
▁सेवानिवृत्त	-11.372
▁प्लेयर	-11.3721
▁गरिमा	-11.3722
▁जालपृष्ठ	-11.3722
▁बेचा	-11.3724
*.	-11.3725
▁घटित	-11.3727
सर्व	-11.3728
▁चौकशी	-11.373
ik	-11.3731
▁सेटिंग	-11.3733
▁समाप्ति	-11.3734
▁सोलर	-11.3734
▁चिकित्सकों	-11.3736
ोला	-11.3736
▁वास्तु	-11.3736
▁थोडा	-11.3737
▁निवडणुकीत	-11.3737
▁करवाना	-11.3739
▁श्र	-11.3739
▁ईवीएम	-11.3742
▁बर्दाश्त	-11.3745
▁फेस्टिवल	-11.375
▁कार्यकारिणी	-11.3751
▁टास्क	-11.3751
▁१२	-11.3752
▁अंगों	-11.3753
▁टोक्यो	-11.3754
▁चादर	-11.3756
▁टोपी	-11.3758
.11	-11.3759
▁नर्स	-11.3761
್	-11.3762
▁मिश्रित	-11.3763
इश	-11.3763
ौं	-11.3763
▁87	-11.3764
▁साँस	-11.3764
▁.3	-11.3765
▁उतारने	-11.3766
▁लगेगी	-11.3767
▁दमन	-11.3769
▁इराक	-11.3772
▁चूस	-11.3772
▁डीजीपी	-11.3772
▁सरसों	-11.3774
▁पुरूष	-11.3775
▁बीकानेर	-11.3775
▁फेक	-11.3776
▁नीम	-11.3778
ंटी	-11.378
▁माय	-11.3781
▁निहित	-11.3781
ee	-11.3783
▁फेमस	-11.3784
▁हड्डी	-11.3785
▁हिन्दुओं	-11.3786
ाध्यक्ष	-11.3791
▁प्रतिबद्ध	-11.3792
▁1996	-11.3795
▁१५	-11.3795
▁सैन	-11.3796
▁विज	-11.3798
▁करणार्‍या	-11.3799
▁2016-17	-11.3801
ाधिकारी	-11.3801
▁उनपर	-11.3801
▁<	-11.3803
बाबत	-11.3804
▁नवरात्रि	-11.3805
▁अबतक	-11.3805
▁अमेठी	-11.3805
▁खत	-11.3808
▁आश्चर्यजनक	-11.3809
जनक	-11.3812
▁अद्वितीय	-11.3813
▁ओह	-11.3813
▁उत्तरप्रदेश	-11.3816
▁फर	-11.3818
दिया	-11.3818
▁स्थिरता	-11.382
▁India	-11.3821
र्प	-11.3826
▁ब्लाक	-11.3829
▁प्यारी	-11.3829
▁खोजें	-11.383
▁16.	-11.3834
▁मुजफ्फरपुर	-11.3835
▁मीठा	-11.3836
▁प्रभात	-11.3841
▁शहरात	-11.3842
▁काटकर	-11.3842
इट	-11.3842
▁संवेदना	-11.3843
िब	-11.3848
▁डीसी	-11.385
▁कन्हैया	-11.3851
▁प्रमाणात	-11.3854
▁मालिश	-11.3855
▁तालिका	-11.3857
▁मनोवैज्ञानिक	-11.3858
▁क्लासिक	-11.3862
▁एक्सेस	-11.3863
har	-11.3863
▁देवगन	-11.3864
▁पिछड़ा	-11.3864
▁गुरुग्राम	-11.3865
▁ढा	-11.3865
▁निवेशक	-11.3867
▁गर्ग	-11.3867
ऽ	-11.3867
सामान्य	-11.3871
▁दुरुपयोग	-11.3873
▁कुटुंब	-11.3876
खाना	-11.3876
▁प्रतियोगी	-11.3876
जनसांख्यिकी	-11.3879
▁पहाड़ों	-11.3879
▁वाय	-11.388
▁वाशिंगटन	-11.388
▁जीन	-11.3881
▁आक्रोश	-11.3885
ड्या	-11.3889
▁संप	-11.3891
▁]	-11.3891
▁आज्ञा	-11.3896
▁लैंड	-11.3899
▁मीना	-11.39
्यूट	-11.39
▁महानगर	-11.3901
▁कपल	-11.3901
▁प्वाइंट	-11.3902
लिस	-11.3904
▁घटाने	-11.3904
▁वेग	-11.3905
▁मसलन	-11.3905
▁सहवाग	-11.3905
▁सचिवालय	-11.391
सत	-11.3911
▁नबी	-11.3911
▁तैनाती	-11.3911
▁नस्ल	-11.3914
खाने	-11.3914
ानुसार	-11.3914
ag	-11.3915
▁लॉस	-11.3916
▁बैडमिंटन	-11.3916
▁आल्या	-11.3917
▁प्रिंसिपल	-11.392
▁याची	-11.392
▁७	-11.3921
Tags	-11.3923
▁इंजेक्शन	-11.3923
▁संलग्न	-11.3923
▁मिळत	-11.3925
ت	-11.3933
▁कस्बे	-11.3938
▁करणार	-11.394
रार	-11.3941
ड़िया	-11.3942
▁सांगली	-11.3943
▁प्रोडक्ट्स	-11.3943
▁कमरा	-11.3945
्का	-11.3946
▁फ्रेम	-11.3947
▁म्हणजे	-11.395
▁पंख	-11.395
▁रामनाथ	-11.3953
▁घोल	-11.3953
▁मंदी	-11.3954
▁उन्नाव	-11.3954
▁इलाका	-11.3956
ance	-11.3957
▁सीडी	-11.396
▁बढ़ाई	-11.3963
°	-11.3964
▁दलील	-11.3965
MP	-11.3965
▁विगत	-11.3966
▁संगत	-11.3966
▁विश्‍व	-11.3967
गढ	-11.3967
▁अकेली	-11.397
▁ज्वाइन	-11.3973
न्या	-11.3976
▁नाशिक	-11.3976
▁फाड़	-11.3977
▁साइज	-11.3978
▁वेक्टर	-11.398
▁उन्नति	-11.3982
▁आवेदक	-11.3983
▁जुनून	-11.3985
▁मेनू	-11.3986
▁मशीनों	-11.3992
▁Published	-11.3995
ोट	-11.3995
▁गोस्वामी	-11.3995
▁चाहत	-11.3997
▁मुल्क	-11.3999
▁प्यारे	-11.4001
▁पूर्वानुमान	-11.4003
▁हड़कंप	-11.4003
age	-11.4005
▁गूंज	-11.4005
अव	-11.4006
di	-11.4006
▁प्रातः	-11.401
▁घेरे	-11.4011
▁दुर्	-11.4012
▁अनूप	-11.4015
▁अंधेरा	-11.4016
▁एनसीपी	-11.4016
▁इंडस्ट्रीज	-11.4026
ीचे	-11.4027
▁लागले	-11.4029
मानी	-11.4029
▁खण्ड	-11.4031
▁उच्चारण	-11.4033
.18	-11.4033
उल	-11.4034
▁वाणिज्यिक	-11.4035
▁आपत्तिजनक	-11.4036
▁टकराव	-11.4038
▁प्रजनन	-11.4038
बैंक	-11.4039
▁स्कैन	-11.404
ीम	-11.4041
[	-11.4044
▁करुन	-11.4047
▁गोपनीयता	-11.4052
▁तोड़ा	-11.4057
नुमा	-11.4057
▁हक़	-11.4059
ub	-11.406
▁स्टै	-11.406
▁बहिष्कार	-11.4062
▁मजबूरी	-11.4065
बिन	-11.407
अरे	-11.4072
▁चक्रवर्ती	-11.4072
वश	-11.4072
▁लता	-11.4074
▁समर	-11.4083
▁चिर	-11.4092
▁दांतों	-11.4092
▁कच्चा	-11.4093
▁मुनि	-11.4094
▁अपराधों	-11.4094
▁जायजा	-11.41
▁आमने	-11.4102
▁पीपल	-11.4103
गुजरात	-11.4105
संपादित	-11.4105
▁मिटा	-11.4106
▁पांड्या	-11.4107
▁ब्राउन	-11.4108
▁किशोरी	-11.411
श्र	-11.4111
रै	-11.4113
▁रिकवरी	-11.4114
▁आईफोन	-11.4118
▁अफवाह	-11.4126
▁सरकारने	-11.4127
व्या	-11.4129
▁करण्याचे	-11.413
▁कृत्रिम	-11.4131
▁ज्या	-11.4133
▁सोते	-11.4135
▁उल्टा	-11.4137
3%	-11.4139
▁उद्यम	-11.4139
▁रवैया	-11.414
म्बर	-11.4142
▁नमाज	-11.4142
▁कर्नल	-11.4143
कारों	-11.4144
▁बू	-11.4144
▁चहल	-11.4144
▁प्रान्त	-11.4144
▁भरकर	-11.4145
▁लत	-11.4147
▁.2	-11.4148
▁रूपों	-11.4152
▁हीरा	-11.4152
▁Facebook	-11.4153
▁108	-11.4156
▁प्रवर्तन	-11.4156
▁भैंस	-11.4156
▁जर	-11.4158
▁विर	-11.4159
▁यशवंत	-11.4161
मध्यप्रदेश	-11.4165
▁क्रिप्टो	-11.4166
थर	-11.4166
▁थोक	-11.4167
▁वृत्त	-11.4171
▁नौजवान	-11.4171
कता	-11.4173
▁चाहा	-11.4174
▁खरीदते	-11.4175
▁तहरीर	-11.4176
▁विश्राम	-11.4176
▁राशियों	-11.4178
▁राजी	-11.4179
▁चलाना	-11.418
िस्तान	-11.418
▁मणि	-11.4182
▁सैयद	-11.4185
ي	-11.4185
▁पेशे	-11.4186
▁आहत	-11.4187
▁आघाडी	-11.4193
▁धुन	-11.4194
▁लिव	-11.4195
▁पिट	-11.4195
▁(19	-11.4196
▁पाबंदी	-11.4196
म्स	-11.4197
د	-11.4197
▁तुम्हे	-11.4198
▁d	-11.4198
्यात	-11.4199
▁भोज	-11.42
▁बृहस्पतिवार	-11.4201
▁दुखद	-11.4204
क्योंकि	-11.4205
सिटी	-11.4207
▁प्रदर्शनी	-11.421
▁ज़रा	-11.4211
ॉस	-11.4213
▁क्षतिग्रस्त	-11.4213
▁दस्तावेज़	-11.4214
▁सेठ	-11.4215
ष्	-11.4216
न्यूज़	-11.4219
▁भेड़	-11.4221
▁चढ़कर	-11.4221
विध	-11.4227
▁दृढ़	-11.4227
▁दू	-11.4228
▁संन्यास	-11.4228
▁सुमारास	-11.4228
▁प्रगतिशील	-11.4228
▁रूचि	-11.4229
शंकर	-11.423
▁किसके	-11.423
▁प्रायः	-11.4232
राजा	-11.4234
▁हार्मोन	-11.4237
ash	-11.4239
Latest	-11.4241
▁असामान्य	-11.4241
▁¥	-11.4243
▁ठंडे	-11.4246
▁1991	-11.4247
▁मुस्लिमों	-11.4248
▁द्वि	-11.4248
▁प्रोफेशनल	-11.4251
▁क्षेत्रफल	-11.4253
▁सिल्वर	-11.4253
▁संज्ञा	-11.4254
▁निजात	-11.4255
▁संगठित	-11.4256
कृषि	-11.4257
▁बताओ	-11.4261
▁विशेषकर	-11.4261
▁प्रत्याशियों	-11.4267
▁खासी	-11.4267
▁गयीं	-11.4268
▁बढ़ना	-11.4268
▁इजरायल	-11.4268
▁कदर	-11.427
▁अरुणाचल	-11.427
▁त्याच्या	-11.4279
▁संपादन	-11.428
▁अपेक्षाकृत	-11.428
▁बद	-11.428
ाधिकार	-11.4282
एसटी	-11.4287
्‍यू	-11.4287
प्प	-11.4287
ैक्ट	-11.4291
▁पहुँचने	-11.4292
▁गोबर	-11.4293
िज्म	-11.4294
▁इमरजेंसी	-11.4298
▁टूर	-11.43
ोक	-11.43
▁संभाग	-11.4301
▁ग्रस्त	-11.4304
ve	-11.4304
अमेरिका	-11.4305
▁किचन	-11.4306
ाकर	-11.4306
ण्यास	-11.4308
ard	-11.431
▁डिपार्टमेंट	-11.431
▁आयुष	-11.4312
▁जखमी	-11.4313
▁दिवंगत	-11.4313
▁गुर्जर	-11.4313
दायक	-11.4316
ल्फ	-11.4317
▁धनी	-11.4319
पांच	-11.4319
▁बलि	-11.4321
▁परेड	-11.4323
▁पूर्वांचल	-11.4325
▁फैले	-11.4327
▁लगेंगे	-11.4327
all	-11.433
▁वेळ	-11.4332
▁ताला	-11.4333
▁छल	-11.4334
▁तुला	-11.4335
ind	-11.4338
दोनों	-11.434
हरे	-11.4342
▁टांग	-11.4346
श्च	-11.4347
▁पेटीएम	-11.4348
▁बढ़ाता	-11.4348
फ़र	-11.4348
▁पॉइंट	-11.4349
▁अफगान	-11.435
इसका	-11.4351
▁पक्षियों	-11.4351
▁700	-11.4351
▁बंदरगाह	-11.4353
▁यूरो	-11.4355
ट्री	-11.4357
▁वैचारिक	-11.4359
▁खासा	-11.4363
▁-19	-11.4366
▁पॉवर	-11.4368
▁परस्पर	-11.4372
▁सईद	-11.4373
▁बाबर	-11.4374
▁रास	-11.4376
्ती	-11.4381
▁टुडे	-11.4381
▁मुड़	-11.4382
▁कम्प	-11.4387
▁पंचांग	-11.4391
रिंग	-11.4392
▁इल	-11.4392
ुत	-11.4392
ेटेड	-11.4394
▁दवाई	-11.4395
विरोधी	-11.4397
▁मीट	-11.4404
▁इकाइयों	-11.4405
▁नसल्याने	-11.4406
▁विशेषताओं	-11.4406
▁सशस्त्र	-11.4407
देख	-11.4408
▁रॉ	-11.4408
▁कैल्शियम	-11.4412
▁वायदा	-11.4413
▁मोहित	-11.4413
▁`	-11.4415
▁छपी	-11.4415
िफ	-11.4417
चु	-11.4418
▁झांसी	-11.4424
▁बर्थडे	-11.4426
धान	-11.4429
पटना	-11.4431
▁असमर्थ	-11.4432
▁बंगाली	-11.4432
जाल	-11.4434
▁वेट	-11.4435
▁Website	-11.4435
▁चलें	-11.4436
▁प्रयोगशाला	-11.4436
▁►	-11.4437
▁प्रोसेस	-11.4437
▁चलाए	-11.444
▁पीते	-11.444
▁टैप	-11.4441
▁चीज़ें	-11.4445
▁n	-11.4445
▁ठोक	-11.4447
▁सावन	-11.4447
्प	-11.4448
टेल	-11.4451
▁विदाई	-11.4453
वादियों	-11.4456
▁नूर	-11.4456
▁बचाओ	-11.4457
▁विक्रेता	-11.4458
▁ट्राई	-11.4458
▁ऋषभ	-11.4458
▁स्रोतों	-11.446
▁ब्लॉगर	-11.446
▁पिला	-11.4461
▁सातारा	-11.4466
▁उपरांत	-11.4468
▁अंकल	-11.447
▁रैना	-11.447
बीच	-11.4472
पणे	-11.4473
▁गिराया	-11.4477
कान	-11.4477
▁डिजाइनर	-11.4478
▁कंस	-11.4479
▁पालतू	-11.448
▁ठाण्यात	-11.4481
ি	-11.4486
▁८	-11.4488
अक्टूबर	-11.4488
▁फर्श	-11.449
▁अनुचित	-11.4491
▁जुआ	-11.4493
ोसिस	-11.4493
▁टुकड़ा	-11.4496
▁खासियत	-11.4498
▁जवाहरलाल	-11.4499
ue	-11.45
▁ब्र	-11.45
▁छवियों	-11.4502
▁अविनाश	-11.4506
▁प्रयुक्त	-11.4507
▁ढाल	-11.4507
▁सलाम	-11.4507
क्‍	-11.4514
▁जिन्दगी	-11.4517
▁सुधर	-11.4517
▁अब्बास	-11.4517
▁घुमा	-11.4518
▁त्याचा	-11.4519
▁कुचल	-11.4521
▁संभवतः	-11.4522
▁बाएं	-11.4525
तिया	-11.4525
▁घड	-11.4526
किया	-11.4527
▁मैक्स	-11.453
संत	-11.4532
▁विद्यालयों	-11.4532
▁याचा	-11.4534
▁बुलाई	-11.4536
▁अपेक्षित	-11.4536
मिया	-11.4539
▁बॉय	-11.4539
▁पीला	-11.454
▁आश्वस्त	-11.4542
▁साबुन	-11.4542
लेले	-11.4543
▁शांतिपूर्ण	-11.4546
▁विरोधियों	-11.4546
▁करिश्मा	-11.4549
▁स्विच	-11.4549
▁बंधक	-11.4553
चालक	-11.4553
▁पर्याय	-11.4554
▁posts	-11.4554
▁एप्पल	-11.4555
▁परमात्मा	-11.4561
▁झाल्या	-11.4561
,"	-11.4562
निस	-11.4563
▁मौतों	-11.4565
ka	-11.4569
चू	-11.4569
▁कांफ्रेंस	-11.457
▁प्रक्रियाओं	-11.457
▁उदास	-11.4573
मंद	-11.4573
▁मंशा	-11.4575
▁संदर्भित	-11.4576
▁गेस्ट	-11.4579
सिस	-11.4581
▁उपग्रह	-11.4582
▁यादगार	-11.4584
▁भयावह	-11.4586
अभि	-11.4587
▁चलेगी	-11.4587
▁उपवास	-11.4587
▁पुस्तकें	-11.4592
▁सनसनी	-11.4599
▁त्यागी	-11.4601
▁डेवलपमेंट	-11.4602
संज्ञा	-11.4605
▁कमला	-11.4605
▁भागात	-11.4605
▁आरजेडी	-11.4607
▁चालान	-11.4607
प्रिय	-11.4609
▁1992	-11.4609
▁राष्ट्रवाद	-11.4612
▁शायर	-11.4618
वेट	-11.4619
▁ऊंचे	-11.462
▁अंकुश	-11.4621
पुरम	-11.4622
▁महिमा	-11.4623
▁रेस्तरां	-11.4624
▁बुल	-11.4629
सान	-11.463
▁सत्तारूढ़	-11.4631
▁घाटे	-11.4631
जगह	-11.4632
▁लपेट	-11.4635
▁मर्यादा	-11.4638
▁ब्यूटी	-11.464
▁दिखाकर	-11.4641
▁भांति	-11.4641
त्ती	-11.4643
▁क्वा	-11.4644
▁प्रज्ञा	-11.4647
▁गै	-11.4647
▁लटक	-11.4649
ंदर	-11.465
▁पुकार	-11.4652
▁एल्बम	-11.4653
7%	-11.4654
▁5000	-11.4656
▁सर्विसेज	-11.4656
ब्ब	-11.4659
▁आकृति	-11.4661
▁ताक़त	-11.4662
▁देत	-11.4664
▁ध्रुव	-11.4664
ish	-11.4667
▁डिलीट	-11.4668
▁इरफान	-11.4668
▁आदर	-11.4669
निंग	-11.467
▁धाराओं	-11.4671
मधून	-11.4673
▁सत्ताधारी	-11.4674
▁इस्तीफे	-11.4675
▁वैवाहिक	-11.4675
▁विज्ञप्ति	-11.4675
▁तीर	-11.4676
न्नी	-11.4679
▁प्रासंगिक	-11.468
▁डिफेंस	-11.4681
तों	-11.4682
▁माथे	-11.4682
▁गजब	-11.4683
▁लाग	-11.4684
▁आवासीय	-11.4685
▁अक	-11.4686
▁पक्का	-11.4687
▁बॉन्ड	-11.4688
▁शस्त्र	-11.4689
अमर	-11.469
▁डेटिंग	-11.4692
▁मुश्किलें	-11.4694
▁क़दम	-11.4694
▁खातिर	-11.4694
▁हिंद	-11.4695
▁जातकों	-11.47
▁पाटिल	-11.4701
▁राज्यातील	-11.4704
▁बग	-11.4707
आं	-11.4709
▁पाट	-11.4709
▁घोर	-11.471
▁रचनाओं	-11.4712
ai	-11.4712
▁जानेंगे	-11.4712
▁वर्चस्व	-11.4713
▁यामध्ये	-11.4716
▁सोवियत	-11.4716
▁दीवाली	-11.4719
▁तबीयत	-11.4719
▁सॉन्ग	-11.4723
▁अन्‍य	-11.4724
▁अना	-11.4725
ex	-11.4726
मद	-11.4726
ge	-11.4729
▁मारुति	-11.4732
▁निकलकर	-11.4735
▁iPhone	-11.4735
नै	-11.4738
н	-11.4738
▁नल	-11.4739
▁उपक्रम	-11.474
निर्देश	-11.474
बहन	-11.4743
क्की	-11.4743
न्ट	-11.4744
he	-11.4745
▁वकालत	-11.4745
▁अंदाज़	-11.4745
▁गिना	-11.4746
▁चोटी	-11.4748
योगी	-11.4748
▁ड्राइविंग	-11.4749
लिख	-11.475
चन	-11.4753
wa	-11.4753
▁भड़ास	-11.4754
▁परिवेश	-11.4755
art	-11.4755
▁वॉक	-11.4756
पुरुष	-11.4757
▁धरोहर	-11.4758
▁व्यर्थ	-11.4764
Pinterest	-11.4767
▁झाल्याने	-11.4774
▁नॉर्थ	-11.4778
टीसी	-11.4778
▁जेडीयू	-11.4778
▁नागर	-11.4781
▁जुलूस	-11.4783
▁ग्यारह	-11.4783
ोज	-11.4785
!!	-11.4786
एससी	-11.4786
▁आपण	-11.4787
रीन	-11.479
▁कनेक्टिविटी	-11.479
ंजा	-11.4792
▁अनुभूति	-11.4793
▁विद्वानों	-11.4794
▁टायर	-11.4795
▁गुरूवार	-11.4795
▁आत्मनिर्भर	-11.4799
▁हाइ	-11.48
लै	-11.4801
▁उग्र	-11.4803
▁होईल	-11.4803
▁II	-11.4806
▁चैलेंज	-11.4808
▁लेबल	-11.4811
▁सुपरहिट	-11.4812
▁वाम	-11.4815
▁चाहने	-11.4816
▁लड़ाकू	-11.4816
▁सचेत	-11.4817
सेक्स	-11.4818
▁Video	-11.482
▁खि	-11.4821
संपर्क	-11.4822
▁शर्मनाक	-11.4822
▁फैट	-11.4822
▁लिपि	-11.4822
▁केल्या	-11.4823
▁जमात	-11.4823
▁जानलेवा	-11.4825
▁नौकर	-11.4828
ोव	-11.4829
:-.	-11.483
▁भरना	-11.4831
उसने	-11.4832
▁पतली	-11.4836
▁1984	-11.4838
▁नैतिकता	-11.4838
▁आराधना	-11.4838
▁पुढे	-11.484
2%	-11.4841
▁अनदेखी	-11.4841
▁सैर	-11.4843
▁खासदार	-11.4843
सीसी	-11.4843
▁सोलापूर	-11.4844
▁स्वतः	-11.4847
▁व्य	-11.4848
▁नौकरियां	-11.4849
मित्र	-11.4849
▁एनजीओ	-11.4851
▁महोदय	-11.4851
क्ति	-11.4854
▁रोकना	-11.4854
▁वेबसाइटों	-11.4855
▁निभाते	-11.4855
▁अड्डा	-11.4856
▁निर्वाचित	-11.4857
em	-11.4857
▁पुरा	-11.4858
▁पावन	-11.4859
▁पहुच	-11.4862
▁कोरोनावायरस	-11.4863
▁बारीक	-11.4863
ऊँ	-11.4863
▁नानक	-11.4863
▁अकाली	-11.4864
▁फ्र	-11.4867
कस	-11.4869
▁संभावनाएं	-11.4872
▁दौलत	-11.4874
▁उपेक्षा	-11.4875
▁रिटायर	-11.4875
डल	-11.4876
▁धकेल	-11.4878
▁एकूण	-11.488
सीएम	-11.4882
▁दूतावास	-11.4883
▁पूछते	-11.4883
▁अनुभवों	-11.4884
▁वैसी	-11.4886
▁दवाएं	-11.4886
▁राजदूत	-11.4887
▁टैक्सी	-11.489
▁सीबीएसई	-11.489
▁उल	-11.4891
▁‪	-11.4892
▁फट	-11.4895
सात	-11.49
▁लोकेशन	-11.49
यात्रा	-11.4901
पुत्र	-11.4907
▁मैरी	-11.4908
डीसी	-11.4911
▁उत्तरा	-11.4911
▁उभार	-11.4912
ack	-11.4912
▁बेल्ट	-11.4914
सितंबर	-11.4917
▁विश्वनाथ	-11.4922
▁डै	-11.4923
▁चाँद	-11.4927
▁रचा	-11.4927
खान	-11.4929
▁पाय	-11.4929
▁टु	-11.493
▁संभल	-11.4932
▁सक्सेना	-11.4932
▁कैपिटल	-11.4935
▁पकड़कर	-11.4937
बीसी	-11.494
▁कसा	-11.4941
▁उपासना	-11.4942
▁सेटअप	-11.4942
hide	-11.4944
▁हँस	-11.4945
▁भड़क	-11.4945
माँ	-11.4947
्ना	-11.4948
▁दावों	-11.4948
▁अनुपम	-11.4948
▁फंसा	-11.4949
्ली	-11.495
▁बिल्डर	-11.495
वारा	-11.4952
▁मेमोरी	-11.4955
▁लक्ष्यों	-11.4956
▁तबाही	-11.4957
▁एं	-11.4961
▁गोदाम	-11.4962
▁केमिकल	-11.4962
▁मॉ	-11.4965
▁निकालना	-11.4965
▁रामलीला	-11.4965
▁रजनीकांत	-11.4968
▁गाजीपुर	-11.4969
ुस	-11.4969
▁वैट	-11.4973
▁अलविदा	-11.4974
पीसी	-11.4976
▁चार्जिंग	-11.4979
▁मुहर	-11.498
▁Blog	-11.4981
▁पहनकर	-11.4982
ाते	-11.4985
▁ऑपरेटर	-11.4988
▁बेर	-11.4988
▁सफ़र	-11.4988
▁सिक्के	-11.4991
भाष	-11.4995
▁आवाहन	-11.4995
रोन	-11.4997
▁सर्वप्रथम	-11.4998
▁कमांड	-11.4998
▁बताकर	-11.5
▁सिग्नल	-11.5001
▁गानों	-11.5002
▁110	-11.5004
▁राज्यात	-11.5004
▁लियोन	-11.5005
▁सिखाया	-11.5006
प्ट	-11.5007
▁व्याप्त	-11.5007
▁सीतारमण	-11.5007
▁नमूना	-11.5007
▁विंग	-11.5007
▁माग	-11.501
▁वध	-11.5011
▁लखीमपुर	-11.5012
▁मतों	-11.5012
▁विनाश	-11.5012
िनो	-11.5015
ीचा	-11.5017
▁सुप्रीमो	-11.5018
▁आशुतोष	-11.502
▁An	-11.5024
▁बर्न	-11.5024
▁पोर्टफोलियो	-11.5027
▁विद्यापीठ	-11.5027
▁चौराहे	-11.503
▁पढाई	-11.5031
पथ	-11.5032
एमएस	-11.5033
▁पोशाक	-11.5033
▁जण	-11.5034
▁सूख	-11.5036
ऑटो	-11.5039
▁शिवलिंग	-11.504
▁प्राथमिकी	-11.5043
ेश्‍वर	-11.5044
▁फिल	-11.5045
se	-11.5046
▁करावी	-11.5046
मक	-11.5046
▁बाहेर	-11.505
लक	-11.5052
▁कर्फ्यू	-11.5053
▁आईजी	-11.5053
▁छोड	-11.5054
▁फटकार	-11.5056
▁नाईक	-11.5057
▁निकलती	-11.5057
ीट	-11.5058
शान	-11.5058
▁नवरात्र	-11.5058
ne	-11.5058
पैर	-11.506
कोड	-11.5062
▁टारगेट	-11.5063
▁अपार्टमेंट	-11.5063
Facebook	-11.5065
सिन	-11.5069
▁एनआरसी	-11.5071
▁पत्तियों	-11.5077
▁डालर	-11.5078
▁!!	-11.5079
▁एकाउंट	-11.5081
ांश	-11.5081
▁भौगोलिक	-11.5081
▁मतगणना	-11.5083
Post	-11.5083
▁कर्क	-11.5084
▁फ़ोटो	-11.5084
▁इंडियंस	-11.5086
स्कर	-11.5087
▁खरीदे	-11.5088
▁प्रहार	-11.509
▁विवेकानंद	-11.509
▁सूद	-11.5091
▁आसार	-11.5094
▁अपनों	-11.5095
▁अनावश्यक	-11.5096
लोगों	-11.5097
ऑनलाइन	-11.5099
▁बजाज	-11.5101
▁सत्यापन	-11.5103
▁नाच	-11.5104
▁आव	-11.5104
▁सलीम	-11.5104
ुल्ला	-11.5105
ैंट	-11.5106
▁रखरखाव	-11.5106
पाक	-11.5107
▁चेंज	-11.5108
▁वालो	-11.5108
▁श्वेता	-11.511
▁डीएसपी	-11.5112
ीची	-11.5113
▁काय	-11.5115
▁});	-11.5116
▁बनायी	-11.5118
भूगोल	-11.5119
प्रसाद	-11.5119
▁सिनेमाघरों	-11.512
▁post	-11.5121
Step	-11.5122
अप्रैल	-11.5125
▁धनु	-11.5126
▁व्यतीत	-11.5126
▁संकलन	-11.5126
▁.–	-11.5127
▁परंपरागत	-11.5127
▁समझें	-11.5129
▁जमीनी	-11.5129
▁संभावनाओं	-11.513
फ्ल	-11.5134
▁सुनना	-11.5134
-7	-11.5136
ell	-11.5136
▁किम	-11.5137
▁अल्पसंख्यकों	-11.5138
▁जुटाने	-11.5139
▁कॉरपोरेट	-11.5139
▁डिप्लोमा	-11.5139
चढ़ाव	-11.5142
▁अमेरिकन	-11.5144
ध्द	-11.5146
▁फाइनेंस	-11.5146
▁जेन	-11.5147
▁टेक्स्ट	-11.5147
कृति	-11.5147
▁द्विपक्षीय	-11.5149
▁खात्या	-11.5149
षण	-11.5153
▁पांव	-11.5153
▁चाची	-11.5157
▁म्यांमार	-11.5157
▁आजीवन	-11.5157
ैक	-11.5158
▁श्रद्धालु	-11.5158
४	-11.5158
▁इनपुट	-11.5159
▁ध्वज	-11.516
जुलाई	-11.5161
म्भ	-11.5162
▁निमंत्रण	-11.5163
▁आयाम	-11.5163
▁350	-11.5163
▁एजेंडा	-11.5166
▁वापिस	-11.5166
▁उपलब्धियों	-11.5166
▁जिद	-11.5168
▁विद्यमान	-11.5169
भेद	-11.5171
▁यथार्थ	-11.5175
▁अभियुक्त	-11.5176
डन	-11.5177
▁कब्ज	-11.5179
ज्योतिष	-11.518
नक	-11.518
▁स्टार्स	-11.518
▁इज्जत	-11.5183
▁मनरेगा	-11.5183
▁कुक	-11.5183
ब्रा	-11.5183
▁de	-11.5184
▁दलाल	-11.5186
ेवर	-11.5186
ांकडून	-11.519
▁विकेटकीपर	-11.519
▁पत्तों	-11.5191
▁थम	-11.5191
▁सोमवारी	-11.5192
धारक	-11.5193
▁मोक्ष	-11.5194
▁10,000	-11.5195
▁Instagram	-11.5197
मानव	-11.5201
▁ग्रेट	-11.5202
सामने	-11.5206
▁भंडारण	-11.5206
▁प्रसन्नता	-11.5209
▁इरादे	-11.5209
▁Photo	-11.521
सिक	-11.5212
▁स्वदेशी	-11.5213
▁10:	-11.5214
▁देखरेख	-11.5214
▁सब्जियां	-11.5216
वर्तमान	-11.5219
▁मार्शल	-11.522
▁बच्चो	-11.5223
▁कोयले	-11.5225
प्रमाणे	-11.5225
▁समोर	-11.5227
▁भुला	-11.5227
ट्रो	-11.5227
▁भरोसे	-11.5229
▁सम्भव	-11.5229
ँग	-11.523
आदर्श	-11.5233
▁उठाई	-11.5238
▁रज	-11.5241
▁हौ	-11.5241
6%	-11.5243
▁दक्षता	-11.5246
▁सिद्धान्त	-11.5247
▁टेप	-11.5247
▁जया	-11.5248
ीज़	-11.525
▁विधवा	-11.5251
▁1500	-11.5252
▁युगल	-11.5253
▁उत्तीर्ण	-11.5253
प्रेस	-11.5258
▁हात	-11.526
्सन	-11.5262
▁अन्	-11.5262
▁मार्टिन	-11.5262
▁निर्दोष	-11.5267
▁मुलाक़ात	-11.527
▁अभिनव	-11.527
ियान	-11.5274
रिस	-11.5276
▁मौज	-11.5281
,500	-11.5284
ट्	-11.5285
▁हज़ारों	-11.5285
▁रश्मि	-11.5286
▁सगाई	-11.5287
▁शिकायतों	-11.5288
ाशी	-11.5289
▁सटे	-11.529
▁वामपंथी	-11.5292
▁मुंडा	-11.5293
▁कवायद	-11.5293
▁डिटेल	-11.5294
रोज	-11.5295
संयुक्त	-11.5296
▁कीमती	-11.5296
▁झड़प	-11.5297
▁आरामदायक	-11.5297
▁डार्क	-11.5298
▁स्क्रिप्ट	-11.53
▁सुलझा	-11.5301
वायरल	-11.5304
▁लाभार्थियों	-11.5304
▁विख्यात	-11.5307
केंद्रीय	-11.5309
▁खुशबू	-11.5309
‘‘	-11.5313
▁मानस	-11.5315
▁अशुभ	-11.5315
▁हफ्तों	-11.5317
▁उपदेश	-11.5317
▁रुझान	-11.532
▁चतुर्थी	-11.5321
श्वर	-11.5323
ाण	-11.5325
▁राशिद	-11.5326
▁चित्रण	-11.5327
ैश	-11.5328
▁उपयोगिता	-11.5328
▁धूम्रपान	-11.5329
▁दिसून	-11.5331
▁परहेज	-11.5331
▁दिखी	-11.5334
▁पहुँचे	-11.5334
ni	-11.5335
▁एनसीबी	-11.5337
.01	-11.5337
▁निषेध	-11.5337
दत्त	-11.5337
कर्मी	-11.5339
▁सीमेंट	-11.534
▁मेजबानी	-11.534
▁बखूबी	-11.5341
▁खाकर	-11.5341
मिनी	-11.5342
▁निर	-11.5343
▁९	-11.5344
▁उसपर	-11.5344
व्ह	-11.5344
▁घृणा	-11.5346
▁वगैरह	-11.5348
▁नाजुक	-11.5348
▁130	-11.5349
▁जिया	-11.5349
▁उदार	-11.535
▁ज़िक्र	-11.5351
रोड	-11.5352
्ति	-11.5353
▁प्रतिकूल	-11.5353
▁बिताने	-11.5353
▁फ़िल्मों	-11.5357
▁कैंपस	-11.5358
▁लोहिया	-11.536
▁कार्यक्षेत्र	-11.5363
▁अर्जी	-11.5364
वर्स	-11.5368
▁चूसने	-11.5368
▁छोड़ी	-11.5368
▁आड़	-11.5369
act	-11.537
▁अंतरिम	-11.5371
▁नेताजी	-11.5373
वर्त	-11.5373
रक्षा	-11.5375
स्टेट	-11.5375
ीने	-11.5376
▁खोद	-11.5379
sc	-11.538
▁19.	-11.538
राहुल	-11.5383
▁दिनभर	-11.5383
▁दिनचर्या	-11.5384
सीएल	-11.5384
▁त्यांची	-11.5388
▁रॉकेट	-11.5388
▁सुलझाने	-11.5388
श्य	-11.5389
▁राहु	-11.539
▁बाजी	-11.5392
▁दुपारी	-11.5392
▁सेब	-11.5397
-30	-11.5398
▁एनकाउंटर	-11.5399
▁निष्क्रिय	-11.5399
▁सहारनपुर	-11.54
▁शीट	-11.54
▁विल	-11.5401
▁कोल	-11.5401
▁विमल	-11.5402
▁पहनी	-11.5403
▁प्रतिवर्ष	-11.5403
.04	-11.5404
गाँव	-11.5407
्ह	-11.5408
س	-11.5409
▁टर्म	-11.5409
▁करूं	-11.5409
▁फ़ीसदी	-11.5409
▁झुका	-11.5411
क्यों	-11.5411
▁हस्त	-11.5415
▁गि	-11.5416
कं	-11.5417
▁फ्लू	-11.5417
▁पूर्वक	-11.5417
▁पिंक	-11.5417
▁मूत्र	-11.5419
▁जाप	-11.5425
▁मीणा	-11.5425
ट्रा	-11.5428
▁बंटवारे	-11.5429
▁पीयूष	-11.5429
▁पराजित	-11.543
▁मिनटों	-11.543
su	-11.5432
▁सिमट	-11.5433
▁इसमे	-11.5434
ल्ली	-11.5435
▁आपातकाल	-11.5438
▁बोलता	-11.5439
रत्न	-11.5441
बीजेपी	-11.5445
▁हॉस्टल	-11.5447
▁गोचर	-11.5448
▁मोल	-11.5448
▁हेल्प	-11.5451
▁गायत्री	-11.5457
▁शेड्यूल	-11.5459
लता	-11.5459
▁बहुल	-11.5463
▁नीरव	-11.5464
टॉप	-11.5466
▁संपादित	-11.5467
▁सुलभ	-11.5467
▁ससुर	-11.5468
▁बल्ले	-11.5473
▁एनडीटीवी	-11.5474
▁संवाददाताओं	-11.5475
▁सुरंग	-11.5478
▁आरटीआई	-11.5479
▁प्रावधानों	-11.5479
IM	-11.548
▁मोटर्स	-11.5481
दीन	-11.5481
▁फोरम	-11.5481
▁घटी	-11.5485
ण्	-11.5485
▁योगेश	-11.5486
ेंसी	-11.5486
▁अपार	-11.549
.4.	-11.549
▁1971	-11.549
▁प्रैक्टिस	-11.5495
▁टेली	-11.5495
प्रे	-11.5495
▁बारात	-11.5498
▁.#	-11.5498
▁शिकायतें	-11.55
я	-11.5501
▁वानखेड़े	-11.5501
▁”.“	-11.5505
▁विज्ञापनों	-11.5507
▁कूल	-11.5508
▁जता	-11.5509
▁लेंस	-11.5512
▁फै	-11.5516
कविता	-11.552
वर्ड	-11.5521
श्रम	-11.5521
▁शान्ति	-11.5522
▁एसएमएस	-11.5524
▁लेखिका	-11.5526
▁किस्से	-11.5528
▁उद्देश्यों	-11.5529
िद	-11.553
▁कारखाने	-11.5531
\	-11.5533
▁बरी	-11.5533
▁जुडी	-11.5534
▁किंवा	-11.5534
▁अफेयर्स	-11.5534
शब्द	-11.5537
▁फर्	-11.5541
▁सेव	-11.5541
▁श्रेणियों	-11.5543
ेन्स	-11.5543
▁सफ़ेद	-11.5546
▁मेड	-11.5547
िणी	-11.5548
▁टैब	-11.5549
▁गन	-11.5549
रल	-11.5553
▁रोमन	-11.5553
▁शासनाने	-11.5553
,999	-11.5554
▁मेघालय	-11.5555
▁दहा	-11.5558
▁144	-11.5559
फ्	-11.5559
सवाल	-11.5561
▁घन	-11.5561
नाग	-11.5562
पाद	-11.5563
▁स्पष्टीकरण	-11.5563
▁फ्लैश	-11.5565
▁De	-11.5567
एगा	-11.557
▁विरूद्ध	-11.5571
▁कुत्तों	-11.5571
▁अधिवेशन	-11.5571
▁रॉबर्ट	-11.5571
▁180	-11.5571
▁हुड्डा	-11.5571
▁फॉर्मेट	-11.5571
▁समकालीन	-11.5571
▁जीवनी	-11.5575
▁समलैंगिक	-11.5578
▁दिसत	-11.5581
▁खुलासे	-11.5583
कन्या	-11.5584
▁फ्लिपकार्ट	-11.5585
▁काउंटर	-11.5587
▁नासा	-11.5587
▁पॉ	-11.5588
▁दस्त	-11.5593
▁चुनना	-11.5597
▁बीबी	-11.5597
प्रस्तुतकर्ता	-11.5603
▁विसर्जन	-11.5606
▁अद्यतन	-11.5606
▁शिया	-11.5606
▁नर्सिंग	-11.5606
िंद	-11.5607
▁भागलपुर	-11.5611
▁जहा	-11.5612
नीति	-11.5612
▁पसीना	-11.5613
भु	-11.5613
▁राइट	-11.5613
▁छुट्टियों	-11.5616
▁पारियों	-11.5616
ुद	-11.5617
▁Vi	-11.5618
ver	-11.5624
ूद	-11.5625
फि	-11.5626
शाला	-11.5629
▁होंठ	-11.5629
▁सज्जन	-11.563
▁सर्जिकल	-11.5631
▁पश्चात्	-11.5631
▁जीवों	-11.5635
वॉ	-11.5635
▁साखर	-11.5638
▁सल	-11.5638
चक्र	-11.564
▁पैकेट	-11.5644
▁ठाणे	-11.5644
▁ग्रेटर	-11.5647
▁सुनीता	-11.5648
800	-11.5649
▁ठगी	-11.5649
▁Stories	-11.5651
▁डीएनए	-11.5652
▁सतर्कता	-11.5652
▁128	-11.5652
▁धाव	-11.5653
भगवान	-11.5653
▁तड़प	-11.5656
टिन	-11.5658
▁प्राय	-11.5661
▁12:	-11.5661
▁आम्ही	-11.5661
▁तोड़कर	-11.5662
▁निकलना	-11.5665
▁पाली	-11.5666
िं	-11.5666
▁1993	-11.5669
per	-11.5671
डॉक्टर	-11.5671
▁देशवासियों	-11.5672
▁हमको	-11.5673
धारा	-11.5673
▁पकाने	-11.5674
▁गिरे	-11.5675
डेन	-11.5675
▁प्राइमरी	-11.5676
▁मार्क्स	-11.5678
▁दरें	-11.5681
▁पच	-11.5681
▁नीलम	-11.5682
▁घटाकर	-11.5685
▁हड्डियों	-11.5686
▁बीमारियां	-11.5686
प्यार	-11.569
ाड	-11.5691
▁उबाल	-11.5693
▁बनीं	-11.5693
▁फिसल	-11.5694
▁लगाव	-11.5694
ट्टे	-11.5694
खो	-11.5694
ट्रिक	-11.5695
▁जासूसी	-11.5695
ळ्या	-11.5697
दरी	-11.5699
▁यूके	-11.5701
▁डेयरी	-11.5707
ौन	-11.5708
▁जप	-11.5708
▁सम्बन्धी	-11.5709
▁बैर	-11.571
▁मुमकिन	-11.5711
▁मनुष्यों	-11.5713
▁वैद्य	-11.5713
ल्हा	-11.5714
▁दंगे	-11.5715
▁चूर्ण	-11.5718
▁महर्षि	-11.5719
▁पहनना	-11.5719
▁त्यासाठी	-11.572
▁औऱ	-11.5722
▁गल	-11.5722
▁देऊन	-11.5723
उद्धरण	-11.5723
▁लगवा	-11.5724
▁मल्होत्रा	-11.5725
▁सुसाइड	-11.5726
▁दत्ता	-11.5727
▁खट	-11.5728
▁--	-11.5729
हिल	-11.573
▁जमी	-11.5731
▁विश्‍वास	-11.5733
▁गेमिंग	-11.5733
.14	-11.5735
▁शीतकालीन	-11.5735
▁बिछा	-11.5736
▁कोशिशों	-11.5738
बीएस	-11.5741
न्दा	-11.5742
्वी	-11.5744
▁©	-11.5746
▁कॉमन	-11.5748
▁ज़िम्मेदार	-11.5748
▁जायें	-11.575
▁बहने	-11.575
मार्क	-11.5754
▁सुकून	-11.5756
हाउस	-11.5757
▁वीज	-11.5757
▁कबूल	-11.5759
▁मिलाएं	-11.576
▁चेतन	-11.5762
▁.7.	-11.5763
▁खुदाई	-11.5766
▁ब्रश	-11.5766
AN	-11.5766
▁सुरुवात	-11.5767
▁आटे	-11.5769
▁बीएसपी	-11.5771
मुखी	-11.5771
▁उलझ	-11.5772
शिप	-11.5772
ेरे	-11.5773
▁रुकने	-11.5776
ंभ	-11.5783
ूस	-11.5784
०००	-11.5788
▁परिक्रमा	-11.5788
▁बँक	-11.5791
▁रविशंकर	-11.5792
यक	-11.5793
रित	-11.5794
▁बांस	-11.5795
▁धूमधाम	-11.5796
▁अनुपालन	-11.5796
▁धमाल	-11.5796
कॉमर्स	-11.5797
▁स्टार्टअप	-11.5799
स्कूल	-11.58
वित	-11.5802
▁चित्रों	-11.5804
▁विराम	-11.5806
▁मक्का	-11.5806
▁साईं	-11.5807
▁काजल	-11.5807
न्यूज	-11.5811
▁दोगुना	-11.5813
▁ध्वस्त	-11.5817
द्दा	-11.5817
केश	-11.5818
▁जोड़ना	-11.5819
▁नोबेल	-11.5821
▁तह	-11.5823
▁ब्लाग	-11.5824
▁शादीशुदा	-11.5825
फ्री	-11.5825
AT	-11.5827
मति	-11.5827
▁ठहर	-11.5828
▁विस्फोटक	-11.5828
▁लंच	-11.5829
ोत्तर	-11.5829
▁झगड़े	-11.583
टिव	-11.5831
▁डू	-11.5833
▁लाता	-11.5834
▁रिहाई	-11.5834
▁मजे	-11.5835
▁पड़ाव	-11.5836
▁मंद	-11.5838
ंका	-11.584
▁त्यांचे	-11.584
हमारा	-11.5843
▁ऑफलाइन	-11.5843
▁वाजता	-11.5845
▁नजरअंदाज	-11.5846
▁डीलर	-11.5846
▁विवश	-11.5847
▁ठंडी	-11.5847
▁ढेरों	-11.5847
▁साख	-11.5848
▁कोलेस्ट्रॉल	-11.5849
▁अपघात	-11.585
▁~	-11.585
▁कारोबारियों	-11.5851
▁भरपाई	-11.5851
▁पन्ने	-11.5851
ب	-11.5852
▁मौतें	-11.5853
▁.4	-11.5854
ैड	-11.5856
मोर	-11.5858
अपराध	-11.5859
▁नगरपालिका	-11.586
▁मंथन	-11.5861
स्को	-11.5861
▁एशियन	-11.5862
▁धारावाहिक	-11.5863
िंग्स	-11.5864
▁अम्बेडकर	-11.5864
▁मुन्ना	-11.5865
डीएस	-11.5866
▁प्रचारक	-11.5867
रचना	-11.5867
▁हिम	-11.5867
ोरा	-11.5869
▁धर्मशाला	-11.5872
सीन	-11.5877
▁सुमित	-11.5882
▁असते	-11.5883
ठीक	-11.5884
जीव	-11.5885
कां	-11.5885
▁बांटने	-11.5886
ेरिया	-11.5886
िंक	-11.5888
▁नड्डा	-11.5889
▁चक	-11.589
क्रो	-11.5891
ावे	-11.5891
▁टुकड़ों	-11.5892
▁सभागार	-11.5894
▁हजारे	-11.5895
अंतरराष्ट्रीय	-11.5899
▁रक्तचाप	-11.5899
मिशन	-11.5899
▁गुजार	-11.5903
▁खट्टर	-11.5903
200	-11.5906
▁ब्रि	-11.5907
शाम	-11.5909
▁कंटेनर	-11.591
▁विन	-11.5911
▁1995	-11.5912
▁सुने	-11.5912
ाओं	-11.5914
▁website	-11.5914
ावत	-11.5915
▁फोर	-11.5917
सिर	-11.5918
▁मस	-11.592
▁एसयूवी	-11.592
▁ट्रांसपोर्ट	-11.5921
▁वायर	-11.5921
वंश	-11.5922
कहानी	-11.5927
▁त्यात	-11.5929
▁पेशाब	-11.5929
▁पेड	-11.5931
पंच	-11.5932
विंदर	-11.5933
▁दाखिला	-11.5935
▁उम्मीदें	-11.5936
डीए	-11.5936
к	-11.5936
by	-11.5937
▁चश्मा	-11.5938
▁मीर	-11.5942
ायला	-11.5943
सुर	-11.5945
▁धर्मों	-11.5947
▁कुत्ता	-11.5947
▁हेल्दी	-11.5947
▁नवजोत	-11.5948
▁नरक	-11.5952
▁रूक	-11.5952
▁डॉन	-11.5952
▁कैप्शन	-11.5953
मिला	-11.5954
▁११	-11.5957
▁डिस	-11.5958
पॉ	-11.596
▁बर्फबारी	-11.596
▁छलांग	-11.5961
▁शुमार	-11.5961
ैप	-11.5961
▁साइटों	-11.5964
▁प्रि	-11.5964
▁खेर	-11.5964
▁होत्या	-11.5965
▁व्हील	-11.5966
लोन	-11.5966
▁कैदियों	-11.5967
साद	-11.5968
▁नारेबाजी	-11.5971
port	-11.5974
▁प्रतिद्वंद्वी	-11.5974
▁दशहरा	-11.5975
वेन	-11.5975
▁जीवंत	-11.5975
▁जायसवाल	-11.5975
▁घाल	-11.5976
lu	-11.5979
▁पारदर्शिता	-11.5982
▁ऋतिक	-11.5982
▁स्वत	-11.5985
थो	-11.5985
▁वर्	-11.5985
▁11:	-11.5987
▁घु	-11.5987
▁हस्तियों	-11.5988
▁झूठी	-11.599
गिर्द	-11.599
ऊंगा	-11.5992
▁इक्विटी	-11.5993
▁धीमा	-11.5996
Share	-11.5997
▁गोल्डन	-11.6
▁रामचंद्र	-11.6
▁ढांचा	-11.6001
▁साधते	-11.6002
ाराम	-11.6002
▁लाभार्थी	-11.6002
ेकर	-11.6003
“	-11.6005
▁हारने	-11.6006
▁मिलान	-11.6006
▁हैसियत	-11.6007
▁घूमते	-11.6008
Posted	-11.6008
▁गतिविधियां	-11.6008
▁लड़ते	-11.6009
ज़े	-11.601
▁सेशन	-11.6011
▁अस्त	-11.6012
देह	-11.6015
▁मुली	-11.6016
सिम	-11.6016
रेल	-11.6017
?"	-11.6018
गुल	-11.6023
▁1:	-11.6028
ts	-11.6031
बान	-11.6032
▁नमन	-11.6034
▁लय	-11.6038
▁कसम	-11.6041
▁निशा	-11.6043
▁हिना	-11.6043
▁सावरकर	-11.6043
▁सता	-11.6047
ac	-11.6047
कोविड	-11.6048
▁सूप	-11.6048
Popular	-11.6051
▁तांत्रिक	-11.6053
▁प्रोड्यूसर	-11.6054
▁चौटाला	-11.6054
▁प्लानिंग	-11.6055
▁हेम	-11.6057
▁समकक्ष	-11.6058
▁अकसर	-11.6059
जबकि	-11.6059
▁कुंड	-11.6063
▁तास	-11.6063
▁देखील	-11.6064
By	-11.6065
तुल	-11.6065
▁प्रसव	-11.6066
गीत	-11.6068
ैंस	-11.6069
▁खरेदी	-11.607
▁उपराष्ट्रपति	-11.607
▁अंग्रेज	-11.607
खु	-11.6071
सोबत	-11.6072
यार	-11.6073
▁पुस्तकालय	-11.6074
▁टिप	-11.6075
▁WhatsApp	-11.6077
▁आगाज	-11.6077
निर्	-11.608
▁उल्टी	-11.6081
▁★	-11.6083
▁यीशु	-11.6084
▁बैंगलोर	-11.6084
▁लेटर	-11.6084
▁ग्रंथों	-11.6086
▁for	-11.6089
वाँ	-11.6091
▁तालुक्यात	-11.6091
.75	-11.6092
▁वॉर	-11.6092
▁1950	-11.6094
▁आयरलैंड	-11.6094
▁जिहाद	-11.6095
▁अफ	-11.6095
ेन्ट	-11.6095
▁बनवाया	-11.6099
▁1997	-11.6103
क्ख	-11.6105
▁वांछित	-11.6105
बाजार	-11.6106
▁नाश	-11.6107
▁खोलकर	-11.6108
▁महमूद	-11.6109
▁तपस्या	-11.6109
▁पुरोहित	-11.6109
टेक्नोलॉजी	-11.611
साइड	-11.611
▁एडी	-11.6111
▁गाल	-11.6111
▁भगवा	-11.6117
find	-11.6117
▁घने	-11.6118
विजय	-11.6118
PS	-11.6119
▁यांच्यासह	-11.6119
▁दाख	-11.6119
दर्द	-11.6123
ंजी	-11.6123
go	-11.6126
ूंगी	-11.6133
च्च	-11.6133
▁रायबरेली	-11.6135
▁झंडे	-11.6139
▁पूरक	-11.6139
▁बहाना	-11.6139
▁ढ़	-11.6141
▁पार्थिव	-11.6142
▁माधुरी	-11.6146
▁अह	-11.6147
▁इमारतों	-11.6149
iv	-11.615
▁चिकित्सालय	-11.615
▁गुजराती	-11.6154
ल्क	-11.6154
दिसंबर	-11.6154
▁प्रदेशाध्यक्ष	-11.6154
▁बुलाकर	-11.6157
.”	-11.6157
पैथ	-11.6157
ृत	-11.6159
▁उठते	-11.6159
ru	-11.6159
ड़क	-11.6159
ोलॉजी	-11.6162
▁दावेदार	-11.6163
▁फ़ा	-11.6163
▁गोरा	-11.6166
▁सहभागी	-11.6168
▁हौसला	-11.6168
▁कार्यो	-11.6169
▁कपास	-11.617
▁बकरी	-11.6173
ऑफ	-11.6174
▁बाकि	-11.6178
▁खुजली	-11.6179
ब्	-11.6179
लेली	-11.618
स्टी	-11.6181
ज्य	-11.6181
▁उर्वरक	-11.6181
▁जख्मी	-11.6183
▁विवि	-11.6183
नम	-11.6183
▁मला	-11.6185
▁रेस्टोरेंट	-11.6186
▁वनस्पति	-11.619
▁सड़कें	-11.6191
▁टै	-11.6192
ाइज़	-11.6193
▁अध्यादेश	-11.6201
▁व्या	-11.6201
▁देन	-11.6202
पढ़	-11.6205
▁आभूषण	-11.6206
▁घरवालों	-11.6208
▁रिटेल	-11.621
▁फ़ैसले	-11.6212
▁राजाओं	-11.6218
▁शिक	-11.6219
बाज़ी	-11.6221
▁सिक्किम	-11.6221
▁बाबरी	-11.6226
▁डेबिट	-11.6228
पहली	-11.6229
▁मिलन	-11.623
▁कामे	-11.6231
▁प्रतिनिधिमंडल	-11.6231
▁बिर	-11.6232
ंगर	-11.6232
▁चोरों	-11.6233
-16	-11.6235
@	-11.6236
▁ढोल	-11.6238
▁एमडी	-11.6242
▁स्थाई	-11.6242
▁लाते	-11.6243
▁सुविधाजनक	-11.6243
▁करू	-11.6245
▁बंध	-11.6248
▁धड़कन	-11.6249
▁ताकतवर	-11.625
▁एनएच	-11.6251
▁स्पा	-11.6256
लय	-11.6256
ोत्सव	-11.6258
▁कॉलम	-11.6259
▁लॉगिन	-11.626
▁बुजुर्गों	-11.626
▁ताब्यात	-11.6261
▁कतई	-11.6261
▁बुद्धिमान	-11.6261
▁घटनाएँ	-11.6261
▁साक्षरता	-11.6262
्योर	-11.6265
खण्ड	-11.6268
ॉक्स	-11.6268
▁झारखण्ड	-11.627
लिम	-11.6271
▁2021:	-11.6273
▁नक्सल	-11.6273
▁नाश्ता	-11.6276
▁जिन्ना	-11.6277
रिपोर्ट	-11.6278
▁कमिटी	-11.6279
▁दुरुस्त	-11.628
▁उत्थान	-11.6283
▁हेमा	-11.6287
▁छान	-11.6288
▁आजीविका	-11.6289
5%	-11.6289
▁तलब	-11.6289
▁लीडर	-11.629
▁रूपांतरण	-11.629
▁सट्टेबाजी	-11.6292
▁यूक्रेन	-11.6293
संगीत	-11.6295
▁आरोपित	-11.6295
▁गू	-11.6296
ah	-11.6297
▁डिस्काउंट	-11.6298
ran	-11.6299
▁अहमियत	-11.6299
प्रदर्शन	-11.6301
▁मत्स्य	-11.6302
चन्द्र	-11.6302
▁वतीने	-11.6302
▁तक्रार	-11.6302
▁1994	-11.6302
?”	-11.6303
▁चांस	-11.6304
▁बजरंग	-11.6306
डोर	-11.6306
ड़ो	-11.6311
▁काळात	-11.6312
▁दहन	-11.6312
▁यादों	-11.6313
▁समर्थित	-11.6315
हून	-11.6315
▁चमकदार	-11.6316
.07	-11.6317
▁करेंसी	-11.6324
▁फ़ि	-11.6326
▁UP	-11.6327
राष्ट्र	-11.6328
▁सोरेन	-11.633
▁शीला	-11.6333
यातायात	-11.6333
▁अद्याप	-11.6335
▁समायोजित	-11.6335
▁हटाकर	-11.6335
▁अग्र	-11.6337
स्टिक	-11.6337
▁अनमोल	-11.6339
▁टीबी	-11.6339
अंत	-11.634
▁सजावट	-11.6342
▁स्लॉट	-11.6343
▁डिनर	-11.6345
लिए	-11.6346
▁रियलिटी	-11.6347
▁उबर	-11.6349
▁Download	-11.6349
▁संशय	-11.635
ंद्र	-11.6352
▁भोसले	-11.6354
▁वर्दी	-11.6359
▁मयंक	-11.636
▁तोड़फोड़	-11.6365
ाट	-11.6367
▁साध्वी	-11.6369
▁उद्	-11.637
तला	-11.6373
ूम	-11.6373
▁कवियों	-11.6374
▁मुरली	-11.6375
▁खींचने	-11.6376
▁अपवाद	-11.6377
▁वाइस	-11.6378
्ला	-11.6384
▁जानबूझकर	-11.6386
डीह	-11.6389
▁अबू	-11.6389
चाल	-11.639
▁महक	-11.6391
▁दुष्प्रभाव	-11.6392
युग	-11.6392
ीव	-11.6392
▁गुम	-11.6395
▁सम्पत्ति	-11.6395
▁प्रतिभागियों	-11.6396
▁कैदी	-11.6397
▁वाक	-11.6397
्रो	-11.6399
्चर	-11.6399
गू	-11.6399
▁रोज़गार	-11.64
.16	-11.64
▁कराकर	-11.6401
▁चिप	-11.6402
▁बौ	-11.6404
ुल्लाह	-11.6404
▁गुजरने	-11.6406
▁सीएए	-11.6407
▁वाड्रा	-11.6407
▁यादें	-11.6407
याद	-11.6408
▁यथा	-11.641
▁घात	-11.641
▁बहार	-11.6411
विला	-11.6413
▁लौ	-11.6418
गति	-11.6418
▁बैठते	-11.6419
▁बक	-11.642
▁पुं०	-11.6422
▁छानबीन	-11.6422
▁(2	-11.6423
end	-11.6424
रिन	-11.6425
▁जास्त	-11.6425
▁सहानुभूति	-11.6426
्यावर	-11.6426
्च	-11.6429
र्‍या	-11.6435
्‍ट	-11.6438
क्रिया	-11.644
▁बच्चियों	-11.6441
▁कचरे	-11.6441
▁समझकर	-11.6443
ध्या	-11.6444
▁तबाह	-11.6444
ाकार	-11.6445
▁विफलता	-11.6447
▁देशभक्ति	-11.6448
▁निःशुल्क	-11.6448
▁धमाकेदार	-11.6449
बाबा	-11.6449
▁मंडळ	-11.6451
▁news	-11.6452
▁साय	-11.6453
▁क्रूज	-11.6454
्दा	-11.6454
विस्तार	-11.6456
▁विनिमय	-11.6456
▁Pro	-11.6456
▁जनक	-11.6464
▁पाऊस	-11.6464
▁टाइट	-11.6466
मती	-11.6466
▁चंदा	-11.6466
▁भिड़	-11.6467
▁एप्प	-11.6467
▁मोहल्ले	-11.6468
der	-11.6468
pur	-11.6468
.2021	-11.647
▁लगाम	-11.647
▁अंचल	-11.647
▁मिलेंगी	-11.647
▁नियत	-11.6473
.08	-11.6474
▁सक	-11.6475
उनकी	-11.6475
नायक	-11.6476
किल	-11.6476
▁Tr	-11.6477
▁स्ट्र	-11.6478
ैंक	-11.6478
-8	-11.648
av	-11.6481
करीब	-11.6482
▁1989	-11.6482
▁रोहतक	-11.6482
т	-11.6483
▁सरोज	-11.6483
▁बेल्जियम	-11.6484
▁कार्टून	-11.6486
ांतर	-11.6487
▁विराजमान	-11.649
ud	-11.6491
▁जबरदस्ती	-11.6492
र्जी	-11.6498
▁नहा	-11.6499
▁हटाए	-11.6499
fi	-11.65
▁काल्पनिक	-11.6501
▁बोलीं	-11.6503
▁गन्ने	-11.6514
ip	-11.6515
जीबी	-11.6515
▁समुचित	-11.6517
▁गाड़ियां	-11.6518
.06	-11.652
▁पंथ	-11.6521
जनवरी	-11.6524
▁बॉयफ्रेंड	-11.6524
▁इज	-11.6527
▁चट	-11.6528
▁दाढ़ी	-11.6528
9%	-11.6532
▁स्टाइलिश	-11.6534
▁गोला	-11.6534
दूसरी	-11.6535
▁टॉम	-11.6535
▁असीम	-11.6535
▁ठुकरा	-11.6536
▁किग्रा	-11.6536
ल्यास	-11.6538
▁बाब	-11.6539
▁सन्देश	-11.6541
▁टाई	-11.6542
▁लॉटरी	-11.6543
॥	-11.6545
सामाजिक	-11.6546
्दी	-11.6546
▁प्रचंड	-11.6547
िला	-11.6547
रथ	-11.6548
▁मूलभूत	-11.6549
▁डिश	-11.6551
▁तड़के	-11.6551
▁शैतान	-11.6551
▁नाले	-11.6553
▁पाएगी	-11.6555
श्‍	-11.6555
▁कारावास	-11.6555
▁एम्	-11.6556
ॅन	-11.6557
शू	-11.656
▁×	-11.6562
यही	-11.6565
सेना	-11.6566
▁ओमप्रकाश	-11.6567
▁वक्तव्य	-11.657
▁पठान	-11.657
PM	-11.6571
▁r	-11.6572
▁भगा	-11.6573
खुद	-11.6574
▁पुजारा	-11.6574
▁दाऊद	-11.6574
▁May	-11.6577
छात्राओं	-11.6577
▁गणराज्य	-11.6579
▁छोड़ते	-11.6579
▁त्यानुसार	-11.6579
▁क्रि	-11.6579
▁गाजर	-11.6581
िओ	-11.6582
ण्डा	-11.6583
▁पारदर्शी	-11.6583
ंकी	-11.6583
▁पैंट	-11.6584
▁इम	-11.6585
▁इंगित	-11.6586
▁अप्रत्याशित	-11.6589
▁November	-11.659
डाउन	-11.6591
▁कुं	-11.6593
फूल	-11.6597
▁मक्खन	-11.6597
▁दोस्तो	-11.6598
▁पहचाना	-11.6599
▁भेजना	-11.66
▁छात्रवृत्ति	-11.6602
ेटिव	-11.6604
▁नंद	-11.6604
एआई	-11.6604
▁पर्दा	-11.6605
▁दरभंगा	-11.6606
▁मांझी	-11.6606
0,000	-11.6607
झे	-11.6608
त्रा	-11.6609
▁वीर्य	-11.6612
▁लेग	-11.6612
▁बीजिंग	-11.6615
▁इसरो	-11.6617
▁गुवाहाटी	-11.6622
▁2-3	-11.6622
▁महतो	-11.6623
▁काटा	-11.6623
AM	-11.6623
मनी	-11.6624
▁चुनी	-11.6624
mm	-11.6625
▁मार्	-11.6626
IS	-11.6626
▁बैरल	-11.6627
रेखा	-11.6629
ण्य	-11.663
▁सक्रियता	-11.6631
▁जल्दबाजी	-11.6631
▁मिनिट	-11.6631
नौ	-11.6631
▁कलकत्ता	-11.6632
▁उमेदवारी	-11.6634
बारी	-11.6635
▁मरे	-11.664
ड़ियां	-11.664
खास	-11.6641
▁वर्षो	-11.6642
▁लाइब्रेरी	-11.6643
▁रविंद्र	-11.6645
▁गोलियों	-11.6646
▁उत्सुक	-11.6648
▁खुराना	-11.6648
▁ब्रेड	-11.665
ोद	-11.6651
▁3000	-11.6651
़ी	-11.6652
▁सोड	-11.6652
▁अभिभावकों	-11.6653
▁समाधि	-11.6654
▁मंगळवारी	-11.6655
▁लोकपाल	-11.6656
▁पंद्रह	-11.6659
▁बां	-11.666
▁हांगकांग	-11.6662
ीश	-11.6663
▁कौशिक	-11.6663
▁शास्त्रीय	-11.6664
▁सैम	-11.6664
▁किस्त	-11.6666
▁विदा	-11.6666
▁धमाके	-11.6669
▁चिह्नित	-11.667
विण्यात	-11.667
▁धनतेरस	-11.667
▁इशारे	-11.6671
▁ख़ुश	-11.6674
▁फलस्वरूप	-11.6675
नेशनल	-11.6675
अस	-11.6678
▁तेवर	-11.6679
आधारित	-11.668
▁डिप्रेशन	-11.6682
रेशन	-11.6684
▁बेगम	-11.6684
▁अरबी	-11.6686
▁जीरो	-11.6686
▁महबूबा	-11.6686
▁जोगी	-11.6687
▁अभिभावक	-11.6688
द्व	-11.6689
सौ	-11.6689
▁अमावस्या	-11.669
मोन	-11.669
लिका	-11.669
▁अनोखा	-11.6694
▁पाकिस्‍तान	-11.6694
मूल्य	-11.6694
▁हल्ला	-11.6695
▁कॉलिंग	-11.6695
▁बाते	-11.6696
▁त्योहारों	-11.67
▁बाँ	-11.6702
pe	-11.6703
▁शहादत	-11.6705
▁बहती	-11.6708
▁मुस	-11.6709
▁शेतकर्‍यांना	-11.6709
▁गोगोई	-11.6709
▁आर्क	-11.6711
▁सायंकाळी	-11.6712
वृत्ति	-11.6712
▁navigation	-11.6713
▁बंसल	-11.6713
▁दूं	-11.6715
ासह	-11.6717
▁v	-11.6719
मारी	-11.672
त्रि	-11.6722
▁पप्पू	-11.6723
ाइजेशन	-11.6724
▁मर्जी	-11.6724
रेस	-11.6726
स्की	-11.6728
▁ब्रज	-11.6729
▁क़ीमत	-11.6729
जाम	-11.6729
क्षक	-11.6732
▁कोरियाई	-11.6733
प्रीत	-11.6734
मीटर	-11.6735
▁मोठी	-11.6736
▁डिवीजन	-11.6737
▁सशक्तिकरण	-11.6737
▁शौच	-11.6737
▁शेड	-11.6739
▁बागी	-11.674
ंजर	-11.6742
▁टर्मिनल	-11.6744
▁सॉफ्ट	-11.6746
▁घुल	-11.6746
▁लीवर	-11.6747
ूरी	-11.6754
▁बोलती	-11.6756
▁कैटेगरी	-11.6756
▁भ्रूण	-11.6756
▁त्यावेळी	-11.6757
▁सेल्स	-11.6757
आईसी	-11.6757
no	-11.6758
▁रगड़	-11.6759
▁रिपोर्टिंग	-11.6759
▁बर्खास्त	-11.6763
▁कहावत	-11.6764
▁खिसक	-11.6764
▁अविश्वसनीय	-11.6764
▁50%	-11.6766
▁लगाता	-11.6766
▁हाफ	-11.6767
▁जड़ी	-11.6767
▁मद्रास	-11.6768
▁चुनिंदा	-11.6768
▁उर	-11.6769
▁भौ	-11.677
▁महेन्द्र	-11.6773
▁शहीदों	-11.6777
▁बोट	-11.6778
.20	-11.6778
▁संतों	-11.678
▁अनेकों	-11.678
ess	-11.6781
▁अनुपमा	-11.6781
▁बदलता	-11.6781
▁यूज़	-11.6782
मंदिर	-11.6787
▁कारकों	-11.6789
▁पहुंचना	-11.679
▁ट्रीटमेंट	-11.6792
▁ड्रॉ	-11.6795
▁दार्शनिक	-11.6795
▁चुत	-11.6796
साइट	-11.6797
▁नेते	-11.6798
tra	-11.6798
▁नहाने	-11.6798
▁अंध	-11.6798
मई	-11.6799
▁प्रेमचंद	-11.68
▁होऊ	-11.6801
-17	-11.6801
रोज़	-11.6801
न्‍न	-11.6801
▁गर	-11.6801
▁मूर्ख	-11.6802
▁हज़रत	-11.6802
▁करावा	-11.6805
▁साधनों	-11.6805
▁पीटीआई	-11.6806
▁रोमांच	-11.6807
▁उमड़	-11.6808
▁ऐन	-11.6809
पेश	-11.681
▁सिसोदिया	-11.6811
▁जाइए	-11.6811
2017	-11.6812
▁ब्लास्ट	-11.6814
▁ग्रन्थ	-11.6815
▁कैम्प	-11.6816
▁पुढील	-11.6819
▁मेहमानों	-11.682
▁तरस	-11.6821
संघ	-11.6823
मास	-11.6824
▁कफ	-11.6825
▁राघव	-11.6825
▁जर्नल	-11.6825
▁प्यारा	-11.6825
removeAttr	-11.6827
▁é	-11.6827
▁क्यूँ	-11.6828
र्च	-11.6828
▁प्लेन	-11.6829
▁माध्यमातून	-11.683
घे	-11.683
▁भलाई	-11.6834
▁अभिनंदन	-11.6835
र्ष	-11.6835
able	-11.6837
▁कराये	-11.6839
▁मज	-11.6839
▁निवड	-11.684
▁बेक	-11.6842
इंड	-11.6847
▁शुक्रवारी	-11.6847
▁.1	-11.6847
मेड	-11.6847
▁ताजमहल	-11.6852
▁प्रेमियों	-11.6854
▁हार्डवेयर	-11.6855
▁बाध्य	-11.6855
▁पूछना	-11.6857
आन	-11.6857
▁संघीय	-11.6857
ायी	-11.6857
▁पढ़ाने	-11.6858
मंगल	-11.6859
▁एनसीआर	-11.6861
▁राजनयिक	-11.6862
▁निलंबन	-11.6866
▁चूका	-11.6866
▁घुसकर	-11.6867
लियों	-11.6867
▁जानकारों	-11.6869
पोल	-11.687
दारों	-11.6873
ंदी	-11.6874
▁बिगाड़	-11.6874
सीआई	-11.6875
▁2.0	-11.6875
▁श्रीकांत	-11.6875
▁आदान	-11.6875
▁लगन	-11.6877
▁तस्‍वीरें	-11.6879
▁रक्षक	-11.6881
मुस्लिम	-11.6883
▁योद्धा	-11.6884
▁);	-11.6885
▁पटाखे	-11.6886
▁वीकेंड	-11.6887
▁कल्चर	-11.6888
▁°	-11.689
▁बॉ	-11.6891
-15	-11.6893
.40	-11.6893
▁पुख्ता	-11.6894
▁राइफल	-11.6895
▁अमेजन	-11.6896
फिक	-11.6896
ताना	-11.6896
▁पीएचडी	-11.6897
▁बेवकूफ	-11.6898
▁2015-16	-11.6899
▁शवों	-11.6899
बढ़	-11.6899
▁बटोर	-11.69
हरि	-11.6901
▁धनंजय	-11.6902
▁आश्रय	-11.6902
▁जिल्हाधिकारी	-11.6902
▁करिए	-11.6903
▁पीटर	-11.6903
▁अमरनाथ	-11.6904
कर्मियों	-11.6905
▁बनवाने	-11.6906
▁शेती	-11.6906
▁छठी	-11.6907
▁प्रतिपक्ष	-11.6908
▁मोठा	-11.6908
▁अवशेष	-11.6908
л	-11.6909
ल्यानंतर	-11.6911
हाथ	-11.6912
▁अम्मा	-11.6912
.13	-11.6914
ie	-11.6914
▁उम्मीदों	-11.6914
▁उद	-11.6914
▁छापे	-11.6914
▁इन्सान	-11.6915
ओवर	-11.6917
एनसीआर	-11.6918
▁ज़माने	-11.6918
▁कट्टर	-11.6918
▁विनिर्माण	-11.6923
cc	-11.6924
▁बूट	-11.6924
▁राक्षस	-11.6924
▁बडी	-11.6924
▁चौंक	-11.6925
▁परेशानियां	-11.6925
स्तरीय	-11.6928
▁बुधवारी	-11.6929
▁मुफ्ती	-11.6932
▁कॉर्पोरेट	-11.6934
▁बसंत	-11.6936
▁तोहफा	-11.6938
▁ट्रिपल	-11.6938
▁जगन्नाथ	-11.6942
▁महासंघ	-11.6945
▁ब्लूटूथ	-11.6949
▁ऋषिकेश	-11.695
▁x	-11.6952
▁कास्ट	-11.6954
▁फ्रांसीसी	-11.6957
▁निष्ठा	-11.6959
▁बुलेट	-11.696
▁सज	-11.6961
ॉर	-11.6963
.02	-11.6965
▁इलाक़े	-11.6965
▁एस्टेट	-11.6966
▁सुर्खियां	-11.6966
▁रणनीतिक	-11.6966
▁व्यंजनों	-11.6967
▁पारस	-11.6967
▁औषध	-11.6968
io	-11.6968
एंड	-11.6968
й	-11.6969
▁दुबारा	-11.697
▁शास्त्रों	-11.6972
▁तालुका	-11.6973
▁कॅ	-11.6975
▁धमाका	-11.6977
रुप	-11.6978
उत्पाद	-11.6979
▁सियान	-11.698
▁अर्थशास्त्र	-11.698
▁आइकन	-11.6982
▁बीएस	-11.6982
▁आफिस	-11.6982
▁परीक्षाएं	-11.6983
▁पुनर्वास	-11.6986
▁पकड	-11.6987
▁प्रजातियों	-11.6987
कास्ट	-11.6988
▁टाउन	-11.6989
ेष	-11.699
▁2:	-11.699
▁तटीय	-11.6991
▁कलश	-11.6992
▁pow	-11.6994
▁झंडी	-11.6995
स्टा	-11.7
ga	-11.7
खन	-11.7
▁डरा	-11.7
▁मैप	-11.7
▁मेरिट	-11.7001
▁बरतने	-11.7001
▁चंद्रकांत	-11.7002
▁सिरदर्द	-11.7003
▁धनुष	-11.7004
▁मिशेल	-11.7006
▁लगना	-11.7007
▁मुजफ्फरनगर	-11.7008
सम्मान	-11.7008
▁रस्त्या	-11.7011
पिंग	-11.7011
▁पिस्टल	-11.7014
▁मातृ	-11.7014
▁टिप्पणियाँ	-11.7015
सफाई	-11.7015
कंपनी	-11.7017
▁न्यायपालिका	-11.7017
▁खीरी	-11.7017
▁ट्र	-11.7018
ॅक	-11.7019
▁मदर	-11.7021
▁अपितु	-11.7021
▁बढ़ोत्तरी	-11.7021
▁डिब्बे	-11.7025
ng	-11.7027
▁पक्की	-11.7027
षक	-11.7028
▁दीन	-11.7029
▁गायों	-11.7029
▁नाट्य	-11.703
्रू	-11.703
▁बीए	-11.7031
▁सिखा	-11.7034
▁बयां	-11.7035
▁बनाएंगे	-11.704
▁भगवान्	-11.7043
▁फोड़	-11.7045
▁जन्मभूमि	-11.7045
▁रवैये	-11.7046
▁उपभोग	-11.7046
ख्या	-11.7048
▁उत्तेजित	-11.7054
1%	-11.7057
स्थल	-11.7058
▁नमूने	-11.7058
▁हुनर	-11.7059
▁खासगी	-11.706
फील्ड	-11.706
▁अहवाल	-11.7062
▁परफॉर्मेंस	-11.7062
▁इश्क	-11.7063
▁बाँट	-11.7066
आन्ध्र	-11.7066
हद	-11.7066
▁ओपनिंग	-11.7067
बेट	-11.7069
▁माउंट	-11.7069
.03	-11.7069
▁आशय	-11.7072
▁IPL	-11.7072
▁अहिंसा	-11.7072
▁खुशियों	-11.7073
▁मुरादाबाद	-11.7073
▁हटने	-11.7073
▁पहिल्या	-11.7074
दस	-11.7074
ty	-11.7076
▁लेडी	-11.7076
po	-11.7078
राई	-11.7078
▁नमाज़	-11.7078
▁गोर	-11.7078
बोल	-11.7079
▁दाने	-11.708
▁ह्रदय	-11.7082
▁बेहोश	-11.7084
नवम्बर	-11.7084
▁पैसेंजर	-11.7084
पं	-11.7085
▁संकेतों	-11.7085
▁प्रभावों	-11.7086
वरी	-11.7091
प्रसार	-11.7094
बन्ध	-11.7095
▁दामाद	-11.7095
मिस	-11.7096
▁मौखिक	-11.7098
▁चिराग	-11.7099
▁आसाराम	-11.7103
▁अग	-11.7105
▁तिब्बत	-11.7107
▁कदमों	-11.7107
ार्थी	-11.7108
▁आकस्मिक	-11.711
▁स्त्रोत	-11.711
साहेब	-11.7112
▁फेंकने	-11.7112
▁संपादकीय	-11.7113
ष्टि	-11.7113
ढ़ी	-11.7114
▁प्रभाग	-11.7115
▁बिट	-11.7116
▁जैकेट	-11.7117
▁राउत	-11.7118
▁फूंक	-11.7121
▁समेट	-11.7122
लिस्ट	-11.7122
▁नजारा	-11.7122
▁अमृता	-11.7123
▁अनुभाग	-11.7124
▁इंसानों	-11.7126
▁तिरंगा	-11.7128
शासन	-11.7129
▁स्क्रीनिंग	-11.7132
▁दिल्या	-11.7132
be	-11.7134
▁भाग्यशाली	-11.7135
▁छिपे	-11.7141
▁नसल्याचे	-11.7143
▁बेदी	-11.7144
▁च्या	-11.7145
▁बालू	-11.7145
▁रुग्णालयात	-11.7146
▁खोलें	-11.7147
з	-11.7147
▁एमएम	-11.7147
......	-11.7147
▁मिळाले	-11.715
▁ताबड़तोड़	-11.7151
▁सोचकर	-11.7152
भोपाल	-11.7153
▁अभूतपूर्व	-11.7155
▁क्रियान्वयन	-11.7155
▁पटियाला	-11.7155
▁खौफ	-11.7155
▁बर्	-11.7155
▁बदतर	-11.7155
▁कुरान	-11.7158
▁सजग	-11.7163
▁पसीने	-11.7163
▁मैट	-11.7165
▁ग्रा	-11.7166
▁सोचे	-11.7167
▁अत्यन्त	-11.7167
▁चित्रित	-11.7167
▁आजमगढ़	-11.7167
▁साधक	-11.7168
▁कांच	-11.717
्के	-11.7171
द्वारा	-11.7171
व्रत	-11.7171
▁गुनाह	-11.7171
400	-11.7174
▁सिवा	-11.7175
▁पवेलियन	-11.7175
▁टावर	-11.7176
sk	-11.7176
▁Ra	-11.7178
▁किफायती	-11.7179
▁अपग्रेड	-11.718
▁वारंट	-11.718
fe	-11.7181
ber	-11.7181
मीर	-11.7183
▁स्प्रे	-11.7183
▁शिर	-11.7183
▁तिर	-11.7185
▁त्याची	-11.7185
▁3.5	-11.7187
▁गिरि	-11.7187
▁मलाइका	-11.7187
▁छि	-11.7189
मेष	-11.719
▁द्रव	-11.719
▁जीप	-11.7193
▁भत्ता	-11.7194
ख्	-11.7194
पुल	-11.7196
▁रियो	-11.7196
▁स्वरुप	-11.72
▁मसला	-11.7205
▁मोटापा	-11.7209
परा	-11.721
▁ताक	-11.7211
रियर	-11.7212
▁मनपा	-11.7212
▁var	-11.7213
▁निगाह	-11.7213
रेड	-11.7214
▁बुलेटिन	-11.7217
▁रविवारी	-11.722
▁कंटेस्टेंट	-11.7221
д	-11.7222
.17	-11.7223
▁लुट	-11.7223
▁तकनीकों	-11.7224
▁ज्येष्ठ	-11.7228
सूत्र	-11.7229
▁दसवीं	-11.723
▁बंट	-11.7232
▁राजवंश	-11.7232
Re	-11.7233
▁कानों	-11.7234
▁बेडरूम	-11.7234
▁शू	-11.7235
भार	-11.7238
▁लड	-11.7238
▁चार्जशीट	-11.7241
▁करोड़पति	-11.7243
कर्नाटक	-11.7243
▁जौ	-11.7245
▁ग्र	-11.7246
▁नु	-11.7247
▁]]>	-11.7248
▁बाव	-11.7249
▁संक्रमितों	-11.725
क्रे	-11.7251
▁माली	-11.7251
▁प्रॉब्लम	-11.7253
▁एचडीएफसी	-11.7253
▁बुंदेलखंड	-11.7253
▁निष्	-11.7254
▁बाजू	-11.7255
▁खुशखबरी	-11.7257
▁वसुंधरा	-11.7257
▁पीजी	-11.7258
▁खरा	-11.7258
▁उछल	-11.7261
▁स्वर्गीय	-11.7264
पता	-11.7265
▁बिखर	-11.7265
▁क्वीन	-11.7267
खोर	-11.7268
▁वंदना	-11.7269
▁ड्रीम	-11.7269
गरीब	-11.727
ध्यान	-11.7271
उदयपुर	-11.7272
फेसबुक	-11.7272
2016	-11.7273
▁टेस्टिंग	-11.7273
▁इस्लामाबाद	-11.7275
▁सजाया	-11.7275
▁आंच	-11.7277
National	-11.7278
▁चित्त	-11.7278
लव	-11.728
जै	-11.7282
▁अंपायर	-11.7286
▁जिसपर	-11.7286
▁साउंड	-11.7287
००	-11.7287
.45	-11.7289
Published	-11.7289
▁वीक	-11.729
UP	-11.7291
▁ऐंड	-11.7292
▁मंड	-11.7292
ER	-11.7294
▁एंबुलेंस	-11.7294
▁वृश्चिक	-11.7295
▁होऊन	-11.7297
▁रखनी	-11.7297
टीम	-11.7297
▁शासकों	-11.7299
▁ब्रे	-11.7304
▁फ़ायदा	-11.7306
हाई	-11.7307
▁छक्का	-11.7307
▁अथॉरिटी	-11.7311
▁ओमिक्रॉन	-11.7311
बदल	-11.7311
ोम	-11.7311
राह	-11.7315
▁अफसोस	-11.7315
▁विवादास्पद	-11.7315
):	-11.7316
▁कमलेश	-11.7318
क्टर	-11.7322
▁बंदर	-11.7323
▁अनुष्ठान	-11.7323
▁कसर	-11.7323
झी	-11.7324
▁1,000	-11.733
▁धनिया	-11.7332
▁शारदा	-11.7332
जीवी	-11.7333
▁खरे	-11.7335
ँच	-11.7335
▁पौष्टिक	-11.7335
▁पॉली	-11.7336
▁०	-11.7341
्रे	-11.7343
▁गुन्हे	-11.7343
SA	-11.7346
▁शीत	-11.7347
ुला	-11.7347
घु	-11.7348
िच	-11.7348
जुल	-11.7349
▁चौकीदार	-11.7349
स्टोर	-11.7353
▁वायरलेस	-11.7354
SS	-11.7356
▁वसीम	-11.7358
▁प्रतिरक्षा	-11.736
▁डरते	-11.7361
▁ठहरा	-11.7362
▁यंग	-11.7362
पेन	-11.7363
▁and	-11.7363
▁↑	-11.7365
▁आलोचक	-11.7368
मोह	-11.737
एसएस	-11.7371
▁बूंद	-11.7372
▁किराये	-11.7372
▁मसाज	-11.7375
▁मनोविज्ञान	-11.7377
▁रोते	-11.7378
▁एसआईटी	-11.7381
▁येईल	-11.7381
ci	-11.7383
é	-11.7385
▁मित्तल	-11.7385
▁क्लर्क	-11.7386
▁प्रजापति	-11.7389
▁दब	-11.7389
इये	-11.7389
▁फेफड़ों	-11.7389
▁कॉन्	-11.739
▁दंगा	-11.7391
▁अंडा	-11.7391
▁कयास	-11.7391
▁एल्	-11.7392
▁ड्राई	-11.7393
▁रोना	-11.7393
▁याच	-11.7393
▁पतला	-11.7394
▁किस्सा	-11.7394
▁यंदा	-11.7395
▁यूथ	-11.7395
Continue	-11.7397
▁नेपाली	-11.7399
ba	-11.74
▁April	-11.7402
ide	-11.7402
▁श्रवण	-11.7402
▁mo	-11.7403
▁160	-11.7403
▁बृहस्पति	-11.7403
ग्रे	-11.7404
▁बेसब्री	-11.7406
▁शासनकाल	-11.7406
▁मैडम	-11.7407
▁करोड	-11.7408
ग्री	-11.7409
▁खोने	-11.7409
▁फोटोशूट	-11.7411
द्वारे	-11.7415
ियाल	-11.7416
खबरें	-11.7419
▁इकबाल	-11.7419
▁मग	-11.7419
▁खानपान	-11.742
इन्	-11.7421
▁समज	-11.7423
मूर्ति	-11.7425
ल्ह	-11.7428
▁कार्यालयों	-11.7429
▁कृत्य	-11.7435
▁//	-11.7436
▁हिसार	-11.7436
▁काबुल	-11.7437
▁क्रूर	-11.7438
▁101	-11.7439
िंस	-11.7439
▁अध्यात्म	-11.744
जरी	-11.744
Co	-11.744
▁करताना	-11.7442
▁क्‍योंकि	-11.7444
▁समर्थ	-11.7445
▁बेटों	-11.7446
▁असफलता	-11.7446
▁कैलिफोर्निया	-11.7446
▁चुटकी	-11.7448
▁डेल्टा	-11.7448
▁उगा	-11.7449
▁बैकअप	-11.7449
तरी	-11.745
काय	-11.7451
▁सराहनीय	-11.7452
▁कृषी	-11.7452
os	-11.7452
▁झो	-11.7458
▁आंत	-11.7459
▁सीसी	-11.746
▁गवाही	-11.746
चाई	-11.7461
▁पत्ता	-11.7461
mit	-11.7461
▁तैमूर	-11.7465
▁ख़बरों	-11.7465
▁झोंक	-11.7467
▁झूम	-11.7471
ट्ठ	-11.7472
रेज	-11.7473
▁August	-11.7473
द्दी	-11.7474
▁बीएसएफ	-11.7475
▁परोस	-11.7477
▁मिर्जा	-11.7477
▁धंधे	-11.7477
▁कुश्ती	-11.7477
▁चुकाने	-11.748
▁लागणार	-11.748
▁दिव्या	-11.7481
नामा	-11.7481
ानन्द	-11.7484
▁त्यांचा	-11.7484
ari	-11.7484
▁माहिर	-11.7485
सही	-11.7485
▁थप्पड़	-11.7486
लेला	-11.7486
▁गेली	-11.7486
▁लड़ना	-11.7487
▁क्षमताओं	-11.7489
▁MP	-11.7492
▁Apple	-11.7492
ow	-11.7493
▁स्ट्रोक	-11.7496
▁वैल्यू	-11.7497
▁चिपक	-11.7497
▁शंका	-11.7498
▁झूठा	-11.7498
थि	-11.7498
▁लिफ्ट	-11.7499
▁एण्ड	-11.7501
हेल	-11.7502
कहा	-11.7502
▁करंट	-11.7502
▁संप्रदाय	-11.7502
▁भूटान	-11.7503
ादि	-11.7503
<	-11.7504
▁तारे	-11.7504
कोश	-11.7504
टै	-11.7506
▁अनुज	-11.7506
▁वाल	-11.7506
▁श्रेयस	-11.7508
▁स्केल	-11.7511
फ़े	-11.7513
▁कपडे	-11.7514
टॉ	-11.7516
▁चप्पल	-11.7516
▁स्ल	-11.7519
▁इको	-11.752
▁लाये	-11.7523
▁कटे	-11.7523
▁कार्यान्वयन	-11.7524
▁निविदा	-11.7524
▁नाता	-11.7526
▁दूँ	-11.7527
ईं	-11.7527
du	-11.7529
▁छिप	-11.7532
लॉ	-11.7534
▁नौका	-11.7536
▁Sh	-11.7537
बिया	-11.7538
▁स्ट्रीमिंग	-11.754
बेटी	-11.7543
▁ऊँचाई	-11.7543
वाड	-11.7544
▁एड्स	-11.7544
ang	-11.7547
▁असेल	-11.7547
ल्प	-11.7548
ass	-11.7549
▁October	-11.7549
▁अश्विनी	-11.7549
गाय	-11.7551
▁खोली	-11.7552
ंठ	-11.7552
बॉल	-11.7554
▁दर्शाया	-11.7554
▁पथक	-11.7556
▁बुलाने	-11.7559
▁शक्ल	-11.7559
▁पढने	-11.7561
▁फैसलों	-11.7562
▁रस्सी	-11.7565
▁Also	-11.7566
वैज्ञानिक	-11.7566
तिल	-11.7568
▁टूटा	-11.7568
▁गायन	-11.7568
▁डब	-11.7568
▁मसाले	-11.7569
भावना	-11.757
▁स्ट्रीम	-11.7571
News	-11.7571
▁मेज	-11.7572
▁एट	-11.7573
▁ठिकानों	-11.7574
शायर	-11.7575
ब्ल	-11.7576
▁अलवर	-11.7577
ice	-11.7578
▁समितियों	-11.7581
▁पाहिजे	-11.7583
▁चाइना	-11.7583
न्ह	-11.7584
▁शिकस्त	-11.7584
▁कीर्ति	-11.7584
▁सुखी	-11.7584
पीठ	-11.7585
▁टॉयलेट	-11.7586
्सी	-11.7586
▁उत्तराधिकारी	-11.7587
▁#00	-11.7587
▁मलेरिया	-11.7587
लीन	-11.7589
ापासून	-11.759
▁सूखी	-11.7591
▁कुरैशी	-11.7591
▁जॉनसन	-11.7593
▁व्यवसायों	-11.7594
▁गुजरना	-11.7594
▁रस्त्यावर	-11.7595
जार	-11.7595
▁प्रणाम	-11.7596
▁नाराज़	-11.7596
उन्हें	-11.7596
तरा	-11.7596
ग्रेस	-11.7596
▁थमा	-11.7597
▁सीए	-11.7597
▁रेशम	-11.7599
▁निचली	-11.76
सेवक	-11.7602
▁उत्सुकता	-11.7604
▁चट्टान	-11.7604
▁अल्मोड़ा	-11.7606
▁संशयित	-11.7607
▁गलतियों	-11.7608
▁140	-11.7608
▁रोहिंग्या	-11.7608
▁बाहुबली	-11.7609
ौला	-11.7611
बीज	-11.7612
▁यूएई	-11.7613
▁दामन	-11.7613
▁क्रोम	-11.7613
▁एयरलाइन	-11.7614
▁दरार	-11.7614
▁Mo	-11.7617
विषय	-11.7619
▁लेखों	-11.7619
▁सम्भावना	-11.7621
▁मन्त्र	-11.7625
▁कलियुग	-11.7625
▁बर्ताव	-11.7625
ोह	-11.7626
मिट	-11.7628
▁लम्बा	-11.7628
▁जीवनशैली	-11.7628
▁माइक्रोसॉफ्ट	-11.763
ारे	-11.763
▁चन्नी	-11.7632
▁स्म	-11.7632
ॉड	-11.7632
▁३०	-11.7633
र्य	-11.7633
न्य	-11.7634
▁फर्नीचर	-11.7634
आवेदन	-11.7635
▁व्यवसायी	-11.7635
जिंग	-11.7636
दों	-11.7638
▁अप्रत्यक्ष	-11.7639
▁असंतोष	-11.7639
▁पक	-11.764
▁Jio	-11.764
▁पुतिन	-11.7642
▁ब्रह्मांड	-11.7643
ंश	-11.7643
▁स्न	-11.7644
SI	-11.7644
▁the	-11.7645
▁खर्चा	-11.765
▁ड्रॉप	-11.7651
▁लगाती	-11.7651
▁लागली	-11.7651
▁विमोचन	-11.7651
TI	-11.7653
क्व	-11.7654
▁टिम	-11.7655
दुर	-11.7655
▁उर्जा	-11.7655
▁संकोच	-11.766
▁सुधारों	-11.7663
▁सत्याग्रह	-11.7664
▁तबादला	-11.7664
ढ़े	-11.7664
जिक	-11.7664
▁अनुकूलित	-11.7664
▁पीवी	-11.7665
▁लिखता	-11.7667
गरी	-11.7667
▁एडवांस	-11.7667
▁राब	-11.7668
▁उठाये	-11.7668
पात्र	-11.7668
▁चैम्पियनशिप	-11.7668
केरल	-11.767
शाही	-11.767
▁बेचे	-11.7671
▁जुबान	-11.7671
प्रधान	-11.7671
▁लेफ्टिनेंट	-11.7672
धे	-11.7672
▁प्रसंस्करण	-11.7673
▁जैश	-11.7674
▁एनआईए	-11.7674
AR	-11.7675
▁सिद्दीकी	-11.7677
▁टंडन	-11.7677
▁तारों	-11.7677
डिजिटल	-11.7678
▁राणे	-11.768
▁Ar	-11.768
▁सेतु	-11.768
▁वॉटर	-11.768
▁स्तरों	-11.7682
▁काबिज	-11.7686
▁दिखाती	-11.7692
▁चौका	-11.7693
▁विवाहित	-11.7693
▁थाईलैंड	-11.7694
▁पृथ्वीराज	-11.7696
▁नायर	-11.7698
▁सिने	-11.7698
▁केन्द्रों	-11.7701
लॉग	-11.7702
OS	-11.7706
▁जसप्रीत	-11.7707
▁गोरे	-11.7707
▁भाटिया	-11.7707
▁भावी	-11.7708
▁१६	-11.771
▁घुटनों	-11.7713
▁आईएस	-11.7717
▁लड़ी	-11.7719
▁ब्रेन	-11.7719
▁देवर	-11.772
जेन	-11.7722
▁करोगे	-11.7723
.09	-11.7724
▁धंधा	-11.7725
▁परफेक्ट	-11.7725
्टे	-11.7726
गोल	-11.7728
▁बिज	-11.7728
च्छा	-11.773
बरी	-11.7731
son	-11.7734
▁सॉस	-11.7735
▁फतेहपुर	-11.7736
-18	-11.7737
वाइ	-11.7737
▁December	-11.7738
▁लड़े	-11.7739
फोर्ड	-11.774
▁पैलेस	-11.774
▁अकाल	-11.7741
▁लाइफस्टाइल	-11.7742
कड़	-11.7742
▁अविश्वास	-11.7745
मकर	-11.7745
▁जीतना	-11.7747
▁एथलीट	-11.775
▁इस्पात	-11.775
▁अनियंत्रित	-11.775
किशोर	-11.7751
▁आजमा	-11.7752
SC	-11.7752
▁फ्रिज	-11.7753
▁भंसाली	-11.7754
▁एंजेल	-11.7757
▁प्रस्थान	-11.7759
▁बेटियां	-11.7759
रक्षक	-11.7762
▁सेलेक्ट	-11.7763
▁विलियम	-11.7765
▁चौबे	-11.7766
▁मुखर	-11.7767
लेबल	-11.7767
ans	-11.7769
▁सौगात	-11.7771
अच्छा	-11.7774
▁थॉमस	-11.7776
▁भेजकर	-11.7776
▁कुणाल	-11.7776
▁फार	-11.7776
▁फ्रेंड	-11.7776
ंझ	-11.7777
▁गिरफ़्तार	-11.7779
▁बांटा	-11.778
ुंग	-11.778
▁शनिवारी	-11.7781
▁June	-11.7784
▁लश्कर	-11.7784
▁औषधीय	-11.7786
विरोधात	-11.7787
▁मिस्टर	-11.7787
ैत	-11.779
▁धनबाद	-11.7792
▁श्लोक	-11.7793
निर्माण	-11.7797
▁पसर	-11.7797
▁साह	-11.7797
▁ताइवान	-11.7797
▁रुग्ण	-11.78
▁रूख	-11.7802
▁मेहंदी	-11.7806
बाड़ी	-11.7809
▁104	-11.7809
्ते	-11.781
लियन	-11.7812
▁बंग	-11.7817
▁राजनेताओं	-11.7818
शियल	-11.7818
▁विकलांग	-11.7825
ापुर	-11.7825
▁कटाई	-11.7826
▁उंगलियों	-11.7828
▁होड़	-11.7828
.’’	-11.7828
▁बिपिन	-11.7828
▁फ़िल्में	-11.7829
▁कैरी	-11.783
▁इन्टरनेट	-11.7832
▁जिस्म	-11.7833
▁चुनते	-11.7835
कहीं	-11.7838
▁घिरे	-11.7839
RE	-11.784
▁मुबारक	-11.7841
▁फौरन	-11.7841
▁रिएक्शन	-11.7841
▁ईशा	-11.7841
ाें	-11.7844
कब	-11.7845
▁प्रदूषित	-11.7845
▁वॉच	-11.7845
ॉयड	-11.7846
▁फीड	-11.7846
▁मेहरा	-11.7847
पीट	-11.7849
्वर	-11.785
▁.5	-11.7851
्टो	-11.7852
▁पितृ	-11.7855
ताज़ा	-11.7855
थन	-11.7857
▁घंटी	-11.7859
▁वाच	-11.7861
आपने	-11.7861
▁105	-11.7861
▁मिळाली	-11.7863
▁सिक्का	-11.7864
▁दीवाना	-11.7864
▁जमशेदपुर	-11.7865
▁खुदकुशी	-11.7867
▁क्ल	-11.787
जिया	-11.7873
▁पौ	-11.7873
बाब	-11.7875
tt	-11.7875
▁विकिपीडिया	-11.7876
▁मार्जिन	-11.7876
▁परिस्थिती	-11.7877
▁दूषित	-11.788
▁नित्य	-11.788
▁आर्	-11.7881
▁जेवर	-11.7884
▁खुदा	-11.7884
▁झड़	-11.7887
▁सिं	-11.7887
co	-11.7888
नाल	-11.7888
▁गायिका	-11.7888
र्फ	-11.7889
▁कार्यभार	-11.7889
▁समझदार	-11.7889
▁रचित	-11.7889
▁मंगा	-11.789
ोरी	-11.7891
▁पहुंचती	-11.7891
▁करूँगा	-11.7893
▁उखाड़	-11.7893
ain	-11.7897
▁सम्बोधित	-11.7898
वेब	-11.7898
▁पलटवार	-11.7899
▁डेमोक्रेटिक	-11.7903
▁एनपीए	-11.7904
▁सैं	-11.7905
गली	-11.7905
▁सानिया	-11.7905
▁आंधी	-11.7906
▁फेडरेशन	-11.7906
▁यौगिक	-11.7908
▁बिंदुओं	-11.7908
▁कब्र	-11.7911
▁बेचैनी	-11.7912
पुस्तक	-11.7913
ीर	-11.7915
▁गर्भपात	-11.7916
▁टूटी	-11.7918
▁पात्रों	-11.7918
▁प्रशासक	-11.7918
क्षी	-11.792
▁गेला	-11.792
▁प्रदाता	-11.792
स्पेशल	-11.7922
▁एन्	-11.7922
योजन	-11.7923
▁सिखों	-11.7924
▁Pradesh	-11.7924
▁टेलीग्राम	-11.7924
स्‍थ	-11.7925
अर्थ	-11.7928
गुन	-11.793
▁अमेज़न	-11.7934
▁गुणा	-11.7935
देखील	-11.7936
▁रीवा	-11.7936
▁दृश्यों	-11.7937
▁चाइल्ड	-11.7938
▁प्रात	-11.7939
▁राजनीतिज्ञ	-11.7939
▁दयाल	-11.7939
▁इलेक्ट्रॉनिक्स	-11.794
▁बहाली	-11.7941
▁विलास	-11.7944
▁डायलॉग	-11.7946
▁कैल	-11.795
विवाह	-11.795
▁निर्भया	-11.7951
▁मची	-11.7952
▁छप	-11.7953
▁इर्द	-11.7954
▁पन	-11.7954
▁परख	-11.7954
▁जयराम	-11.7955
▁व्याख्यान	-11.7955
▁बिकने	-11.7957
▁दीपा	-11.7958
▁चावला	-11.7958
पन्न	-11.7961
▁सिद्धि	-11.7964
पूजा	-11.7964
▁आदतों	-11.7966
▁क्रय	-11.7967
▁इनमे	-11.7967
वेळी	-11.7968
▁कराएं	-11.7968
▁याने	-11.7969
▁त्यावर	-11.7971
१९	-11.7972
ड्डी	-11.7973
▁काँग्रेसचे	-11.7974
▁टिप्पणियों	-11.7977
धो	-11.7977
ंगो	-11.7978
▁सलाद	-11.7978
आर्थिक	-11.7979
▁मानचित्र	-11.7979
▁एआई	-11.798
सिव	-11.7982
सूर	-11.7986
▁लुधियाना	-11.7986
▁दारू	-11.7988
▁टोन	-11.7989
▁आनन	-11.799
▁हैंड	-11.799
▁तिहाई	-11.799
▁टर्न	-11.7991
सभा	-11.7992
मौसम	-11.7993
कमल	-11.7994
▁शौकीन	-11.7996
our	-11.7996
गौरतलब	-11.7997
▁2020.	-11.7997
सूर्य	-11.7998
जानिए	-11.7998
.21	-11.7998
▁फोटोग्राफर	-11.7999
▁फेम	-11.8
▁कौल	-11.8001
्लो	-11.8003
▁पत्थरों	-11.8003
▁हरभजन	-11.8003
▁पतंजलि	-11.8003
▁दूरदर्शन	-11.8003
▁September	-11.8007
▁कॉमर्स	-11.8007
▁दिखेगा	-11.8007
▁अल्ट्रा	-11.8008
▁फरमान	-11.801
▁निपटा	-11.8011
▁कसरत	-11.8014
खोरी	-11.8015
▁वियतनाम	-11.8018
▁तस्कर	-11.8019
ल्याची	-11.8019
▁चिं	-11.802
▁सिकंदर	-11.803
▁इतिहासकार	-11.8033
▁डांसर	-11.8033
!”	-11.8034
▁गर्दी	-11.8035
नॉ	-11.8035
▁झाल्यानंतर	-11.8035
▁पिछला	-11.8036
▁विक्री	-11.8036
▁मर्डर	-11.8037
शाली	-11.8037
ोदय	-11.8038
▁Click	-11.8039
▁बर्थ	-11.8039
▁हनी	-11.804
ॉट	-11.804
▁फ़े	-11.804
~	-11.8042
▁मुश्किलों	-11.8047
एनए	-11.8049
п	-11.8049
ळकर	-11.805
ऱ	-11.8051
▁कुएं	-11.8052
▁चैक	-11.8054
▁प्रॉ	-11.8054
वू	-11.8056
▁ग्रेजुएट	-11.8056
फार्म	-11.8058
▁उत्तेजना	-11.8061
▁रॉयल्स	-11.8064
लोड	-11.8067
▁क्व	-11.8068
▁डालता	-11.8068
▁बंगला	-11.8069
▁कैंट	-11.8069
▁con	-11.8071
फ्र	-11.8072
▁नवाचार	-11.8076
▁आपातकालीन	-11.8079
▁दिस	-11.809
▁हमीरपुर	-11.809
AL	-11.8091
▁1970	-11.8092
▁टेंडर	-11.8093
कॉन	-11.8094
▁आसिफ	-11.8094
SP	-11.8095
गाह	-11.8097
▁लिप	-11.8101
▁अधूरा	-11.8101
sa	-11.8103
व्हा	-11.8104
ाग	-11.8104
▁अमीरात	-11.8104
घो	-11.8106
▁प्रतिबंधों	-11.811
▁टिकैत	-11.811
कर्क	-11.8114
▁उपेंद्र	-11.8116
▁टूटे	-11.8119
▁if	-11.812
ार्ड	-11.8121
ाएंगे	-11.8122
▁ब्रिगेड	-11.8123
लोर	-11.8124
▁जिज्ञासा	-11.8124
▁तहलका	-11.8124
▁समाजसेवी	-11.8124
▁बूढ़े	-11.8124
िएट	-11.8125
▁बंगले	-11.8126
▁निकायों	-11.8127
▁तैर	-11.8128
▁गाइडलाइन	-11.8129
ावल	-11.813
मगर	-11.8132
▁संभवत	-11.8134
लॉजी	-11.8135
▁1.2	-11.8135
▁सिखाने	-11.8135
वं	-11.8135
▁ब्लॉगिंग	-11.8135
▁मौसी	-11.8135
▁भरती	-11.8137
▁जनजातीय	-11.8138
▁अड	-11.814
▁तेलुगु	-11.8142
▁हराने	-11.8142
▁सुश्री	-11.8143
▁जनसंपर्क	-11.8143
▁वक्ता	-11.8144
▁मुर	-11.8148
▁3:	-11.8149
▁धा	-11.815
▁वां	-11.815
▁आवागमन	-11.8151
▁क्रू	-11.8151
▁FIR	-11.8151
▁वास्तुकला	-11.8151
▁ृ	-11.8152
▁वरीयता	-11.8153
▁१७	-11.8154
▁एयरलाइंस	-11.8155
▁घेरा	-11.8157
स्रोत	-11.8157
▁इंसाफ	-11.8161
▁मिलाया	-11.8161
▁महारानी	-11.8162
बिना	-11.8163
▁लम्बाई	-11.8163
▁एडम	-11.8163
ेट्स	-11.8163
▁July	-11.8164
▁सनराइजर्स	-11.8164
▁चालीस	-11.8164
▁प्रकाशक	-11.8165
▁गुरुवारी	-11.8167
▁सोचती	-11.8168
म्बल	-11.8168
▁अरविन्द	-11.8169
▁झाड़	-11.8169
डेंट	-11.8171
▁→	-11.8171
▁क़ि	-11.8175
▁सौरव	-11.8177
कवि	-11.8177
▁एडवोकेट	-11.8177
▁टेलीकॉम	-11.8178
ावरून	-11.8178
▁दै	-11.8179
ावी	-11.8182
▁श्रॉफ	-11.8187
त्‍	-11.8188
▁पीक	-11.8189
▁गुमराह	-11.8191
▁परिसरातील	-11.8191
▁वेडिंग	-11.8192
▁मुख्यतः	-11.8194
▁घिरा	-11.8194
संपादकीय	-11.8196
▁हेलिकॉप्टर	-11.8196
▁असेही	-11.8197
सुल	-11.8198
SE	-11.8198
▁खुलेआम	-11.8201
▁अंदरूनी	-11.8201
▁टीआरपी	-11.8201
इंट	-11.8201
▁कोशिशें	-11.8201
▁ज़ि	-11.8203
mi	-11.8203
▁टिका	-11.8203
▁अनुकूलन	-11.8205
पोर	-11.8206
▁गैल	-11.8206
▁चिंताओं	-11.8208
ऐप	-11.8208
तेज	-11.8208
▁मेकर्स	-11.8209
▁पीडीएफ	-11.821
▁चढ़ने	-11.821
▁कालोनी	-11.8211
्टि	-11.8211
▁करावे	-11.8211
▁ट्यूटोरियल	-11.8214
▁क्यो	-11.8215
▁लिपट	-11.8215
▁भूगोल	-11.8215
हों	-11.8216
हनी	-11.8216
▁कंपन	-11.8218
▁ग़	-11.8219
▁चाक	-11.8219
▁जालंधर	-11.8221
▁एसोसिएट	-11.8223
▁भैरव	-11.8223
▁फेंका	-11.8224
सपा	-11.8224
▁आरके	-11.8225
▁नारंगी	-11.8225
▁जलस्तर	-11.8226
फानन	-11.8226
▁थाली	-11.8227
▁अनोखी	-11.8227
▁व्यू	-11.8227
▁घुसने	-11.8229
बॉक्स	-11.8229
▁टोक	-11.823
▁काटे	-11.8231
▁मौक़ा	-11.8232
▁निकालें	-11.8232
ोवा	-11.8234
ाश	-11.8236
▁करूँ	-11.8237
▁सेनानी	-11.8238
▁शाहीन	-11.8238
▁दर्पण	-11.8238
▁365	-11.8243
▁विधिक	-11.8243
▁गंदे	-11.8243
▁सद	-11.8244
▁घुसा	-11.8245
▁कॉरिडोर	-11.8245
▁आवाजाही	-11.8246
कप्तान	-11.8248
▁बचाना	-11.8248
▁ट्रा	-11.8249
▁1977	-11.825
▁प्रतिष्ठान	-11.8254
one	-11.8255
उदाहरण	-11.8258
माई	-11.8259
▁ताल्लुक	-11.8259
▁मेडिसिन	-11.8259
▁बिखेर	-11.8259
▁चुनौतीपूर्ण	-11.8259
▁बड	-11.8261
▁2019-20	-11.8261
▁प्रणब	-11.8262
टें	-11.8262
▁बगीचे	-11.8264
▁सर्प	-11.8266
▁गाते	-11.8267
▁St	-11.8268
▁नोडल	-11.8269
▁वर्षे	-11.827
▁एपी	-11.8271
विद्या	-11.8272
▁अब्राहम	-11.8273
▁प्रभाकर	-11.8277
रियो	-11.8279
▁पद्मश्री	-11.8283
▁रोकता	-11.8284
▁दर्जे	-11.8285
सीमा	-11.8286
▁चिन्हित	-11.8286
▁सेलिब्रिटी	-11.8286
▁तब्बल	-11.8286
▁उतरा	-11.8289
▁चौंका	-11.829
▁सरोगेसी	-11.829
▁जाह्नवी	-11.8291
▁त्रासदी	-11.8291
▁मच्छर	-11.8292
ण्याच्या	-11.8292
▁गीतकार	-11.8293
्की	-11.8294
लगभग	-11.8295
▁ग़ैर	-11.8295
▁टैटू	-11.8296
▁बकवास	-11.8296
▁बढ़ाए	-11.8297
NS	-11.8297
▁.12	-11.8298
val	-11.8299
▁करवाए	-11.8308
▁जामिया	-11.8309
▁कुख्यात	-11.8309
▁पन्नों	-11.8309
▁बचाए	-11.8311
▁हकदार	-11.8311
सत्ता	-11.8312
▁ढूंढने	-11.8313
▁हिदायत	-11.8314
▁आउटपुट	-11.8314
भक्त	-11.8314
सम्	-11.8315
उपलब्ध	-11.8318
▁रंजीत	-11.8319
▁पंचायती	-11.8319
ऑन	-11.832
▁आख	-11.8321
▁छो	-11.8323
बेन	-11.8323
ैम्प	-11.8325
▁सैल	-11.8326
▁use	-11.8326
▁18.	-11.8326
मिथुन	-11.8327
▁प्रामाणिक	-11.8327
▁जैकलीन	-11.8327
▁ईशान	-11.8329
▁सप्ताहांत	-11.833
ऐसी	-11.8331
▁ज़ी	-11.8332
ॉर्ट	-11.8332
▁मॉड्यूल	-11.8332
▁ख़र्च	-11.8332
▁बाधाओं	-11.8332
▁टेलर	-11.8333
सीआर	-11.8334
▁एबी	-11.8336
▁राजकुमारी	-11.8336
Search	-11.8336
़फ	-11.834
▁चाणक्य	-11.8341
अंतर्राष्ट्रीय	-11.8341
▁.8.	-11.8341
▁सस्पेंड	-11.8341
इस्लाम	-11.8341
▁कुरुक्षेत्र	-11.8341
▁डायमंड	-11.8346
एयर	-11.8346
▁अरबों	-11.8348
▁प्रतिरोधक	-11.8349
▁तत्त्व	-11.8349
▁टीजर	-11.835
▁रुकावट	-11.835
▁बैठकीत	-11.8351
▁अवरोध	-11.8352
▁डुअल	-11.8353
▁‍	-11.8353
▁निषाद	-11.8355
▁राठौर	-11.8355
▁फंक्शन	-11.8356
ैक्स	-11.8356
▁होस्टिंग	-11.8356
▁एकदिवसीय	-11.8357
▁विकासशील	-11.8358
▁झांक	-11.8358
▁डायल	-11.8359
▁सिया	-11.836
▁गोपनीय	-11.8362
▁एर	-11.8363
▁मायके	-11.8363
आरएस	-11.8364
गामी	-11.8365
ईमेल	-11.8367
▁उड़ीसा	-11.8368
▁सबने	-11.8368
▁फ़िलहाल	-11.8369
▁क्षत्रिय	-11.8369
▁औरतें	-11.8369
▁पथराव	-11.837
▁चिन	-11.837
▁तौ	-11.8371
▁सम्बंध	-11.8371
ब्बा	-11.8373
▁शोएब	-11.8373
▁सेगमेंट	-11.8374
▁अ‍ॅड	-11.8375
▁\	-11.8376
▁(1)	-11.8378
▁खरी	-11.838
▁प्रभार	-11.8381
लौ	-11.8381
▁शाखाओं	-11.8381
▁ओपी	-11.8383
▁उग	-11.8384
▁स्थानांतरण	-11.8388
▁उद्यमी	-11.839
▁मिल्क	-11.839
▁जड़ों	-11.8394
▁विचित्र	-11.8394
युद्ध	-11.8396
",	-11.8396
▁इन्हे	-11.8398
▁शुरूआती	-11.84
▁मनमानी	-11.8401
▁सोनाक्षी	-11.8401
ानंतर	-11.8405
.......	-11.8405
▁कन्नड़	-11.8406
▁प्रधानाचार्य	-11.8407
▁मेटा	-11.8407
संस्कृति	-11.8407
▁पाउंड	-11.8409
▁टेलीफोन	-11.841
▁केएल	-11.8413
दरा	-11.8413
▁वैधता	-11.8414
▁राहणार	-11.8415
ोई	-11.8418
▁महत्वाकांक्षी	-11.8419
▁रेखांकित	-11.8419
▁महापालिका	-11.8419
ood	-11.8419
▁शुष्क	-11.842
सोल	-11.8422
सामग्री	-11.8424
▁ट्रेनें	-11.8425
▁भग	-11.8427
्‍ह	-11.8427
▁>>	-11.8428
▁करारा	-11.8428
▁कतर	-11.8428
राशिफल	-11.8429
▁मनोबल	-11.8429
परीक्षा	-11.8431
▁कागजात	-11.8433
▁अंगूर	-11.8439
▁रोहन	-11.8441
▁अगवा	-11.8442
▁ब्राह्मणों	-11.8443
जानकारी	-11.8444
▁गिरीश	-11.8444
▁रिस्क	-11.8444
▁जिनमे	-11.8446
▁पिंड	-11.8449
ight	-11.8452
▁लड्डू	-11.8452
▁सेक्रेटरी	-11.8452
oo	-11.8452
▁st	-11.8452
ैग	-11.8454
▁लौटते	-11.8455
ान्तर	-11.8458
वण्यात	-11.8459
ौरा	-11.8459
▁मेक	-11.8461
बत	-11.8463
▁त्रिवेदी	-11.8465
NA	-11.8468
मरी	-11.8468
ूँगा	-11.8468
▁सती	-11.8468
ick	-11.8468
ॅट	-11.847
▁कुंद्रा	-11.8471
▁टोकन	-11.8477
▁गणपति	-11.8479
▁आंगन	-11.848
▁हीरे	-11.8483
ii	-11.8483
inextlive	-11.8484
▁वाल्मीकि	-11.8484
ुरु	-11.8485
▁सेनन	-11.8487
दह	-11.8487
▁ग्रेजुएशन	-11.8489
▁भतीजे	-11.8489
▁लोट	-11.849
फॉर्म	-11.8492
▁वृ	-11.8492
कुट	-11.8493
▁अनीता	-11.8494
शायद	-11.8494
शुल्क	-11.8494
▁फिल्टर	-11.8495
▁अभिलेख	-11.8495
स्वरूप	-11.8496
▁ओला	-11.8497
▁एंव	-11.8498
नवंबर	-11.8499
▁दृढ़ता	-11.8499
▁कराता	-11.85
▁घिर	-11.85
स्थित	-11.8502
▁प्रताड़ित	-11.8503
▁फार्मा	-11.8506
▁January	-11.8507
▁इंटेलिजेंस	-11.8507
▁शत्रुघ्न	-11.8507
▁वर्गीकरण	-11.8509
ंटे	-11.8513
▁घटिया	-11.8514
▁पदोन्नति	-11.8515
जाति	-11.8515
ll	-11.8515
.5.	-11.8517
डम	-11.8517
▁टाइटल	-11.8517
विमर्श	-11.8517
▁खीर	-11.8518
▁आँ	-11.8521
▁थरूर	-11.8521
माना	-11.8523
▁मुख्‍यमंत्री	-11.8526
▁स्नातकोत्तर	-11.8526
▁श्वेत	-11.8526
▁संभोग	-11.8526
▁भरें	-11.8528
▁सुगंध	-11.8529
▁प्रशासनाने	-11.853
▁पटकथा	-11.8531
▁यूएसबी	-11.8532
क्चर	-11.8533
▁बेस्ड	-11.8533
रिज	-11.8534
▁तीखी	-11.8536
नया	-11.8537
▁यहूदी	-11.854
▁मीठे	-11.8541
▁HD	-11.8544
▁कैब	-11.8544
▁स्टैंडर्ड	-11.8545
▁चौड़ाई	-11.8548
▁डॉक्टर्स	-11.8549
▁हस्तांतरण	-11.8549
शोर	-11.8552
▁जिन्हे	-11.8553
▁शर	-11.8554
▁जाईल	-11.8555
▁बेंगलुरू	-11.8559
▁संपत्तियों	-11.8561
वात	-11.8562
▁लेफ्ट	-11.8563
पीने	-11.8563
▁To	-11.8564
ॉल्ट	-11.8568
▁हरियाली	-11.8568
▁बास	-11.857
▁डांट	-11.8571
▁येणार्‍या	-11.8571
▁गुंजाइश	-11.8573
▁खल	-11.8574
▁सीएमओ	-11.8575
क्श	-11.8575
MA	-11.8576
▁बुआ	-11.8577
▁व्याकरण	-11.8578
▁पीरियड	-11.8578
यानी	-11.8579
▁पुरस्कृत	-11.8582
▁वर्कआउट	-11.8583
▁सवर्ण	-11.8583
▁थर्ड	-11.8584
▁सोचें	-11.8585
▁Mi	-11.8586
ज़ल	-11.8588
▁हमलावरों	-11.8588
▁हथ	-11.8589
▁दुसर्‍या	-11.8591
▁असणार	-11.8592
▁ग्रोवर	-11.8592
Advertisement	-11.8593
▁समझदारी	-11.8597
्ने	-11.8597
म्य	-11.8597
भ्र	-11.8598
▁दण्ड	-11.8599
▁१४	-11.86
▁पोज	-11.86
बद्दल	-11.8601
▁ऊस	-11.8601
▁चोदने	-11.8603
▁कविताएं	-11.8603
डऩे	-11.8605
▁शॉप	-11.8605
बाज़ार	-11.8606
▁गड	-11.8606
अमेरिकी	-11.8607
▁यात	-11.861
▁सभापती	-11.8611
▁परदे	-11.8612
लक्ष्मी	-11.8612
▁बरसा	-11.8614
शियन	-11.8616
▁of	-11.8618
▁जयललिता	-11.862
▁फ़्र	-11.862
स्ट्री	-11.862
▁फुले	-11.8622
मास्टर	-11.8623
▁थोप	-11.8623
▁कोकण	-11.8623
बली	-11.8623
गान	-11.8623
}	-11.8624
▁उन्ही	-11.8627
▁पोत	-11.8628
▁March	-11.863
▁अवध	-11.8631
उच्च	-11.8632
कुंड	-11.8633
▁नसीब	-11.8638
▁हर्षवर्धन	-11.8639
▁लेक	-11.864
वस्तु	-11.8641
र्रा	-11.8642
▁फ्रेंचाइजी	-11.8643
▁जलवा	-11.8644
▁खंडन	-11.8645
▁पाव	-11.8645
▁पहुंचता	-11.8646
सां	-11.8646
असम	-11.8646
▁सुधा	-11.8649
▁खदान	-11.8649
जाना	-11.8649
▁4:	-11.865
▁डूबे	-11.865
▁निपट	-11.8651
ैर	-11.8652
▁आख़िर	-11.8653
▁मुक़ाबले	-11.8653
ब्रो	-11.8653
▁व्यक्‍त	-11.8654
▁असुरक्षित	-11.8654
▁अनुप्रयोग	-11.8654
▁फेज	-11.8656
प्	-11.8657
▁मिलावट	-11.8658
पट्टी	-11.8659
▁लाला	-11.8662
▁दीनदयाल	-11.8662
ायत	-11.8664
श्व	-11.8665
▁सभापति	-11.8665
▁लगवाने	-11.8666
ल्लो	-11.8667
▁छुट्टियां	-11.8667
▁पिक्सल	-11.8667
▁प्रोमो	-11.8668
▁जवानी	-11.8668
▁दिलेल्या	-11.8669
▁बैठकों	-11.867
▁एक्स्प्रेस	-11.8672
▁विस्थापित	-11.8672
we	-11.8673
▁नज़दीक	-11.8676
शंस	-11.8679
-9	-11.8679
▁ma	-11.8682
▁ढल	-11.8684
▁कमरों	-11.8684
▁पनप	-11.8685
▁बरसों	-11.8685
रज	-11.8687
▁महाद्वीप	-11.869
राइट	-11.869
▁बाह्य	-11.8691
ायन	-11.8691
▁हिरण	-11.8693
▁रियासत	-11.8693
हिं	-11.8693
▁ब्रो	-11.8697
▁लख	-11.8697
सेंट	-11.8697
▁फॉ	-11.8698
▁डूबने	-11.8698
▁मैथ	-11.8701
▁रखेगा	-11.8702
पावर	-11.8703
▁प्लेस	-11.8704
▁अत्याधुनिक	-11.8705
▁नैशनल	-11.8705
शादी	-11.8705
▁काजोल	-11.8706
्‍म	-11.8707
▁नू	-11.8708
▁शाकाहारी	-11.8709
▁रोजमर्रा	-11.871
▁मटर	-11.8713
▁खाए	-11.8714
▁एजेंडे	-11.8714
........	-11.8718
▁जोड	-11.8718
au	-11.8719
▁प्रतिस्पर्धी	-11.8719
▁चेहरों	-11.8719
▁नाटकीय	-11.872
वाडा	-11.8722
▁कगार	-11.8723
▁हेल्पलाइन	-11.8724
▁मान्यताओं	-11.8724
त्तर	-11.8731
▁ताऊ	-11.8732
▁भूपेंद्र	-11.8733
चो	-11.8735
साफ	-11.8738
▁अदालतों	-11.8738
▁.'	-11.874
▁सिरसा	-11.874
कांड	-11.8741
▁पीपुल्स	-11.8743
▁मीठी	-11.8744
प्रशासन	-11.8746
▁इन्होने	-11.8748
▁चूँकि	-11.8751
ral	-11.8752
पहला	-11.8754
▁10%	-11.8755
पेड	-11.8756
आईपी	-11.8756
ध्य	-11.8757
▁मूर्तियों	-11.8758
▁दोगुनी	-11.8759
जौनपुर	-11.8759
br	-11.876
▁कक्षाओं	-11.8762
▁पुनर्विचार	-11.8762
esh	-11.8763
▁स्पोर्ट	-11.8763
▁इन्ही	-11.8767
▁काउंटी	-11.8769
व्ही	-11.877
ana	-11.877
▁बिठा	-11.8771
▁मशरूम	-11.8772
▁आदेशों	-11.8775
▁वॉट्सऐप	-11.8776
▁पोप	-11.8777
▁राजभवन	-11.8782
▁टॉपिक	-11.8783
▁बाट	-11.8786
▁मिलीं	-11.8787
भूषण	-11.879
▁इब्राहिम	-11.8791
▁प्रख्यात	-11.8791
▁ऑडिट	-11.8791
▁संजू	-11.8791
▁कबड्डी	-11.8792
▁जिम्मा	-11.8792
▁निशुल्क	-11.8792
▁करारी	-11.8792
जाद	-11.8793
▁कोल्ड	-11.8798
▁चित्रकार	-11.8799
▁मानहानि	-11.88
▁विश्वसनीयता	-11.8802
सूचना	-11.8803
▁स्वाभिमान	-11.8804
जात	-11.8804
व्यक्ति	-11.8805
सीबी	-11.8805
जमा	-11.8806
ंमध्ये	-11.8807
ापूर	-11.8807
▁जिंक	-11.8809
▁ऑलराउंडर	-11.881
PO	-11.8811
▁1960	-11.8811
▁ओपनर	-11.8811
▁कृत	-11.8814
राजनीतिक	-11.8814
▁शंकराचार्य	-11.8815
ॉर्न	-11.8816
▁मचाया	-11.8817
बेहतर	-11.8817
▁मिलाने	-11.8817
मण्डल	-11.8818
▁जनते	-11.8818
▁नवभारतटाइम्स	-11.8819
▁क़ा	-11.8819
▁तपासणी	-11.8821
ंडो	-11.8823
tr	-11.8826
▁जागृत	-11.8827
▁छुट	-11.8828
▁लेप	-11.8828
▁नरसंहार	-11.8829
▁बंदोबस्त	-11.8829
वाड़ी	-11.883
▁रामा	-11.8831
▁नौजवानों	-11.8833
▁चूम	-11.8833
धार्मिक	-11.8834
कीय	-11.8834
▁अनलॉक	-11.8834
hu	-11.8834
▁झुलस	-11.8835
▁मौकों	-11.8835
▁वन्य	-11.8835
ताई	-11.8835
▁Me	-11.8835
ुका	-11.8837
▁१३	-11.8838
▁नीदरलैंड	-11.8839
▁परंपराओं	-11.8839
▁उज्ज्वल	-11.8842
▁थानों	-11.8843
▁अध्‍यक्ष	-11.8843
▁खाती	-11.8845
क्री	-11.8846
▁पिया	-11.8847
▁दाएं	-11.8847
ूत	-11.8847
▁भ्रमित	-11.8849
घात	-11.8849
▁थ्रो	-11.8851
ौरी	-11.8851
घटना	-11.8852
▁महज़	-11.8855
▁मांगते	-11.8856
▁प्रचलन	-11.8858
▁रस्म	-11.8864
▁धीरज	-11.8864
▁दंपति	-11.8864
हत्या	-11.8866
▁सामंजस्य	-11.8868
▁थि	-11.8868
एगी	-11.8869
एसएल	-11.8872
▁चाहूंगा	-11.8873
कोल	-11.8874
▁रोष	-11.8875
लाभ	-11.8876
▁पाले	-11.8877
▁अपकमिंग	-11.8877
▁गंतव्य	-11.8877
त्‍त	-11.8877
▁शातिर	-11.8878
▁पहाड़ियों	-11.8878
▁जोड़ता	-11.8881
▁कुशलता	-11.8884
▁कीड़े	-11.8884
▁कांप	-11.8885
▁चुद	-11.8885
ज़ार	-11.8888
स्‍क	-11.8888
घट	-11.8889
गि	-11.889
ع	-11.8894
▁नीच	-11.8895
▁खींचा	-11.8902
प्रथम	-11.8904
▁मेने	-11.8905
सुख	-11.8907
▁रसूल	-11.8909
▁लंका	-11.891
▁खुशियां	-11.891
▁कराची	-11.8913
केवल	-11.8915
▁पड़ोसियों	-11.8916
▁112	-11.8917
ण्ट	-11.8917
▁रीढ़	-11.8917
▁पूछता	-11.8918
mb	-11.8918
्टा	-11.8919
▁पैदावार	-11.8922
लाइव	-11.8926
▁रिटायर्ड	-11.8927
▁गाथा	-11.8928
▁नगरीय	-11.8928
▁रितेश	-11.893
▁लढ	-11.893
▁धारक	-11.893
▁देय	-11.8931
फ्रे	-11.8932
▁बीट	-11.8933
▁सकने	-11.8934
डेल	-11.8937
हें	-11.8938
▁मोरे	-11.8939
ize	-11.894
▁संक्रांति	-11.8941
प्रदान	-11.8941
▁आपात	-11.8941
गीर	-11.8941
▁ह्यू	-11.8942
▁आईपीसी	-11.8942
गौर	-11.8943
▁पढ़ता	-11.8944
▁चित	-11.8945
▁मालदीव	-11.8945
▁इंचार्ज	-11.8945
▁हाइवे	-11.8948
▁थाम	-11.8949
▁मुख्यधारा	-11.895
▁न्यायालयात	-11.8954
दर्शक	-11.8954
▁US	-11.8954
▁लक्षित	-11.8954
ES	-11.8956
मं	-11.8956
औ	-11.8959
ड्ड	-11.8959
▁वंशज	-11.8959
▁शह	-11.896
▁खतरों	-11.896
.11.	-11.8961
▁सुनाने	-11.8961
BS	-11.8964
▁हटाना	-11.8965
▁पहुंचेंगे	-11.8967
CA	-11.8967
▁कळ	-11.8968
▁जुड़ाव	-11.8968
▁गर्भाशय	-11.897
▁विक्रमी	-11.897
▁विभागाने	-11.8971
यं	-11.8971
आत्म	-11.8973
▁900	-11.8973
▁शराबबंदी	-11.8976
▁अनन्या	-11.8979
▁अफेयर	-11.8979
▁सहाय	-11.898
गिर	-11.898
▁न्यूरो	-11.898
▁गहने	-11.8986
▁गम्भीर	-11.8987
▁गांधीजी	-11.8988
▁मैगजीन	-11.8989
▁रूबरू	-11.8989
▁लाखो	-11.8989
▁2-	-11.899
▁हिचक	-11.899
▁आईपी	-11.8991
▁रजिस्टर्ड	-11.8991
▁स्वीकार्य	-11.8991
▁चर्चे	-11.8993
▁वैष्णव	-11.8999
▁क्रैश	-11.9
कारक	-11.9
▁आकांक्षा	-11.9001
आईपीएल	-11.9001
▁श्रीनिवास	-11.9001
▁छे	-11.9002
▁नुस्खे	-11.9004
▁बाक़ी	-11.9004
▁मिळणार	-11.9006
▁1962	-11.9008
▁दबाकर	-11.9009
▁कल्प	-11.9009
▁सनसनीखेज	-11.9013
RA	-11.9014
▁मसूद	-11.9014
स्ते	-11.9017
▁दरोगा	-11.9018
▁इंट	-11.9019
एफसी	-11.902
▁निर्दिष्ट	-11.9023
▁चटर्जी	-11.9023
▁छोड़े	-11.9029
▁संतुष्टि	-11.903
▁गलियों	-11.9031
नन	-11.9031
▁मुंडे	-11.9032
▁No	-11.9032
▁दंगल	-11.9033
ियाई	-11.9033
▁लौह	-11.9034
▁नोकिया	-11.9035
▁सोया	-11.9038
विश्वास	-11.9039
्ग	-11.904
▁चिन्ता	-11.9043
िण	-11.9043
▁गिरते	-11.9044
▁मादा	-11.9046
▁हंगामे	-11.9047
कूट	-11.9048
दश	-11.9048
▁उत्पादित	-11.9049
▁अस्थि	-11.9051
ks	-11.9051
ॉय	-11.9052
▁दुकानदारों	-11.9052
▁येदियुरप्पा	-11.9053
▁सर्कल	-11.9053
वाड़	-11.9056
▁खजाने	-11.9058
▁कत्ल	-11.9058
▁निवडणुकी	-11.9059
▁बेट	-11.9059
ja	-11.906
शल	-11.9061
▁शोरूम	-11.9061
▁तबके	-11.9062
▁सूचनाओं	-11.9063
▁मालिनी	-11.9065
▁मंजू	-11.9065
▁हब	-11.9067
▁अच्छाई	-11.9071
कार्यक्रम	-11.9071
एनएस	-11.9072
▁प्रतिभाशाली	-11.9073
ure	-11.9077
▁blog	-11.9077
▁इंक	-11.908
▁आभारी	-11.9082
▁मेटल	-11.9082
▁लण्ड	-11.9084
▁विनीत	-11.9084
▁कुम्भ	-11.9087
▁1987	-11.9087
▁ऋ	-11.9088
gi	-11.9089
▁लागला	-11.9089
▁रस्ता	-11.9091
्याच्या	-11.9094
▁आइस	-11.9095
रेख	-11.9096
-14	-11.9096
ताजा	-11.9097
▁भूलें	-11.9097
निवेश	-11.9098
.35	-11.91
▁दुर	-11.9103
सन्	-11.9103
▁तान	-11.9103
▁नवाजा	-11.9104
RI	-11.9106
▁संगीता	-11.9107
▁आठवें	-11.9108
बड़	-11.911
ite	-11.911
▁तात्पर्य	-11.9112
▁सोयाबीन	-11.9112
▁डिटेल्स	-11.9112
जयपुर	-11.9112
▁मुफ़्त	-11.9112
▁सेनाओं	-11.9113
▁चेकिंग	-11.9114
▁कैंपेन	-11.9114
युवा	-11.9114
▁हायर	-11.9115
▁पंचमी	-11.9115
▁ग्रसित	-11.9117
▁रक्कम	-11.9117
िष्ट	-11.9117
▁Ka	-11.9119
▁पोट	-11.912
▁टें	-11.9121
वर्क	-11.9121
▁स्वीडन	-11.9122
▁ओळख	-11.9122
▁कुपोषण	-11.9123
▁कारगिल	-11.9123
▁प्रेग्नेंसी	-11.9124
▁तंत्रिका	-11.9124
▁सिफारिशों	-11.9126
ाच	-11.9126
पैकी	-11.9128
▁चिट	-11.9129
▁निगल	-11.9131
▁दोहराया	-11.9132
▁अवस्थी	-11.9132
▁इंफेक्शन	-11.9132
▁दुचाकी	-11.9132
▁लाभान्वित	-11.9132
हारी	-11.9132
▁मिटाने	-11.9134
▁जीरा	-11.9134
▁सुस्त	-11.9135
▁रघु	-11.9135
▁द्र	-11.9136
▁क्लिनिक	-11.9137
िस्‍ट	-11.9139
mail	-11.9141
▁कारतूस	-11.9142
र्ध	-11.9143
▁मोनो	-11.9144
▁.11	-11.9146
▁तयारी	-11.9147
▁कुकीज़	-11.9149
पोट	-11.915
टेड	-11.915
▁पशुपालन	-11.9152
▁जोड़ते	-11.9153
▁ड्रिंक	-11.9155
सच	-11.9155
▁बिन्दु	-11.9156
▁जींस	-11.9157
▁विनायक	-11.9158
▁मज़ाक	-11.9159
▁मिजोरम	-11.9159
▁वेल	-11.9161
▁छः	-11.9161
▁सॉफ़्टवेयर	-11.9162
so	-11.9163
▁उथल	-11.9164
▁गधे	-11.9165
ser	-11.9165
▁गिन	-11.9166
▁डॉक्यूमेंट	-11.9166
▁बदबू	-11.9167
▁नेम	-11.9168
▁परिपूर्ण	-11.9169
ree	-11.917
▁अखेर	-11.917
▁वाइ	-11.9172
▁मोहल्ला	-11.9172
▁नेटफ्लिक्स	-11.9172
▁सेमिनार	-11.9177
▁हवाओं	-11.9177
▁रेन	-11.9179
क्के	-11.918
दृ	-11.918
ोनी	-11.9181
MS	-11.9181
▁नट	-11.9182
▁विक	-11.9183
पोषण	-11.9184
▁रामेश्वर	-11.9186
▁रेगिस्तान	-11.9186
▁किसका	-11.9187
▁в	-11.9187
▁फ़ाइलों	-11.9188
▁टिकी	-11.919
▁पटाखों	-11.9191
▁अजिंक्य	-11.9191
▁महाराणा	-11.9192
▁सूर्योदय	-11.9192
वुड	-11.9194
▁सुनाते	-11.9194
▁ऑर्	-11.9198
▁रुपयों	-11.9201
▁भिलाई	-11.9202
▁विलंब	-11.9206
▁राजभर	-11.9206
▁कराती	-11.9206
ळून	-11.9208
▁रबी	-11.921
ष्‍ट	-11.9211
▁पहेली	-11.9211
▁एह	-11.9212
▁गालियां	-11.9213
बसपा	-11.9213
▁बडे	-11.9218
▁खबरे	-11.9219
▁भूखे	-11.9219
▁मुआवजे	-11.9221
▁अस्वीकार	-11.9221
▁जीवाणु	-11.9222
▁साईट	-11.9223
▁जुर्म	-11.9225
▁तरीक़े	-11.9226
▁हेनरी	-11.9226
स्सी	-11.9228
▁राजस्थानी	-11.9228
▁फेयर	-11.9228
▁मुन	-11.9229
▁उबल	-11.9229
▁उघड	-11.923
▁स्‍वास्‍थ्‍य	-11.9231
▁नाश्ते	-11.9231
▁बीजों	-11.9232
▁रक्तदान	-11.9235
▁पतंग	-11.9235
▁एकेडमी	-11.9236
▁बांधकर	-11.9238
day	-11.9238
▁पहिया	-11.9239
▁रिक्शा	-11.9239
▁कथाओं	-11.9239
ोमा	-11.9241
टिप्पणी	-11.9241
▁खाद्यान्न	-11.9241
बेस	-11.9242
▁टेस्‍ट	-11.9243
▁मोम	-11.9244
▁हसीन	-11.9244
▁भली	-11.9245
▁शिवसेने	-11.9247
▁पंड्या	-11.9247
▁स्थितियां	-11.9248
▁गार	-11.9251
▁दोहरे	-11.9251
▁सूचनाएं	-11.9251
▁खामोश	-11.9253
▁थ्री	-11.9253
▁क्रिस्टल	-11.9253
▁मियां	-11.9254
▁त्याने	-11.9257
▁पौड़ी	-11.9257
विद्	-11.9258
ff	-11.926
▁पह	-11.926
▁इर	-11.926
.26	-11.9261
फिन	-11.9261
▁चोटिल	-11.9261
▁अन्तिम	-11.9263
▁खुर	-11.9263
ुवा	-11.9266
वेस्ट	-11.9266
▁अयोग्य	-11.9266
▁आमजन	-11.9266
▁ख़ा	-11.9269
▁ढो	-11.927
बरोबर	-11.927
▁एंडरसन	-11.9271
▁मादक	-11.9272
▁1986	-11.9272
▁डेटाबेस	-11.9272
▁सिक	-11.9274
▁चमोली	-11.9274
▁आठवीं	-11.9275
▁वोडाफोन	-11.9277
▁बड़ौदा	-11.9277
▁डेल	-11.9277
▁मिजाज	-11.9279
आइए	-11.9279
मार्फत	-11.928
▁बिच	-11.928
▁मलबे	-11.928
▁छाई	-11.928
▁अनावरण	-11.9282
▁कॉम्प	-11.9284
▁102	-11.9285
कारा	-11.9287
▁पुरातत्व	-11.9287
▁बेगूसराय	-11.9287
छी	-11.9288
▁डीडी	-11.9289
▁म्यू	-11.929
▁मॉड	-11.929
▁ठिकाने	-11.9292
पत्ति	-11.9292
त्‍य	-11.9294
▁पत	-11.9294
▁Al	-11.9297
▁मनीषा	-11.9297
▁मागील	-11.9297
▁फी	-11.9298
▁उड़ाने	-11.9299
▁मैरिज	-11.93
▁थानाध्यक्ष	-11.9302
▁सहेली	-11.9302
▁वयस्कों	-11.9302
▁अपन	-11.9303
▁भव	-11.9303
▁प्रमुखता	-11.9304
ुलेट	-11.9304
राग	-11.9305
▁पीपी	-11.9307
गैर	-11.9308
▁खोकर	-11.9308
▁वस्तुएं	-11.931
▁बचाता	-11.9312
si	-11.9313
▁कूड़ा	-11.9313
▁दरगाह	-11.9314
▁देवरिया	-11.9315
लाह	-11.9316
भव	-11.9316
वचन	-11.9316
ाड़	-11.9318
▁असुविधा	-11.932
▁वृषभ	-11.9321
▁99.	-11.9321
▁चैंपियंस	-11.9322
▁सिब्बल	-11.9322
▁संवेदनशीलता	-11.9326
उसे	-11.9327
▁चन्द्रमा	-11.9327
▁ओलिंपिक	-11.9327
▁असहज	-11.9327
बच्चे	-11.9329
▁मप्र	-11.933
▁संस	-11.9332
▁सीएस	-11.9334
तुला	-11.9334
ea	-11.9334
▁पुरस्कारों	-11.9334
▁ड्रा	-11.9335
हाय	-11.9335
▁गंग	-11.9336
▁पायेंगे	-11.9337
▁खिलौने	-11.9337
und	-11.9338
▁मेघ	-11.9339
▁थेरेपी	-11.934
निर्मित	-11.9342
▁नॉ	-11.9343
▁मारते	-11.9343
▁रिक	-11.9345
नेर	-11.9346
▁निखार	-11.9346
▁टॉवर	-11.9347
▁छिड़काव	-11.9348
▁सराहा	-11.9348
▁दीर्घ	-11.9348
▁वन्यजीव	-11.9348
रक्षण	-11.9348
ऩ	-11.9349
▁लाभों	-11.935
/2	-11.9351
▁आंक	-11.9353
▁हुक्म	-11.9353
▁Apps	-11.9354
रोल	-11.9356
▁संक्षेप	-11.9358
▁भीमराव	-11.9359
▁किन्नर	-11.9359
▁अधूरी	-11.9359
▁पकड़ी	-11.936
.24	-11.9361
▁चना	-11.9361
▁ख़तरा	-11.9364
▁कुमारस्वामी	-11.9364
▁झाल्याचे	-11.9366
▁कड	-11.9366
▁क्रिप्टोकरेंसी	-11.9367
ंन	-11.9367
▁संवेदी	-11.9368
▁आंगनबाड़ी	-11.9368
▁मूल्यवान	-11.9368
डियो	-11.937
▁भै	-11.937
▁एडिशन	-11.9372
▁चने	-11.9373
▁ड्राफ्ट	-11.9373
राष्ट्रपति	-11.9374
▁नावे	-11.9374
ुरी	-11.9376
▁पीढ़ियों	-11.9378
▁निरा	-11.9378
▁बैठता	-11.9378
▁आंदोलनों	-11.9378
पारा	-11.9378
छु	-11.938
▁अनुशंसा	-11.9383
▁कन्नौज	-11.9383
तारा	-11.9384
▁लोकेश	-11.9384
▁खे	-11.9387
▁इतालवी	-11.9389
▁प्लग	-11.9389
▁मिलें	-11.9393
एमपी	-11.9395
▁वज़न	-11.9396
▁नुक़सान	-11.9398
▁वॉयस	-11.9398
▁खुशहाल	-11.9398
▁स्टोन	-11.9399
▁लाव	-11.9401
▁पाटीदार	-11.9403
िष	-11.9403
AI	-11.9404
▁मैनुअल	-11.9404
आईडी	-11.9404
▁चर्चाओं	-11.9405
जण	-11.9405
▁फाइन	-11.9405
▁नंगे	-11.9407
▁मार्किट	-11.941
▁वेदों	-11.9411
▁भावनाएं	-11.9411
▁आवारा	-11.9415
▁एसएससी	-11.9415
ाधीन	-11.9416
ary	-11.9417
▁दंत	-11.9417
▁असल्याचा	-11.9418
▁शरणार्थियों	-11.9418
लिटी	-11.9419
लियो	-11.9419
▁चन्द	-11.9419
▁याचिकाकर्ता	-11.942
▁सोमनाथ	-11.942
पाई	-11.942
в	-11.9422
▁नाखून	-11.9423
▁खाल	-11.9424
▁पूज्य	-11.9424
विवाद	-11.9428
▁एलपीजी	-11.9429
हारा	-11.9431
ाइजर	-11.9431
▁Online	-11.9433
ऐं	-11.9434
फ़ोन	-11.9434
▁एमएसपी	-11.9435
▁स्टारर	-11.9435
▁चलाकर	-11.9435
ction	-11.9436
▁पहचानने	-11.9437
आरसी	-11.9438
पूरी	-11.9438
▁रूपरेखा	-11.9439
▁मालवीय	-11.9439
▁उठती	-11.9439
▁वाढत	-11.944
▁रमा	-11.944
वर्धक	-11.9441
▁सूर	-11.9441
▁बेचना	-11.9443
▁पराली	-11.9443
▁झूल	-11.9443
▁आईसीआईसीआई	-11.9444
▁वॉल्यूम	-11.9444
▁छुड़ा	-11.9445
▁नग्न	-11.9446
▁हैप्पी	-11.9446
▁स्किल	-11.9447
वस	-11.9449
▁ब्रेस्ट	-11.945
▁जलाकर	-11.945
▁ठप	-11.9453
▁माउस	-11.9455
▁करुणा	-11.9456
▁पीएच	-11.9456
ंकर	-11.9457
▁खोया	-11.9461
▁जलने	-11.9462
▁स्टॉप	-11.9462
×	-11.9463
▁परिषद्	-11.9463
▁निस्तारण	-11.9464
▁पंडाल	-11.9465
बर्ट	-11.9469
▁मशक्कत	-11.9469
▁बहोत	-11.9469
▁1985	-11.947
▁मुर्गा	-11.9471
ंडल	-11.9471
य्या	-11.9474
▁भूरे	-11.9474
▁चंद्रा	-11.9477
▁भागातील	-11.9477
ner	-11.9479
▁खजाना	-11.9481
गुरू	-11.9481
ूँगी	-11.9482
▁अपमानित	-11.9482
▁ज़िंदा	-11.9485
गिल	-11.9487
MB	-11.9489
▁गोवर्धन	-11.9492
रवा	-11.9494
▁कंप	-11.9494
िसि	-11.9495
▁जाएँगे	-11.9495
य्य	-11.9497
▁5,000	-11.9498
▁जद	-11.9499
▁उज	-11.95
▁कॉर्पोरेशन	-11.95
vid	-11.95
▁ال	-11.9501
ड्ढ	-11.9501
vo	-11.9501
2015	-11.9502
▁दीक्षा	-11.9503
नस	-11.9506
▁वेळी	-11.9506
rk	-11.9507
▁सीताराम	-11.9508
▁दिवशी	-11.9511
ज़न	-11.9511
▁Sa	-11.9515
लोकप्रिय	-11.9517
भे	-11.9519
▁तंबाकू	-11.9521
▁भयभीत	-11.9521
ट्यू	-11.9522
थल	-11.9523
▁शेन	-11.9523
रेंस	-11.9524
▁विनम्र	-11.9524
▁लॉन्ग	-11.9525
▁ख़रीद	-11.9525
▁कॉरपोरेशन	-11.9526
▁संस्मरण	-11.9526
▁छात्रावास	-11.9526
▁टेंशन	-11.9527
ाध	-11.953
िको	-11.9531
▁नोट्स	-11.9534
ावधि	-11.9536
▁गाँवों	-11.9536
▁अंधविश्वास	-11.9536
▁किसकी	-11.9537
▁पाड	-11.9537
▁शहा	-11.9538
▁मूक	-11.9539
पीएससी	-11.954
▁सुलझ	-11.9541
[...]
